1111111101011001
1111111110011011
11111110
110101
1111111101011010
1111111110100100
10000001
10101100
10001110
1111111101101010
1111111110000110
10101110
1111111100101001
1111111100010010
1111000
1111111111110100
1111111110111100
1111111110010110
101100
1111111101001000
1111111100111011
1111111110010111
1111111110101000
1111111111001011
1001000
11110
1111111101101001
1111111101110010
1111111100111000
1111111110100110
1111111111100101
110111
10000101
1111111110010010
1111111110000110
1111111111111110
110100
110111
1010001
1010101
100010
1111111110011000
1111111001101100
1111111110011111
1111111111010101
1111111110101010
1111111111100111
101011
1111111110011010
10100000
11010010
10100011
1110010
1001110
110110
1101001
1111111111000001
100101011
1100101
1111111111110011
11001
10010001
1111111110011111
1111111010000101
1111110010100110
1111100111100110
1111101110001001
110000001
1111111111101000
1111111100100101
1111111100011001
1111110101001111
1111101101010000
1111110011111011
1111101111100000
1111100100101001
1111100101100110
1111101111010000
1111110101111000
1111111010100100
100000110
110110010
1111111110111100
11010000
1111111101010001
1111111101101100
11111101
11
1101000
1111111111111001
1111111101001011
11110111
100011110
1011110000
11111101011
100000101100
110111011110
111000110111
1000000110010
11001101100
1111111000111001
1111100111111100
1111000110010010
1111010101010010
1111011011011001
1111011101110000
1111100001010011
1111101010000101
1111111010010000
1111111111111000
10100111
1
10011110
1111111111011101
1000
11010000
10100000
1110100100
1111010010
1110010011
11001011110
110000100110
111000000111
110110101001
1010111110000
101001000100
1000000100000
111010010100
10000101101
1111100001
10010
11001101
1111101000100010
1111100101110100
1111100000101011
1111101100011111
1111111110011000
110000011
1111111110100010
1111111110011101
1111111110010001
1111111001110001
1010001
1011010111
1010100011
101001011000
110101011100
1000001000010
1001011011111
1001010000000
1010110110101
1011010000100
10010101001
100010000
11101110100
110000110000
111110100010
11110100010
101001011001
1111101000011000
1111010011111001
1110101110100101
1111000011011100
1111011010110011
1111111000010001
10110101000
10110110
1111111111100111
1111111100010100
11110101
10100101
1101000100
11001010101
110010001110
1001100101100
1010000011010
1101000011110
1000011111010
1100101001101
1101011111110
10000111101
100110110010
100001110000
1001100011
1111111011101101
1111111011001101
101001101
11100101000
1111111111010001
1111110110110011
1110001110
10111100
11010101111
100111001110
11111101
1110010
1111111100101110
1100100
1101101110
10011100101
11111001001
1000100110000
1011001011101
111011110001
1001101100110
1011010101000
1000110011001
101111111101
100100110001
1000111101000
11000000100
1111110111100001
101010010001
11111010101
11101111011
10000110100
11111110011
110001101111
110111101011
100111110
1100111000
11010100010
11101000
10101011
1010111
11111110
10010001110
100000001010
110011111011
1010101110110
1001011101110
100101110000
111110011110
100001111110
1010110111110
1110011100100
1001010000001
100001100000
1000010000100
101010011010
1111111011110111
10100101100
1000001110111
1010110100101
110101001000
100100101101
1000010100110
100110101011
10111010011
10111001011
1100100
11010000
1111111111010100
100011111
10000010101
100111100110
111101011001
111110101100
101001000111
1010001111011
101110101010
100000010011
10111110111
1000110111100
1101000010100
1100100110011
10010011010010
1100001001010
1001000000100
1010101001100
10111001101
1010110011111
11001101011
10110110100
111100011110
10110001010
100101011111
11011010011
11010001
100011110
11000
1111111100010000
1000000000
100011110010
11001000010
1111111101101110
1100101000
111000000
10100100
1111101010010010
1111001001001000
1111010101101101
1111011101000011
1010010010100
110011110101
101111101111
101111110001
111110101100
1000011001
1000000110
1001000010011
11011001010
10110011
1111100100011000
1111111100010110
10010000110
11000001
100111010
11000010
1000101
110011110
110011000
1111011100111110
1110101111100101
1110111001000011
1110010010100010
1101111110110100
1110100111001011
1110001010001110
1101111011111000
1101110101000110
1110001100111000
1110010001111000
1111100101011110
1111110010111110
1111011111010101
1111100011100101
1111001111111010
1111111000100110
1110111001011100
1110011110011101
1110101000100001
1111011111111100
1101101
11001000
1111111110001110
1111111100100000
100011
101000000
1111101101101011
1111000001111110
1101110101011111
1100111100101100
1101000011011010
1101110000001100
1101011010011000
1110001110000000
1110110011111000
1110010110011001
1110000000011101
1101101000001010
1111001101101011
1111111100101111
1111010001101001
1111000101011100
1110100001111010
1110111010100000
1110001110111000
1110000011101110
1110100011010001
1111110010110010
100100010
1111111110101000
1111111110010111
1111111111110010
1111111101001000
1011111
1111100100000110
1110101100101001
1101110101100100
1100110001101101
1101101001011100
1110000010001001
1110010111000111
1110101110001101
1111111111000100
1111101100011000
1111010010101000
1110011101111110
1111010100010010
100001101110
1111100001101000
1111011111101010
1111000111110111
1111010010001111
1110101011010011
1110100100100110
1111011000000111
1111111000110100
100010011
110010001
1001101000
100111100
11100000
1110001
1111101011101001
1111011101000011
1111000000001101
1101100101001011
1110110111111111
1111011000110110
1111010111010000
11001001100
11001100000
1111010100110110
1111011011010011
1111001001110000
1111100011110000
1011101111
1111101001000100
110100
10011011011
1111110000110101
1000100100
1111011110111101
1111101111000000
1111111110101100
11111011101
1000110100
1010001
1111111110011100
100100
1010100
1010010010
10001111110
1111111100010110
1110110111100000
1111010011000010
10100000
1010101111
11111001001
1111111000011111
1111101011000011
1110110011111010
1110100000010111
1111010010001010
1101110
1111100011111111
10001000101
1111111010101110
101010100001
100011111101
1111100110
1100000000
101100100000
110100100101
1100010001
100000001
110100
1111111111110001
1001100110
10011110011
110100100000
101111000000
11011100100
100100100000
1101110111
1001100110
1111101100
1110110010110010
1111110111101110
1111110110111010
1110110100101001
1111100111000011
1111010000001101
1111101101000011
1101110110
1001000000010
1010110011101
1010100011110
11111111001
101110110111
1011000100010
111011110001
1111010100
10100011
101001
1111111110000010
10001011100
11111111111
1101011100110
1011001111101
1001001000010
1111111111010010
1111101001001100
1000011
1111001001110000
1111011001010010
1111011001000110
1111011011110100
1111001000011001
1111100000110000
1111011011111100
100010101011
1100100000
11000111110
10000101010
101000000000
11010000110
101101000111
1000011010010
111111111100
111111111
10011000
1
1011000
1000010000
11101100110
1111001111111
1110001101000
1101010011001
100111000
1111011011010001
1111010110100100
1110101111010001
1110110111111000
1110011011110000
1111001001110001
1111101001001100
1111100111101010
100001
101000011011
10011011011
1111111001110110
1111011110001111
100100011101
11100010110
101110110011
1000101010001
100000010111
1111111110110100
0
1111111100111100
110110
1100011
10111000010
1011011011000
1001101111101
1100000111100
100001011101
110010
1111101111111001
1111111101101001
1111010000101001
1110011000
1111111010001011
11111100111
1111011100
1111011100001001
10111000101
10010001101
1111100001110000
1111111011011000
11001011100
100010111000
110001101001
11101011011
1010010110
11111
1001000
1111111110000011
1111111011110011
100000111
11110001010
1011111000101
110100010101
101100010110
100010000110
110110100000
1000000100111
100010100100
101011010110
101011000010
100100110100
11011111100
1010101100
1111001011010100
1111101100010001
1111101001000111
1111111000000100
1111110000110111
1110010100
1000100110111
110111101110
11001110
10011010
1111111011010111
1111111110110000
1111111100101100
1100101
110101011
100110010100
111011010110
1110100000
10101111101
1111110110100010
100001011110
101110000000
10110111000
110100111111
10011100101
1000111101
1111111010101011
1111111111010000
1010001000
1111011110010101
1111001110000111
10110000
1111010100100010
1111101001011100
10110000010
100100001011
1011010101
10011000110
101010
1011001
1100100
1111111101000001
101011001
10000100100
101110000111
1111111111010001
11011111001
100110001011
100110000100
1110101111
1011100101
111001010000
101111111100
1111001010
1111101011011001
110110000110
1011101100
1111010111111110
1111101100001100
1000010
1111011011010110
1111110001010011
10010100
1100100011
111011111
1000001011
1111111111110111
1111111101010111
1111111101001100
11000010
1111111111001111
1000001010
101110000010
11100010101
110100101010
111101100110
1111111010000100
1111110110111101
1111111100000111
10111110110
1111011001111010
1111111000001001
1111110001100101
10000010100
1111011101001110
1111011001100111
1111011110110111
1111010110110010
1111001111001111
1111011100110010
1111011111010101
1111100000101010
1111111110110110
100110110
10001110
1000011
1111111110011101
1111111111011111
101010
1010000010
100000000001
100101101110
110011110110
1000011100111
100010111101
1111010001
1111101000000111
100000110
100001101100
110001100100
101010010000
10101110000
1111110101001101
10010101011
1111110010000100
1110110111111000
1110110011010001
1111000001010011
1111011101000011
1111011010110111
1111111010111001
11110001
11
1111111111011101
10100011
101001
10010
100100110
101100101
10010110101
11110111001
101100011011
111011101010
1001101111010
101000110010
1001010111000
110010111011
100000110000
10111101100
1000000010001
110010111101
1001000001
10101010100
1111111010010110
1111001010000001
1111001011111001
1111110101001001
1111111001110000
110100010
11000001
1111111101111011
1111111110011110
1111111100101111
1111111101000101
1000101
1111111000111010
1111111111010100
1111110100101010
1111101011101001
1111111011100010
111010110
1110010101
1110000111
1010001
1111111010000001
1111011101001001
1111100111001001
101011110111
1000011001101
10111011000
100100001111
101110010010
1111110010110101
1111111000011010
1111111111010110
10100111
1111111111100100
1101
1111111110010010
111101
101100
100011
100010110
1111111011001010
1000110
1111111110000010
100111
100100100
101101100
100010011
110010010
101101011
1000011110
1000101000
1100110000
1110001010
110011010
111010100
1111111100011001
10001010
1111111000000110
1111111011101011
1111111111111100
1111111110100111
1111111110000100
10001110
10011011
1111111110100010
