1111111110001000
10110010
110010011
1111111101111110
11101010
110010
1111111110001100
1111111111101001
1111111101110101
1111111110011111
1110000
1111111101001101
110110
1111111110100111
1111111111001000
1111111111001011
101101
11
1110000
100001111
1111111110000010
100010
1111111101000001
101000000
1111111100111011
1111111101100100
10111
1111111111000101
1111111111001111
1111111011110110
100101
1001101
1001100
1111111110001000
10100001
11001001
111000011
1111111111000001
110001001
1001100
100000000
101001
101101
1111111011000110
1010110
1000100
1111111110001110
10100001
1000001
1111111101111111
100101001
1111111101110010
1111111111001011
10001000
101010
1111111100111001
1111111111001000
1111111011111110
1111111111010011
11001
101001
10111
1110
111110101
1000100100
111110110
111100000
1011101110
10100111010
1100101101
1011101110
1000100101
1110011010
110000010
110110
100111110
1111111101010101
1101010
110111
10010001
100010
1111111101000010
111010
1111
1111111111100111
1010100
11000011
10100101
1111111111010000
1111111111001110
11101100
110111011
1010010000
10011010000
11000011101
10110111011
11110000010
100100000110
11111110100
11000000001
1110111001
1111111001000000
1111111100100001
110001110
100001101
111001100
110111100
10011110
11100111
1111111110110011
1111111111001001
1100010
1111111111000001
1111111110010000
1101001
1111111111011101
1111111110011011
1111111000000000
111010
110001100
1111111110111011
1001110011
110101011
1011100
10000010111
1111001001
1011010010
10100110101
10011010010
11000010011
1000010111
1101001001
1111011001
1110111
1111110100110110
1111110101111100
1111111001100000
1111111101111111
1011110
100100110
10010101
1111111111001101
1111111110110100
1111111001100100
1111111100011100
1111111110000110
1111111101001001
1111001101
11011011101
10000101110
1101110011
1111111101101011
1001100000
1011010011
111110000
1111111111101011
11
1011001111
100011000
1111111001110001
101100101
1001100000
1111111010010001
1111101111110101
1111110110010011
1111110101111101
1111111011110110
10011
1111111111111100
11001001
1111111000111000
1111110111110011
1111110100001110
1111111011000100
110110011
10101011011
1100011101
11001110
1111111000010011
1111110111100101
1111110111011100
1111110110011100
1110
10000100
100100100
1111101111010000
1111101100011100
1111101111110101
1111110001011011
1111111111001111
1111101010011010
1111100100100111
1111100100110000
1111110000110101
1111111000000000
1111111110010000
1111111011101101
1111111101100110
101100
1111111010100100
1111111111101010
1111111001001011
1101011000
1111001011
1110100011
1110011011
10000011
1001110111
1000001001
1001000010
1111101111
1111110111010111
1111111001101001
1111110111100100
1111101110110111
1111101110001111
1111101011001011
1111110100100010
1111110010111000
1111100011011100
1111100011010000
1111101101001100
1111110111101101
1111111111010110
100001011
1111111110101000
110101111
10110100
1111111110001000
1111010
1000111111
1101011110
100010110
101000100
1100101011
10011001110
1111000010
1111111101010000
1100101100
110111110
1111110011010011
1111101011000101
1111100001011100
1111101100101011
1111110010100011
1111101101011100
1111110000011001
1111110101100000
1111011101111111
1111100100000010
1111110100100100
1111111110111100
11111011
1011010
100100001
1111111101000001
1111111010111010
101110011
1111110101101000
1111101
10011
1001101110
1111100000
1010011000
10001111101
1101111000
10011100111
1111110111010100
1111011110111101
1111101100101101
101110
1111101110100000
1111101000011101
1111100110010000
1111101100100000
1111111001110001
1111100111001101
1111101001010101
1111111001100001
1111111111101100
1111111110101101
101100
1111111111000100
1111111001000111
1111110010001000
101100
1111111001001010
1000000000
10110100010
1011001000
101101100
1111110011100001
1111110000000001
100100000
1111111011111010
1111101111110010
1111111001001010
1111110110010111
1111111000011110
1111101011101011
1111110110111000
1111101110100001
1111101011110110
1001010100
1111111101110001
1111110000110101
1111111110101110
10001101
111111
10110
1111111111011011
1111110001111110
1111110111010110
100100011
101000101
1111111101010110
1111110111111011
1111110101010010
1111010011001010
1111000111010101
1110111011111111
1111000000011100
1111010010111011
1111100101111100
1111110101101010
1111100011000101
1111101000011011
1111110100100100
1111111011010011
1111111011100010
1101000
11111100110
1101101101
1111111101000001
1111111000011011
1111111110010101
101111
1111111111101100
1010010
1111111000101111
1111110110000100
1111110011100001
1111101001101011
1111001100001000
1111000111111111
1111000111111011
1110110011001000
1111000100100100
1111001001111111
1111001011011100
1111001000100100
1111100100101010
1111100110101100
1111100110111011
1111110001101100
1111110010011110
1111110110101001
1111110110110100
1111110110
100010110100
11000110001
100001101
11
10110111
1111111111001110
11011001
1111111111011111
1111110110000000
1111101001100100
1111100101011001
1111011010101000
1111001100010000
1111001110111010
1111100011001010
1111110001010000
1000110111
1111111010110011
1111111100110111
1111110001010000
1111110110101010
1111110111011100
10111010
1111101100110011
1111111001101100
1111111000111111
1111111011001001
1100110100
101101000110
100010100101
111001001
11011111
111110
1111111111010101
1111111111010011
1111111111101001
1111110011011110
1111101000001011
1111100101001110
1111101011010110
1111111010010100
1111111010100111
111000111
1001011101
10001011000
1111111111100011
1111111110010110
1111111100110001
1111110001011000
1111110001111110
1111110110011101
101010100
1101100000
1011011010
1010101111
10000111011
100001010011
100000010000
1110100111
101011110
1100
1010101
1111111101110000
1111111101011010
1111110110101111
1111101101000101
1111111001100001
11001
1101010100
101111110
1111111001000111
10010001001
1000001010
1111111011011010
1111111011100000
1110010010
10010100100
1111111011111110
1111111011010001
1111110110111101
1111110010011000
1111110111000101
10100011
101100110
10110000110
110000011000
11111011000
1000100110
1011010
110100
1111111111100001
1111110111110011
1111110110101110
1111111101101101
100001110
1010010010
110001011
1111111011000111
11011010
1001111111
111100111
1111110111011101
1011010101
1101011111
11001000
10000101
1100101111
1111111011001101
10001001
1111101111100110
11011000
10010011000
11010000110
100111111010
101001001101
10001000100
11110
1011101
1111111110100001
1111111011100001
1111111011110101
110111000
111000010
1111110101110010
1100101
1111111010000101
10111110011
1010000011
111011000
11000000
10110100101
111110010
101010111
1111110001110010
1111111010101000
1111111010110011
1111111001110001
1111110101100000
1111110110111001
1101010010
11001001010
101001011000
100111100110
111001100
11101010
10001
110011
1111111111001100
1111110111111000
111001100
1010011
1111110010100110
10101011011
100101011
1101000100
10100110011
1111111101110000
11000100011
11010100
10001110
1111111100011001
1111101110101100
1111111111001001
1000000010
1111111001011001
1111110101000101
1111110110000100
1010001111
10101100110
101010110100
11010001111
100011101
11000111
1111111101101010
111
1111111111011101
1111110101110111
1111111110001011
1111101101111010
1111110011010100
1111000001
111110010
1100100100
1000100111
11001111110
101001110111
11010111010
100100110111
100001011100
100010000
101001000
1111111111010100
100101001
11001100
10000000
1001101111
10101010010
11100110000
1100110101
1101
1111111110110100
1111111111000111
1111111101101001
110010101
1111111111101101
111111010
1111110010101111
1111111100101101
1000110001
100011100
1111111110010100
1111111100110111
100000001111
100101010000
101111001000
100100011111
1100001001
10100101
1111111100000100
1111111111110001
1000110001
1111110111101100
1111111000001011
1001001101
11011111101
10001110001
101110000
10001111
1111111111111001
1111111111101101
1111111110011001
10011010
101101010
1111111101010000
1111111100011111
1111110100001100
1111111101100101
1111111111101011
1010000110
101111101
10100000000
1111000111
1011000001
11001111010
1001110011
1010100111
101001
1111110111110011
1111111011110100
101001110
10100010
10101111000
11100100100
1100011101
1000001000
10010010
1111111110111111
1000001
1111111100111001
10011111
11011101
101100010
1001001101
1111111111011001
110000
1111111101001011
1001001010
1000001000
1111111111101000
1100010110
1101101011
110010100
1001111
100001111
1111111010001111
1111111111101001
11111
111000011
1010101010
1111100000
1101110101
100111010
10001111
1111111101100101
1111111101111100
1111111111110000
1101111
1111111111011101
1111111111101001
1111111011010011
1111111011101011
1111111100010110
1111110111101011
1111110100001011
11101100
1111110
1111110011011111
1111110111001110
1111101101100000
1111101101100100
1111111100100001
1011111
1111100011101100
1111101010001110
1111111011101101
1111111111001111
101010111
1010100001
111111010
11110101
1111111111100011
1111111110110100
101010
1001010
1110
100011011
1111111000111100
1111111000010101
1111110111001000
1111110110010110
1111110010100110
1111111100110000
1111110011111101
1111110110111101
1111101111011010
1111010
110011000
10001
10000110110
1101111
1110001
1111110100110111
1111110010101110
1111110100000110
1111101110000101
1111110111001110
1111111100000100
110110100
1000101010
1111111110100001
101011001
1111111101100001
1111111110101001
1100000
1111111111110111
1111111101110010
11110
1111111100110001
10111000
111000011
1111111111100100
1010111011
110111101
1111011100
10110100
111010111
10100011001
1100011000
11001011
1111110101111101
1111101011110100
1111101100101111
1111110010111111
1111110110010010
1111111111000110
100110111
1101011
100000010
11010010
1111111110000000
1111111111101010
11001001
10111
1111111101000100
1111001
1111111110011011
10101
11010010
1111111111001111
111010001
1101110001
100111111
111011110
1110101110
10100001011
10001011100
1010101100
101010111
1111111101110000
1111110101001101
1111111010001101
100001011
1111111011111001
111110
1111111101111110
101110
101101
1111111110011100
11010
1111111101111010
1111111110110110
1111111110011011
1111111111101011
1111111110000001
101101111
1100101
110110
11110010
10111110
1100
101110010
11100101
1111111110011100
1111111101011011
1111111101100001
11111
111010
1111111100000111
10001
1111111011110111
1111111100111000
1100111
1110010
1111111100110000
10001010
