101011
1111111111100110
11101011
1111111111010111
10100100
1111111111011110
10001000
1111111111101000
1110101
1111111110111010
1111100
1111111110001010
100110010
10110010
1111111111100000
110100011
1111111111101100
1111111110001111
1111111011011100
11011
1111111100100000
11111010
1000011
1111000
1111111110101111
10101101
1111111110101000
11101
1111111101100001
10110101
10110010
10111
1111111101011001
10111011
11110110
1100010
1010001101
11000101
11000001
100011110
110111000
1010111001
1111111111101001
10010110
101001011
110111010
101010001
1001010010
1110101
1111000
10111010
110000
1111111110100010
1111111111110000
110111
11101
1111111110010001
1111111110100001
1111111011111110
1111110
1111111111011110
1111111111110101
100011000
110101110
1101001101
110100110
1101001110
11000100101
100100010000
100100011100
10010011100
111111001
1111101000
1100101111
10000001011
1110011110
1111100
100010
1011000010
110110110
1111111110000011
1111111100011110
1111111110110011
110110
110010
1111111101101000
1111111101101110
1111111111000011
1111111111101101
10101110
1111010101
10010011011
10110111010
10111011100
1100000011
10010011011
110101010010
110011011110
110001101010
11100010001
1110100111
1111111110111010
1100110100
10000100010
11010100110
10100110010
10111000101
10000011001
1111111000011110
1111111100001010
11100
10001110
110001
1111111011101100
1111111100000000
1111111111111100
1001000
1111111111010100
10111100
110101
1000100001
10111001110
11011001011
1111111101111001
1111111011000101
100011111
110011101101
101011101111
10010110110
11001000100
1000010101
11001010100
101110100011
11000110001
1010111111
100101111
1111110111111111
1111111100100100
11100001
1111111110101011
11101
100011
1111111110010011
1111111111110110
10001101
1111111010010011
1111111001101100
1111100101000111
1111100010110010
1111101101001010
1111100011110011
1110011110011010
1110011001000011
1111110111011101
10010111111
10111101001
1111010110110101
1111001001001000
1111001010000100
1111001111001011
1111100011011111
1111100100000100
1111101100001101
1111100100011010
1111101100101000
1111111100001001
10000011
101101
101110
101100
1111111110100011
1111110111111011
1111110111110010
1111111111101101
111100000
1111101011010001
1111011001001101
1111010101011100
1110111010
1111110011
1111100010111111
1111100101010001
1111001100001000
1111010001111100
1111111111110010
1111100011000011
1111101000100100
1111101000011101
1111000110001001
1111100110010011
1111001101100111
1111001010011111
1111101001010101
1111110001011011
1111110111001010
1110111
1111111101011010
1000010
101000111
1111111101010101
1111110010111110
1111110010110011
11011100000
1101110001
1011001000
10101001
1111110111110001
111100100
10111010110
101000110
11000110001
1111110001111010
1111011111111100
1111100100010010
1111010011111000
1111010011111101
1011000110
1111101001011111
1111100010011100
10110101
1111111110001010
100111010
1111110100000100
1111111111001100
11100111
1111111110101010
10110111
1100100010
1111111010011101
11111010
101101111001
111000011111
101001010111
1111100111110011
1111110100010000
10101111100
1111111001001110
1111101011010001
1111111000000000
1101100100
1111101000111111
1111111111101011
1111011001110000
1111001100000000
1111101100010001
1111010101010110
101010100
10010101100
1000110111
1100000100
1111111011011010
1111111001001010
1111111111100110
1111111110111000
11100110
10110100100
1110110110
1000001000010
1000000011011
10110110100
100001101111
11100011000
1100111100
10110001110
11001001010
1100110110
101011101100
1100110
1111110010010101
101000110000
1111100010101110
10100000010
1011111001
10100001001
110110100001
1111111001001011
10100101110
1100011000
11111010
1010100111
100010101
100001101
10010001011
100000000010
1001101110
101111110110
1100111001
11010001001
1111101011100011
1111110001101011
10110011010
1111110100011010
11100010111
10110000001100
10010100000100
1010001011111
111000110010
10101100111
1111110110100101
1111101110101000
1111111111100000
110111101001
110000110
100010010110
100010100000
101001000000
1110001101
100011111
1011001
10101101
1011000101
11010111000
11001011001
1111111110111001
1111010011100010
1100010100
1110111101011111
100010001100
1111100001010101
1111011101011001
11011001000
10001010111111
11000011100000
1111001000010
110110101000
100100101001
111010011110
100011001
1111011001010111
111100
1111110000101110
1111111111001101
1001010110
11111010110
1011100000
1100001
1111111110000101
101110101
10010001101
100110111111
11011100001
1111110111110000
1111100000011101
100001101101
1001101001110
1000101010
1110111011000100
1110001101101100
1110111010010111
1111001011110110
1011100011
10010001110
100000010000
1110000000
1111111001011110
1110111100000001
1111100000011011
1111001100110111
1111011010010010
1111011110111101
1111101100010011
10111000010
1010100011
11110111
10011101
11001101
1000111011
10010000000
11100111111
1011101101
11010000
1111010101010111
10010010111
1110101001111001
1110000101000101
1101100011011101
1110100010000110
1110100111111100
1111010001001011
1111011001001100
1111110111100011
1111101111110010
10010101110
1111101110111111
1111111110101010
1111111011111000
1111110101010001
11110110111
101000101110
100001110110
1000110100
1000110010
1010101
1111111111111010
101001101
1011000
1111101010111011
1111111010110110
1111110101011100
1110111001111011
1111001000111110
1110100100011110
1110110111000001
1110010000011000
1110011101110111
1110110110010111
101110100
1111011110100001
1111101001111100
1111100010010110
111011001000
110000010111
11100001101
101000011100
110000010001
1000111000101
11110001011
10011111011
11010110
10001000
1111111011111000
1111111011110010
101110000
1111001000
1111010110101000
1110110101010100
1111010010100001
1110100001111110
1101111000001010
1110100011110110
1110101000111110
1111000011000001
1110110111111000
1111100010100001
1111100111
11110010000
1111100010011010
1111101011110101
11010010011
111000100011
1100011001100
1000001101100
10101011100
1111110110001000
1111110000001011
1111110011101000
1111110111101000
1001100
1111111101101000
1111111111110000
10100010
1101100011
1111101101001101
1110111011000101
1111000100000001
1110101100000001
1110101010110010
1111001111001111
1110100100010010
1110000110000111
1111100010001110
100011101
10010111001
1100100100
1111111000100011
1111110110110111
110001001010
10010000111
110010011011
101000000000
1111101100101101
1111010100100101
1111100001100110
1111101011100011
1111110100111101
1111111111100011
1111111100110110
101110
111000
100111101
100101111
1111111001111001
1000110001
1111010111011001
1111000010000000
1111010011010110
1111000000101010
1111011110000111
110001100
100011111
10101110111
101010101
1111110101100000
100101100011
1011100001
100010110010
1000111010000
111111001101
1111110010010010
1111100100100110
1111110000111111
1111110000101101
1111111100111110
1110111
11110101
1111111111000001
1111111110010101
10110010
111010001
11101
100001010101
100110100111
1111100111101000
1111010010110100
1111000010100001
1101000100
100100001011
110100000100
11011111
100110011
1000001011110
111010101001
1100100111
100000110101
11010011110
1000100111
1111100101101110
1111111011100001
1111111001111100
1111110100100111
11001110
1110011
1111111101111111
1000
1111111101000100
1111111010000010
1111110101110101
1111101010111011
1111101000010111
110011001
11101011111
110000100
1111001111
1000011000100
1100000000101
1001011010010
1100100100101
110101011011
11101111000
1111101010000010
1111101000100100
1111101010110101
1111011111010011
1111010110001000
1111100001011111
1111110110011110
1111111100111100
1111101110111100
1111111101000010
10110001
10111110
1111
1111111101110001
1111101100111101
1111011011011000
1111000000100111
1111010011010110
1111101000110111
10110101000
101100001010
1001010011100
1000110011101
1101000000011
110110001011
1110010000010
111010011
1111110010111101
1111011110101100
1111010111000101
1111001001001100
1110111110011011
1111010111100110
1111010100101011
1111110100001001
1111110111011000
1111110010000001
11011001
1100111
1111111110101011
110111
1111111000111111
1111110001010010
1111011101101100
1111001101101100
1111010101100001
1111010110110011
10001000010
1000010111
1010010110
10100010101
10100111001
1111111000010101
101000001101
10000100101
10101001101
1111101010000011
1111011011100001
1111000011100110
1110101100011011
1111001100000001
1110111111100101
1111011111001001
1001
1111111111100101
101001111
1111111111010100
1111011
1111111111101010
1111111100001000
1111110001110111
1111100001000011
1111100100101001
1111101000010100
1111110010111011
1111100101111111
111111100
1111111111101100
1110111110010100
1111001110010110
1110101001100101
1111010101110111
11110101
11000001
11011100101
11000110
1111011101000111
1110110001101110
1110100100100110
1110100111001110
1111000110100100
1111110010010101
1111111100001000
100101
1111111111100010
1001
10
1111111010111011
1111110111100011
1111111001000011
11000001
10100011100
101010001
1111001100010011
1111011001000100
1111000110101101
1110010110101100
1110101100001101
1110100011001100
1110110010011101
1111111010010011
1111001110110011
1111111100100110
1111001101011110
1111000101110000
1110111011010011
1110111000100011
1110101110110111
1110111000101111
1111101101100110
1111111100100101
1111111011111111
10010100
10101
1111111111000010
1111111101011011
1111111101111100
1100011101
11110100001
11100110011
1111111001010110
10010011
1100111101
1111110100111111
1111101001110111
1111010110010110
1111010111001010
1111000111011100
1111101111100000
1110111011100001
1111010111000010
1110101110101011
1111001101110000
1111010000110101
1111010110101001
1111100000011011
1111001011011110
1111110011011001
1010011
1111111111101010
1010111
11111001
1111111110010000
1111111101011000
1111100
110101111
1111111101110001
1111110100100011
10010111
100010001001
100011001110
1000011111101
1000010101001
1000100111100
11110110000
1000111
1111101110101101
1111010111100000
1111011111011011
1111101011010101
1111111101001011
1111110000101000
1111111101001000
1000101101
1111110000010110
1111111111001011
10110010
111011
1111111100011011
10001100
1001
1111111011010101
1111111111011010
1111110111001011
1111111010010110
1111101110010010
1111111001100010
10001110
1111111010010011
11011
10001001100
1010101100
10100111010
1111101111
1011010001
101001000110
1011000110
1011111110
10101010111
1010010000
1000110000
100100010
1111111011011000
111010
1111111111110011
10011110
1111111110011001
110110
10000100
1111111110101000
1001100
100000000
1111111111110001
1111111110011000
101011100
10111101
1111111010110010
1111111111110011
111101
1111111011110110
11011110
1111111100001100
111111010
1011010011
100110001
1111111111010011
11111101
1111111111110110
101010
100010110
10111101
1111111101110111
10011101
11100101
10101100
