1111111110111000
11101
11
1011110
110
10001101
1111111110101100
1010101
1110111
1111111111011100
1111111100100000
1111111110111100
1111111011000000
111101
1010001
1111111111110101
1111111111101111
1111111111100011
1111111101001101
1010
1011011
1111111111011011
1001110
1111111111000001
1111111111000000
1101110
10111101
1111111110001010
101111010
1111111110010001
1111111111100001
1111111110000100
1111111111010110
101010
1111111100101110
1111111111011011
111
1010011
0
1111111111010011
1111111111010000
1111111100111011
11100001
1111111110100111
10110
1111111111101111
1111111011110011
1111111001110011
1111111111001101
1111111101111111
1100110
101110
10000110
101111
1111111110010011
1100010
1111111011011111
1110100
1111111110010101
10111111
1111111100100111
1111111100100111
1100110
1111111100110111
1111111011011100
1111110110001010
1111110111011010
1111101010111101
1111101111010101
1111110011100001
1111110011111000
1111110001010110
1111101110000100
1111101011100111
1111100010011001
1111100101011010
1111100111010011
1111110111110100
1111111010110111
1111111100011110
1111111111001000
11111000
1111111101001000
1000001
1111111111111111
1111111101101010
1111111111010110
1111111111011110
1000110
1111110011011001
1111110101111011
1111111001011010
1111111011100011
1111011001000110
1111000011110001
1111001010001000
1111011001000011
1111010110011000
1111010001011001
1111011010110110
1111010010011011
1111000011110000
1110110001100110
1110111101000101
1111001111100001
1111001010000101
1111001100111101
1111100000100111
1111100111011000
1111111010001100
1111111111010111
1111111101010011
1011011
10001001
1111111111111111
1111111011101111
1111111101000111
1111101111000011
1111100101110011
1111011111101010
1111010111100010
1110111100001101
1110101000100111
1110111010100110
1110111101010110
1111001110110100
1111000000011011
1111010011111010
1111001010000001
1111010101110001
1111011111000101
1111000000010001
1110101011111101
1110110110111011
1111001001000101
1111101000010011
1111101000111000
1111111011000111
1111111111101011
1111110111000101
1111111101110001
1111111111111010
1111111101101010
1111111110011101
1111111100100110
1111100011111111
1111010110100111
1111011100001101
1111000010101111
1110100100011001
1110001111111011
1111000100101101
1111011010000001
11000101010
1111110110100100
1111010010100011
1111001111010100
1110111111001000
1111010101000000
1111010111100100
1111011001010001
1111010101111111
1111110101001111
10100010101
1111101110110111
1111111101100001
11011010
1000
1001000
1111111100010011
110101101
1111111100111110
1111110010100011
1111111110011010
1111110110011010
1111110110000101
1110110000111001
1110011111010101
1111011000001001
1110111110010001
1111100101100000
1111101001000110
100011011100
1111011101011000
1111011110001111
10010010
1111100000001000
1111100010101110
1111011110111101
1111101101
110100001101
101101101000
10101011000
1111110000100000
100010001
1110001
1111111101100010
1001111
100010010
1111111111001110
1111101101011001
1111110111101000
10000010000
11110110000
1111111010101011
1111101001101010
1111111011101000
100101000111
100010111000
1111111101010100
1110011011
1111011001000010
11110011101
1111110011111000
1011010101
101101101100
100001000001
11000011010
11011100111
101101001111
101000100101
1111100001
1011110
1111111110110001
11010
10101110
110100011
1100000101
1111011101011101
1111110011001000
10000001011
1010001111
10011
1111110010111011
111001011
1010100
1111111001
100110110101
100011000111
100100101111
111101000001
1111101111101010
101111000100
110001110011
1100111001010
100111000111
11100100100
1101011010110
1010110001110
101100101111
100010001
11000010
1111111111110100
110011101
1101001001
11001001100
1111101111010110
100110001110
110000100100
1111100110000111
1111101111110001
100001100110
10010001010
10001110100
1111111010001001
111110110100
1001101110111
110010100110
101001101101
1001011101001
1001001010000
101010101011
1000100111101
1100100001010
11001011100
1000010100001
10000100101010
1001100100110
10100000011
111101000
1111111111011000
100111011
10001010010
110001010111
110011110010
1000111000001
11011111000
111010100
1111110001101111
1111110001
1000001000001
111101010101
100101111101
1100111111011
1011000010111
100011011
1001110000010
1101010111010
1000111000110
1000000111101
1010110001101
100001011111
110001011011
1101001000001
10000000001111
1011010000110
100000101000
1011100001
1111111100110101
110010001
100010010110
110101000000
1001011000111
11010110011
101010011110
1000010100110
1111011110000000
10101001010
111011101100
1111111001001000
11011111111
1011110000110
1111101100011111
1110001101000101
1111100101101111
11001010001
11000001000
101010001101
10011010001
11001111001
110110110
1111110110110010
1111110011111010
10010011110
1101111010
10111111
100101011
110000000
11001110001
100100111001
101001001010
10110101110
110011011011
101001001010
110011101111
111010110
111010100110
1111101100101000
101110110001
110101100011
1110100110110000
1101110001000111
1110000111010101
1111000110111111
1110101110111110
1110110110100011
1111111101100100
1111110110011011
1111110001010101
1110110100100110
1111001000101010
1111110111011100
10000
1111111111001101
1111111111100110
110001110
1100001000
110011110
11000110
10010010110
100011110100
1111110100
11010110010
101000001000
111110111101
1111111100100001
10010010101
1111101100010010
1101111001101010
1101100011010010
1110101001010111
1110001001001111
1110000111100000
1110011100111000
1111011010111011
1111100111110101
10111010101
1111110011011101
1111101011001000
1111111001011010
1111111010100010
10011110
11000
1111111101101011
110011010
100001010
1111110011010110
10000011110
110001000
1111110101010110
10010010000
1000010100000
111101110010
1110001000000011
1111001011001101
1110011101010001
1101110110010010
1110110110000000
1111011101111010
1111010000011110
1110011111011100
1110011010000110
1111011100000111
1111101111101110
10110110000
11110001000
1110101001
10100
1111111111010010
1010011
1111111111010001
1111111100001001
1111000
1111111001111111
1111111001101101
1111101100110110
1111100111010101
10110000011
1110110001
111010011100
111110001
1110011001111111
1111011001010101
1110000000011111
1110001110010010
1110111101001000
1110101110110010
1110100110100100
1110111110110011
1110100111001000
1111010011100000
1111111100000100
1111110100100011
100110000000
110011110
1111111010100000
1111111100110001
1111111111001000
111011
1111111111111111
1111111010101010
1111111000110001
1111111100001101
1111111100010110
1111010010101101
1111100111001110
1111101111001100
11100101011
1110100000011110
1101110111110111
1101110111100010
1101010101101000
1110001110001111
1111001001101010
1110110101010011
1111001010011001
1111000011100100
1111100001001101
1111101000011110
1111110011000110
1111100000011101
10100101010
101100011
1111101110010101
1111111011000010
1111111111011000
100010
1111111111101000
1111111010111101
1111100101000001
1111101100001000
110010001011
110110010100
1111111110001110
1111001000100100
1110110101001101
1111000110011000
1111000011110001
1110111111000011
1110111111000100
1111000011100100
1111101000101011
1111010111011010
100110000011
1100101110
1111100100011000
1111110110101011
1111010111000001
1111101100001001
11011100100
11000010011
1111110110101111
1111110101100100
1111111101110011
1111111111100111
110000
1111111111100111
1111010000010111
1111101001011110
1111111011000101
110110101000
10111011000
1111101000001001
1110101000100101
1110100111100011
1110111100101111
1111011101011001
1111110100100010
1111100101011001
1111110111000111
1111101100111000
1111111111011110
1111100000001111
1111110110101111
1111010011001000
1111100000010001
1111110011111111
1100
1011110001
1111110000100101
1111110110100111
1111111111101100
1111111101011100
1111111110001011
10100110
1111010110011000
1111100110010001
1111101101010000
1101101000
11011011101
1011000000100
100000101
1111001101010011
1111110110011011
1010001011
1111110011010100
1111101011000010
1000001111
1111110001011011
1111011101110011
1000111101
1110110110001010
1110110110011011
1111110011111100
1111110101101000
1111110100001001
1101111110
1111101010011111
1111110101011100
10000010
10110101
11000001
1111111100100100
1111000110111000
1111010110110100
111101100
1101000100
1111111001001010
1001101111010
101111011010
111010001
111001001
10011100010
100011011111
1111101001011010
1111011011011000
1111110110010100
1011001010
1111011101000100
1110100101011001
1111011100111010
1111110111101010
1111111100001001
10110100
1011011001
1111110001000010
1111111110010100
1111111111001011
101
1111111011111101
1111111010010111
1111001111011011
1111010101000011
1111101110010000
1111110100011111
1010111
101000010001
11011001001
1011001100
11111000101
1111011010111110
1111010010111110
1110111000101011
1111010111101100
1111010000001000
1111100100100100
1111101000111011
1111010101001101
1110001110
1011110111
1111101001110101
1111111101011100
100110110
1111111010000010
1111111111101001
10101100
1111111110111011
1111111111011111
1111111110100000
1111100010010100
1111010010000000
1111100111011000
1111100101011100
1111100110011110
10001111101
1000100110011
1111110010101100
1111011001111011
101110110011
100000001011
100010011100
1110000100
1111110101000100
11100111100
111110
1111111000101000
1111111101001000
1111110111001111
1111101111000101
1111111000111001
110111001
1111111111101000
1001011
1111111001110001
10110101
1111111110000001
1111111110011000
1111110101000100
1111100110000000
1111101000101011
1111101000100111
11110111
11101100110
1101001101
1011001111
101101111000
11010011110
1111101000100101
1101011
1101011001
11010101111
100100111111
1111001110100010
1111101000010000
1111110001100001
1111110000011010
1111101011010011
1111101101001001
1111111111100101
1111111100110110
1100100
1111111111101101
11000000
111100
1111111111110011
10001100
1111111011001100
1111111000110010
1111100101011001
1111010011110001
1111100101001010
111110111
1111111100000001
1111101001110010
1111111001111001
1111101100011111
1111101100010111
10111111000
10100101110
110110101011
11001001110
100100111000
10100101
1111111001000110
1111110001001110
1111101011000011
1000111
1111111100010010
1111111100100011
11000100
1001001
1111111100101000
11
1111111111000100
1111110111001001
1111110001010101
1111101101000101
1111101000101011
1111010111100011
1111110000100000
1111101000011101
10111000100
11110000110
101111011
101111010100
110100100010
1110010000
1000100001
10011010011
100010000000
1111111111111011
1111101011011110
1111111010111010
1111111001010110
1111111111000001
1111111111000011
1111111111011100
11101010
100000011
1111111111101001
100
1110101
1111111100011000
111001
1111110101110001
1111101110110011
1111111000000101
1111100010111111
1111101110110110
10000100
11101000110
1111110001
1111110011100101
1111111000110101
110000111000
1100101000
1110111000
11110111101
1111111001011101
1111110110110100
1111111110110000
1111111010110011
1111111111001010
1111111111111110
100100000
1111111101110100
10001
100100100
1100010
1111111110100001
10001010
1001000
1111111001110010
1111111111010011
101010011
1000000111
1111101101
110011010
1111111111110000
100001011
111001011
1001100
11101011
1111111110011100
1111111100001101
1111111101101011
1101
1111111101011111
1101100
11111111
1110
1111111100110011
1111111111011010
1000010
