0000000001101000
1111111110000011
1111111101010100
1111111111110001
0000000000010010
0000000001011111
0000000000100010
1111111001110011
0000000010111111
0000000011100010
0000000001101000
1111111110101001
1111111110010001
0000000000011010
0000000001000011
0000000010000011
1111111110000000
0000000000000100
0000000010100011
0000000010011101
0000000000011110
0000000000100010
1111111110101010
0000000000010101
0000000000010111
0000000010001001
0000000000010000
1111111101011011
1111111101100100
0000000001100001
0000000001100001
0000000001001100
1111111110011001
1111111101011110
0000000010000010
1111111111000110
1111111101110101
1111111100101100
1111111111100010
1111111110111001
1111111111010010
0000000100111000
0000000000100000
0000000011010011
0000000001001101
0000000010010110
0000000001000111
0000000001101000
1111111111011100
0000000100010101
1111111100100101
1111111010011111
1111111011101100
1111111011000111
1111111101110111
1111111110110100
0000000000111111
0000000010100010
0000000000101100
0000000001111100
1111111111000100
0000000011101011
1111111111110101
1111111111001110
1111111110100100
1111111110001101
0000000000101101
0000000101100010
0000000101111110
0000000100111100
0000001000000000
0000000101000110
0000000011110000
0000000100100100
0000001100001010
0000000111000000
0000000111001100
0000000100101111
0000000011100010
0000000010110010
1111111111110111
1111111101111001
1111111111000010
1111111101001100
1111111101000000
0000000100000111
0000000001111001
0000000001000011
1111111111100111
1111111110001000
1111111111100100
0000000010011100
1111111101000000
1111110000110001
1111110110101011
1111101101011101
1111110010011110
1111101110001111
1111110011000111
1111111000000010
1111110100101100
1111111110000000
0000001011101010
0000000111010110
0000001010001100
0000001000101110
0000001010001001
0000001000010101
0000000011111010
1111111111101010
1111111111010100
1111111111010011
0000000000010001
1111111101110000
0000000001101000
1111111111001100
0000000110001011
0000000000001100
1111111101010001
1111111000000010
1111111010010011
1111110011110010
1111110001110011
1111110100111101
1111111111101100
0000000011000100
1111111111101101
0000000011011000
0000000000011101
1111111101101111
1111111100010111
1111111101101010
0000000001100010
0000001010001001
0000001110001011
0000001111100010
0000000111000111
0000000001110101
0000000000101001
1111111111010011
0000000000001011
0000000010010111
1111111100011000
1111111111111010
0000000001100001
1111111111000110
1111111101101011
1111111110101101
0000000000010010
0000000010001000
1111111000001111
1111110110001000
0000000101100000
0000001000110011
0000001110001101
0000001010001010
1111111100000010
0000000001010010
1111111111001011
0000001100100101
0000000011001101
0000000111111011
0000001011010110
0000010001010111
0000001010110000
0000000101100001
1111111111000101
1111111110001110
1111111110000101
1111111111110111
0000000000011011
1111111101100010
0000000001011101
1111111101011101
1111110101001110
1111111010110011
1111111110101111
1111110010001101
1111110001010011
1111110101100100
1111111010101101
1111111101110111
1111111011011110
1111110111001011
1111111000111111
0000001000010110
0000000011001100
0000001001001110
0000000110111000
0000000111000011
0000000101000010
0000001110101110
0000001001101111
0000000010100110
1111111011010100
0000000000011101
0000000011111100
1111111100010111
1111111011100000
1111111110001001
1111111001011111
1111111001010011
1111110001111100
1111111000000101
1111110100010011
1111111000111000
1111111000110110
1111111001101110
0000000000001100
1111101100100000
1111110010111110
0000000100010110
1111111000000100
1111110111101101
0000000011011011
1111110000111010
1111110010111111
1111111100111001
1111110010110110
0000001110001110
0000001100111111
0000000111011100
1111111111010100
0000000010100111
0000000100100111
0000000100011111
1111111110001010
1111111101111010
1111111000000111
1111111001110001
1111110010110011
1111101011010111
1111101100101111
1111111010111011
1111101001010111
1111100000111011
1111110000110101
1111111000010000
1111101100000111
0000000010001010
0000001101100000
0000000001001101
0000000010011111
0000000000010001
1111111000000011
0000000101110011
1111110101011101
0000000111101100
0000001100000010
0000000110100000
0000000001011001
0000000000001000
0000000000110001
1111111110010100
1111111101001010
1111111101010000
1111111000100000
1111111000011000
1111111000011010
1111110110111011
1111110100101000
1111100111110010
1111110000000101
1111101010110101
1111100100110111
1111111110101000
1111111111100100
1111110110100100
1111111100001101
1111111111010100
1111111100010110
0000000100011110
0000000001100011
1111111110010111
1111111010000001
0000000010100101
0000001001111101
0000000000111101
0000000001010111
1111111100011011
1111111111001010
0000000100010010
0000000000011101
1111111111100110
1111111100011111
0000000000100001
0000000001010110
1111111100110111
1111110000111111
1111110110011111
1111111100000111
0000010101110000
0000100000011101
0000101001010001
0000011110000100
0000010101101011
1111111111100000
1111110000011100
1111111101010100
0000001001010011
0000000010101001
1111111101100110
0000000111101011
0000001101111111
0000001000000110
0000000001100000
1111111101100001
0000000010100100
1111111110101100
1111111110001111
1111111111101010
0000000101100101
0000010100001000
0000010011100101
0000010101111111
0000011101010011
0000100111000110
0000110110011001
0001000001111111
0001000000011001
0001000100010101
0001000010111110
0000101101011001
0000011000011011
0000000110000110
0000001001011010
0000001000110111
0000000101010001
0000001001111111
0000001101000001
0000010101110010
0000010001011111
0000000111110010
1111111011001000
0000000000100101
0000000011100000
0000000001001111
1111111111001001
1111111010000111
0000001011010000
0000011101011110
0000110001110010
0001000010010100
0001001101001000
0001011001111101
0001101001001011
0001010101110100
0000111011100100
0000101000111011
0000010111111011
0000011100100000
0000001100110010
0000000110010110
0000010010101101
0000001000110111
0000001101010101
0000000111001110
0000010000111110
0000011001100110
0000010011010100
0000000010011001
1111110111000001
0000000000011100
1111111101100001
1111111010100101
1111111110110111
1111111110011100
0000010000100100
0000100100111001
0001000010101011
0001001111001000
0001001100100011
0001000110011110
0000101011111100
0000000110110010
0000000010001100
1111101111011010
1111110100100111
0000000000011001
0000001100001110
0000001001000111
0000001001001101
0000001001000000
0000001000111110
1111111001010011
0000000000001100
0000010110001011
0000001000011000
1111110011101001
1111110101101110
1111111101110011
1111111100011110
0000000000000000
1111111111101011
0000000001000101
0000001111010111
0000010111101111
0000101111101001
0000100000111011
0000001111101101
0000001010100000
1111101101001011
1111101110000101
1111111111100100
1111110011010101
1111101110111101
1111110011111111
0000000100011100
1111111000110101
0000000011000100
1111110010001010
1111111110110110
0000000000001101
1111111111010111
0000001011100111
0000001010000100
1111111101000011
1111110110100010
1111110111010001
0000000010001101
0000000010100100
0000000010000101
1111111010110110
0000001010011111
0000001110110000
0000001011001101
1111111100010011
1111110101000100
0000000001110011
1111110101111010
1111110111101011
1111111111100100
0000000001001110
1111111000010110
1111110110100000
1111111100110110
1111111110000011
0000000010100011
0000000110011000
1111111100110100
0000000010100011
1111111100001110
0000001100001010
0000000110000100
1111110001000010
1111101000101001
1111110111001101
1111111101111111
1111111110011110
0000000001101100
1111111111000001
1111111100110000
1111111010101010
0000000011101100
1111110010111100
1111111001101001
0000000101111000
0000000110110101
1111111111011101
0000000110111001
1111101000001000
1111101110010001
1111111100010011
0000001010101010
0000000001111000
1111111000110010
1111110011111101
1111110010010111
0000000000010110
1111101100100010
1111110101111011
1111110011011101
1111100111110001
1111011110111000
1111110010100011
1111111110111011
0000000001100100
1111111101010111
0000000010000000
1111110111110100
1111100100101110
1111110100111101
1111111011010101
0000000010000000
1111111110100111
0000000000101000
1111111110010011
0000000000001011
1111110111011001
1111110010111001
1111111000000111
1111110110101100
0000000001110100
1111111001111011
1111101100011100
1111111010100011
0000001010000010
0000000011101010
0000000011001111
1111111001011101
1111110010011010
1111100011001111
1111111000111010
0000000001100010
1111111101010110
1111111111000010
0000000010100110
1111110011000101
1111010111110111
1111100101001000
1111110101011110
1111110010111011
0000000000011011
1111111001011110
1111111010101010
0000010011111110
1111111001011111
1111111011010101
1111111010111011
1111111000110010
1111101011111101
1111110101101010
1111111000010011
1111111110110001
0000000001101010
0000000011011111
0000000000011110
0000000000101000
1111110001001011
1111101001000110
1111111011111101
1111111010010101
1111111101000000
1111111111010110
0000000001000000
1111110010000010
1111011100100110
1111101010101010
1111110101110110
1111110011101011
1111111110101100
1111111100000110
1111111000011111
0000000000000001
0000001000110111
1111111011000010
1111110011011101
1111110010111110
0000000000010101
1111111011000010
1111111111100110
0000000101111110
1111111000011101
1111110110011101
1111111111111000
0000000100000010
1111101111000010
1111101101110000
1111111010100011
1111111110111010
1111111110001111
1111111101101100
1111111111111011
1111101101110001
1111011101011101
1111101001111001
1111110111011001
1111111010110101
1111110111100000
1111110000010111
0000000101101000
1111110101101111
1111111110111100
1111111001000011
1111111011000101
0000000001110110
0000000010100100
0000000101001010
1111111111101111
1111111101101001
1111111111000001
0000001100011010
0000000100001001
0000000001010000
1111111101010001
1111110110011101
1111111111011100
1111111111111101
0000000010000010
0000000011010110
1111111111010101
1111111001001101
1111100111111011
1111110011011011
0000000110000110
0000000001111101
0000000101100100
0000000100010001
0000001100001000
0000000010101110
1111111101000000
1111111000100111
0000000010110101
0000001010100111
0000000000000000
1111110101101101
1111111011100101
1111111010000010
0000000000101010
0000000111011010
1111111110100010
1111110110011100
1111111011100010
1111111001001000
0000000010111011
0000000011000001
1111111111100111
1111111101101100
0000000001110101
1111111100110010
1111101110000011
1111110010000000
0000000101100100
1111111110011000
0000000010010010
0000000011111001
1111111101010100
1111110101011101
1111111111100111
0000000000000110
1111111110100001
0000000010110010
1111111101110000
0000000000111101
1111110111010001
1111101111001100
1111111011001000
1111111111101000
1111110001011101
1111110010011011
1111111100011110
1111111001110011
0000000011001110
1111111101001011
1111111101010001
1111111111111100
0000000000110100
1111111101111101
1111111001110110
1111110001110111
1111110111110000
1111111110001011
0000001010100010
0000001000100110
0000000001011011
1111111101111110
0000001000000101
1111111101001110
1111111010101010
1111111101011010
0000000001111010
0000000001110100
1111110010111001
1111111001001010
1111111110101110
1111111111110110
0000000000111111
1111110111110011
1111110011011111
1111111100101111
1111111110011111
0000000010101110
0000000000101100
0000000000001000
0000000010011011
1111111101110111
1111111111010010
1111110101110111
1111111000111001
1111111101001100
0000000001011110
0000000100100011
0000000010001000
0000000000110000
0000000101000100
1111110111111100
1111111001010011
1111111001000101
0000000100100011
0000001000000111
0000010001000110
0000001100011000
0000001011011010
0000001010010001
0000000110101011
1111111110100001
1111111101000000
1111111001100100
0000000001101010
1111111111010100
1111111111001110
0000000010000110
1111111110111001
1111111111101101
1111111111000100
1111111001111101
1111111101101100
1111111100101010
1111110111100001
1111110011000111
1111110000000111
1111110110011010
1111110111101000
1111111010001000
1111111010010011
1111110100011111
0000000101001111
0000001010011111
0000001110001011
0000010000010110
0000001100010101
0000010000100001
0000000111101001
0000000001001111
0000000011000011
0000000001001100
1111111101001001
0000000000110011
0000000001100010
0000000011101110
0000000000011110
0000000010100110
1111111101001110
0000000100011101
0000000000000000
0000000100111100
1111111110000000
1111111101001010
0000000010000111
0000000000010111
0000000000100000
0000000110011111
0000000010001001
1111111111110001
1111111110001011
1111111110001011
0000000010011111
0000000001100111
0000000100010101
0000000100111110
0000000011110011
1111111101100111
1111111111100001
1111111101010110
1111111110110100
1111111110101011
1111111101110010
0000000000001000
1111111100010011
0000000000001001
1111111101101100
1111111110100110
0000000000001001
0000000010011000
1111111101000110
0000000000101101
1111111100100000
1111111101100111
0000000010110011
1111111101011000
1111111101100110
0000000000100001
1111111101011010
1111111011000001
1111111010111101
1111111110010100
0000000010111011
1111111111111010
0000000010010010
1111111111101010
1111111111110101
1111111110110010
0000000000000001
0000000001101111
