1111111100010110
1111111011010101
10110101
1111111100010010
1111111110101011
1111111100100110
11
110110
1001111
1111111011101010
1111111110100010
1111111111110000
1111111110000100
110100
1111101
11000101
10010100
1111111100011101
100001101
1101110
110011
11001010
1111111111001001
1111111110001011
10010100
1111111100110011
110000
11110
1111111101111110
1111111111100001
1111111111100011
1111111101110100
1111111110010100
1111111111101101
101
1111111111110001
100111001
10110010
11
10000000
1111111110100101
10101
1111111100011011
1111111111101010
10001000
1111111100110001
1111111111010000
10110000
100110
1111111101001001
11100
10111010
1100000
11111
1111111110001001
1111111111110001
11001
1111111101101110
1111111111100010
1010010
10000
1111111111100110
1111111111001000
101
10000
1111111111111100
1111111111111010
110001011
110100110
1111111101110110
1111111010110010
1111110001001101
1111110010110101
1111111001101100
1111111011011111
1111111111000000
1111111101100001
11101010
111111
1111111111011101
10110000
11101001
1111
101100
1001
1111111101100110
1111111010011100
1000011
100010011
101100
1111111101011011
100110010
101010100
1011110010
10011011100
10100011101
10100110111
1010101011
110011001
1111111011111100
11011
11101111
1111110111111100
1111110101100101
1111111000001000
1111110101110010
1111110111010000
100010
100000001
1111111110001110
1000010
1111111111101010
1111111110010100
101001000
1001100
1111111110010100
100110
10011
101100101
1010010011
10011101100
11101001101
11001111011
100001111100
11011111010
10000111101
10111010
1111110001110101
1111101100001111
1111101001011101
1111110010010010
1111101000010110
1111100001010000
1111100010011001
1111101100100100
1111110010101010
1001101
1110010
1111111100111100
1111111101010001
101001
10111001
101101
100010
1110010
101011010
1010111000
1100100110
10010011110
1111100101
100010101101
101000111000
10000100000
11010100111
1001010010
1111111110101010
11000101
1111111010011111
1111110101111010
1111110100010101
1111101010001001
1111101010101111
1111101010101101
1111101011110101
1111110100010110
101011101
1111111110110111
1111111110110101
100010010
1111111110000101
1111111111000011
100100011
100110101
1000000010
1000111101
1010001010
10100001001
10010000111
10011011111
11001111011
10111010011
101011101101
101010011000
100001111000
100100110001
101011001100
11010001100
1100000000
1111111110010110
10100011
1111101010110000
1111011010110101
1111110010011001
1111111110010000
1111111110110110
1111111110010100
110011
10101000
10111111
1111111111101110
101100101
1111111111111110
1010010011
101011010
10001000110
10000110000
10010000100
10100111101
101011101010
101100100111
101110000000
101011100111
110010001100
100110001000
100000100011
11001000001
100000000011
100000110110
1111110111000111
1111100111100011
1111110011100010
1111111110110110
1111111111011001
1111111100111110
111101
1111111110001010
1110111
111110
11010110
11001100
11011111
1111111100111011
10010111111
11111001
1111011001
11111010101
101011101101
11101011000
111011001101
101110011001
1001110011101
100001100111
100011010011
100110110110
11010001010
11011010111
10100010000
10000000101
10000111100
1111111100010100
1111111111000100
1111111110111000
1111111111000110
10000100
1110000
100001001
10000011
1111111110111001
10011
100000010
1111111110010000
10110001111
10111001101
10000011001
1010011000
10111101001
100100111011
100010011100
10110101010
100011010111
11100000001
11000111101
10010000100
10110011
10111101001
11001010101
1110011100
110000000
1001110
11010101
1111111111110111
10011
100100
1111010
1111111000000111
1111111111000011
1111111111010101
1111111001010101
1111111011101001
1101010
1111110100000111
1111111111110010
1111111011001101
1111111000101001
11000100101
1111111000110110
1010001010
1000011111
1111111100011100
1111110100100000
101100000
101011100
10000011000
11110101100
111001111
110111101
101001001
100000100
1111111101101000
1111111110000111
1111111111010111
1111111010010110
1111110010011000
1111111111011010
1111111101001100
1111111110000011
10000001
1111101101111100
1111011111001111
110000110
1111111101001100
11011
11010000
1111101111010011
1111101110010111
1110101011
1111111110110100
1110000110
11110000101
1011111001
10011000101
10011011010
10001001000
1011001011
10110111
1111111100100101
111101
1111111101011000
1111111111101001
1111110100111111
1111111100000111
110111000
1111110111101111
1111101101101001
1111110001110000
1111110001000100
1111111110101011
1111101011011111
1111011111101110
1111110110101000
1111110010001110
1111110101110111
1111110010110111
10110101111
111100011
1110000001
1001110111
110111010
10000010111
110010001
1111111100011000
1111111110110101
111100
101001
1111111111010110
1000
10100000
1111111011111110
1111111111111110
1111110110100010
1111100011111010
1111110000000000
1111111010011001
1111110010100111
10001010010
1111111001001110
1111101100000101
10101110101
1111111110110000
1111101110000100
1111111000111001
10100
1111111110011111
1111101111111011
1111110001010111
1111101100010110
1111110100110001
1111101101011100
1111101011101000
1111111101101011
10001100
11000
10011011
1111111110011111
1111111110001100
1111111001101101
1111110011000011
1111101101100110
1111111001111000
1111111001101010
1111110011010010
1111101111111001
100011001
1111110111101100
1111110001001111
10011001111
1111101101101101
1111110101010101
1111110101000100
11001
1111111100111111
1111111110100100
1111110001110001
1111111000110110
1111100111100001
1111101010010101
1111101110010110
11111110
101011000
1111111011101011
0
10100101
1111111100110100
1111111001010010
1111111100001000
101110011
1111110110111100
1111110111100100
1111111010110111
1111111001011000
10011101001
1111111010111010
1111011111011100
1111111001110011
1111011110010110
1111111011000100
1111101100100101
1100011
1001010100
1111111001100001
11101111
1111110101000110
1111101110111000
1111110101011101
10010101
110100000
1000100011
11101100
1111111101010100
10001110
10110001
1111111110110111
1101101111
1011001001
1111111101001100
1111111100101101
111001000
1111111100111010
10001010010
10000010
1111110011010111
1111101001100001
1111001110000000
1111100101001111
1111111001111110
1111110111001111
111011010
1111110001110000
1111110010010010
1111101111100011
1111111100101010
1111111110100001
111010100
100110010
1010100100
1111111101110001
1111111100101011
1111111111110101
101100
1001101100
1110000110
11111011
1
1000110010
110101001
110111111
1111110011111100
1111111010100110
101000
1111101010001011
1111011001111010
1111101100000111
1001110010
1111111101000110
1111110111100101
1111110111000010
1111101110000000
1111111010011000
1001000000
10100001
1100101010
1000110101
10000001
101
1111111110000101
10011011
1111111100011010
10111101
1110110000
110001000
100000010010
10001101100
1111111101110000
1111111111101000
111000111
1011110001
1111010110000110
1111011111110111
1111101100101001
1111111001101111
1111110101000011
1111111011010110
1111111101000000
1111111101100001
1111110011011111
10110001
11110000011
1001111110
1110100010
111000000
1111111111101000
1111111110001000
1111111111011100
1111111110100110
1111111110000101
11001
10010101110
1111101011
10010011101
10001101011
10110001100
1111111100111011
1010000111
1111110111010001
111010100
1111110011101000
1111111000111111
1111011110010111
1111101101000011
11000011
1111111110000010
1111111110110111
11010010
10011100011
11110100100
1010100111
1000111010
111111100
1111111101000001
1111111110011100
10101000
1000
1111111110000111
111001011
1010101011
1100000101
1111111111001010
101001111
1111111000110101
1111101111110010
1111101100111000
1111011100100111
1111110001010010
111101011
1111101110101001
1111110100110011
1111110000001110
1111110110010000
1111110100000100
11000100
1111111010011110
111110100
10101101011
10000010100
110000011
11000011
1111111001110101
1111111111000000
1111111111111111
11000101
1
1000100
1001100111
11011010
1110010
100010011
1111111101001111
1111111010101000
1111100111001001
1111101010001010
1111101000101000
1111100111001000
1111100100000010
1111111001110100
1111110010111101
1111010011111110
1111100110100110
1111110011011001
1111111000000010
1111111010010010
10000001010
1110000111
1001111100
100101010
1001111
1111111111000110
10101000
11011101
10010011
1111111111111010
100011100
11011
1000011110
1001110111
10010100010
110011100
1111111100011001
1111111000000011
1111110011000100
1111110010111010
1111111001000101
1111101010101010
1111101001111100
1111100111001110
1111101010010110
1111101100000100
1111110001010001
1111111111111110
1100101111
10101011001
1011110011
1111111110000101
1111111110001100
100000100
1111111011111011
1111111101010101
1111111111001000
110111011
100011010
1111111001100000
1111111010100110
10101010010
1100100100
1111110010111001
1111111110000101
101001101
1111111100101111
1111110101000101
1111101101111010
1111110011100101
1111110110001000
1111110010000101
1111111100010110
10111101
1111111000101101
100101111
10101000101
10010011101
111110111
10101000
1111111110101000
111010
1111111111110000
1111000
1101100
10011010
1100100
1111111001110101
10101010
1010000111
10000111110
1111111011100110
10001100
111011111
1011000011
10010101000
1111111101111101
101011110
1101001011
1000111000
1101011111
110011100
1001011110
11010010
1001010010
110100001
110011
1111111011111001
1111111110101101
1111111111100010
1111111110111011
10000101
1111111111011110
1111111110101101
10011000
111001011
1011000010
10100001110
11110100110
10110101000
10100110001
11100100110
11010000110
10001010000
1010100011
1111111111
11101110110
11001000111
11100101110
100001110001
10001000001
110111000
1001011
1111111110010101
1011111
1000110
10010110
10011110
1111111111101000
11000010
11011010
1111111110011001
101000001
10000
101111110
1010000001
10001110011
11011011100
100010111111
11110011100
100001000101
100101111110
110010000001
100111110110
100010001011
100000111100
100110001101
10100101110
10000110111
1010100001
100001
1111111111000000
1111111111100011
11111001
110001
100101
10010001
1111111011010101
101111
100010001
10100
1111111101110001
10100000
11111011
111110
101010
10101000
110101101
1000010100
11001000
1000001011
111101000
110101011
11000011
100001111
10000
1111111101101101
1111111110110110
1111111111000111
1111111101111010
101001
1100101
1111111101011011
101
