1100001
1111111111111000
1111111110000111
1111111100111100
11010010
1111111110100011
1111111110110010
1111111111111110
111
10000111
1111111010111010
1111111111111110
1111111111011101
10001
10111101
1111111110010110
1111111011001100
1111111101110110
1111111110101110
10011011
1011101
1111111110001100
1111111111101100
11111
1111111001100001
10011011
100111001
10001
100110
10101
10000111
1111111100010010
110100
1111111110100110
1111111100000010
1111111111011001
101010011
10110111
101100101
110010011
101000110
1011101100
111011011
1101111
1000110000
1100111
100110100
101001000
1001101
1111111111110110
110110
1011001
1111111101111011
1110010
10010101
1111111101011111
1111111111011111
101000110
11100001
1111111101110010
1111111101101001
1111111110111101
1111111110100111
101010110
1001100000
10010101011
10101101100
10101011100
100000100011
11111100001
11100001110
11011000010
10101110001
10011110000
1111011001
1101100001
10001110
11101011
1111111111110011
11001101
10111101
11110001
1111111110110011
1101101
1111111101011011
10100
1111111110101111
1011010
11
1111111111001000
110111011
1110001011
100000101101
11100000000
11111101110
101100011010
1000001001011
1010000000100
111110000100
101111001101
100110110000
100011010010
11000101
1111111000111001
100000001
101011011
110110100
1000001011
11010011
1100001
1011011
1111111001001001
1100100
10110000
10001
11001100
1111
1010110
1111111011111100
11010100001
11100001101
11001111001
100110100011
110100110101
1010001011010
1000111100000
1001011000000
1001111110101
1001001111011
110010111110
1000010010
1111110110011010
101011000
100110101
1111111011000001
1111110111011001
1111111101010000
11011011
1100101101
10110111
10110101
1111111111011010
11111
1111111011101010
1111111111111011
101111100
1010011110
100010000000
11101010
1111110110010001
1111111010000010
100011110001
11110111100
111011111011
111101001100
1100001111101
1101110101011
1010100101001
11110011100
11101100100
10101100010
110001001001
1111111101101110
1111100010110101
1111111011000010
1010010011
101010010
100100110
1111111111010011
1111111110011001
10100011
11111111
1110101100
1111110111111001
1111101100110001
1111111000100111
1111011111101010
10110100
1111110011000010
100111001000
1111111000111110
11010111100
1111100101010101
1111101100000111
1111011101001101
1111100001111100
1010010011
111011000100
1000001010010
1111101101001100
1111011010111000
1111111101101010
11000100
1111101001
1111111100100000
1110
1111111100011100
110011
1111111100110110
1111101100001110
1111110111010011
110001001
100101100
1111111101110101
1111110011000111
1111001101011011
1110101011000001
11100011
1111001011001000
1110111001010000
1111101110100100
100011000001
1110100111111000
1111011100111101
1111010101101110
110001101
1110111001110011
1111110101001010
1111111001100101
110111
1110111010
10001000011
1111111010010101
1111111101011001
1111111110100100
1111111101110110
1111110110000011
1111011100111100
1111100001001100
1111110001010000
10111100
1111011010001100
1111000101100100
1111011010011101
1111111010100100
1111011111101010
10000100000
101011100110
1111110100101111
1111110100000111
1010111011
1111100000101101
1111011011011011
10111000111
1110101010
100100011100
1011110000
1111110110000010
1111101110101011
1100101101
10111111011
100010100
10001100
1111111101000100
1111110000111101
1111010010100111
1111110100100001
1111111100001101
1111100011110100
10011110001
1111011011011001
1111010001011101
1111101010000001
1111001110111010
1110101100100101
1111100111000101
1111111011010110
1111100111101100
11110001
1111000110000000
1111110100000110
1111111000001000
1101110101
100000010000
100001101100
100101001111
100001001101
11111001111
1100000101
1111111111000000
1111111111101011
1111111110110011
1111110100000001
1111011100011001
10100011111
10010101001
1011
1111111011111011
1111110111001001
1111001111100001
1111111100110011
1111011010011000
1111101011000000
1111100011101001
100111000100
1111110011001000
111001001
1111110010110001
1111100100010000
1111001111010101
10001101101
1111111000010110
101001010110
101100101010
110010100001
1011101000
1010011
100101
11001
10111011
1111111011110101
1111101001111010
1111101100000001
10110111011
1111101010010000
1111100000001111
1111000011000011
1111100100001001
1111101011110001
1111000011000010
1111100110100010
111101010111
1100111
1101111100101101
1101110100011111
1101110101010000
1110101011000000
1111100000010110
1111011110011111
10001010110
1000000011111
111101001100
111101001101
10000111101
101010101
1111111001011110
1101000
1111111111111100
1111111110010001
110011
1111011000110001
1111101111001101
1110111000111100
1110111001100111
1111001001011111
1111111011100111
1111001100101001
1111010000101010
1111100101010111
100011111001
1111111100110111
1110000001101110
1110001000110011
1110100100001010
1110111110110110
1111110101010111
1111011101010111
1010010001001
1000010100110
1000000100010
1000111101001
11101101110
1010010101
1111111111001001
1111111110010011
100011100
1111111100100110
101101
1111001101100101
1111001101010101
1111010011101010
1110101010111101
1111100001010100
1111111111101000
1111000000011111
1111010101000000
101101010001
111101011100
1111110010100101
1110000110111111
1111111101011000
1111001000001001
1011011101
1111010101010101
1111010101010000
1111011111011100
1110010010
101100010011
110010000001
10110010110
110011000
1111111100110011
1111111100111101
10001
101111
10011011
1111000001001111
1110111100111001
1111001101101010
1111100101001101
1111110100010100
1111010001101001
1111011010000101
111000001
1001010100000
101010001111
101100110110
1111010000011001
1111010101111000
1110100101010000
1110010111000010
1110101000010110
1110000000101000
1111010100110101
1111010100001111
10110010000
100111110010
1001010000
110011100
101010
1111111111101011
1111111111001101
10011111
100111100
1111011010000100
1111011001000011
1111010000011110
1111110001011010
1010100
1111011011101100
1110101100110010
1111010100111100
1101100110101
1100001001001
1111100010
1111001101110010
1111011111101101
1110001010100011
1110110011001111
1110110011110101
1111000111100110
1111100100111111
1111011010001000
1100000100
101011011010
10100011011
1111111101101011
1110010
101100101
1111111101111001
100110
10110100000
11000111
1111110001101000
1111100100000111
1111100100111001
1111001100011010
1111111001001011
1101100011
100100100101
1001000110101
101001110100
111000100
1111010010001101
1110111101100110
1111000010000101
1111001101011101
1111101100101000
1111100001100001
11110111
100000101101
110010010011
111111100110
100110001000
1110001
10100110
1111111110110100
10110
100111
10111101110
110111111110
101000110111
1010010101
1110111100110110
1110010001101110
1111001000011111
110100110010
11001100011
1111011110
1111100100111000
1111111001101101
1111000110100111
1111111110011000
1111110
1111010001011110
11111011011
110001101111
101111010111
1100001001110
111010110110
100011110001
100001011000
1110110
10000100
1111111111010110
1010111
10110100
11001110101
111011111111
1000011110000
1000010000100
101111100001
1111101111110000
1111101110110111
1111011010011010
1110101010100111
1111110110010000
100
1111100011100111
1111011100011000
10001001110
10101000
10011100000
101000100100
1010000100
1000001110101
10010010100111
1111001100011
1000010011010
10010110110
100000000
1111111111110011
1100001
11010011
11000011
1101101010
111011010100
1011110100100
1100100110011
10000100110011
10000001011000
10000001000111
111000010011
101001010000
100100101001
1011101001
1011010101
111101100111
110101111110
110100110000
1100000101011
1000100110010
1001011101111
1100101001111
1110110100000
1100100101001
111000101100
1111111110
11101100
1111111111011000
1000001
11001
101100011
10111001011
1000011100110
1110100011110
10011110010101
10011001100010
10111110111011
10110101111000
10011100000001
10011110111001
1010011100010
1001111101111
1001100100001
10001011010001
1010011011101
1110101100111
10000111111011
1111000100100
1011111001001
1000110001111
1011000110110
110100111111
1010100111
11010011
1111111110110001
1111111110011011
1010010
1111111110010110
100111101
100000101111
111010000000
1011011110000
1100101011001
1010100001011
1010101010101
1010001010110
1111000111010
10001011011100
101111111111
1110110000000
1111011101110
1110001101100
100001010010
10010000011000
10001100011111
10001001100001
1011010010010
100101010111
110000010101
11100000001
1110011
10111000
11110010
11100110
11010001
1111111110011011
1000001101
11011001000
101110110001
111001100110
101111110100
10101010101
1111111000101001
11000011
111100110000
11100001110
1011000110000
1101101010101
101100101011
101111011010
110001011101
1011000010101
111100110010
1011111110101
111100010010
100100010001
1101001100
1000111111
1001100000
1101010111
1111111110011011
101100111
10001010
101100
1000110111
10011011011
10111001101
1011111110
1110100101
1001110010
10100100010
10101111000
10000100000
111001100110
1010110011101
1011011000001
101100110
10000100000100
1110011000111
11000011011
101001010011
1000110101011
101110110011
111100000
10110
10101011
110100111
1110110001
1011010
1111111001101000
1111111111001101
1111111111010011
1000001000
1111110100111110
1111001011111100
1110110110010100
1111111100001111
110001011011
10000111001
100110000111
10011100110
100000110011
1101100100001
1000100000010
10000101110010
1101010000101
1011110011100
11100100
1001111100
100001100111
1011100111
1111110101010010
1111110101000000
1111101010100111
1010111000
1010110100
1111111110000110
1111111110110101
1111111110100000
1111111111101111
11011
1111110011000101
1111000001110110
1110110111011100
1111010000101101
1110111011110110
1110111010010001
1111010011011100
110010101100
10011100101
101000000
1111111111100000
1001000000
1101000101
1111110100111001
1111111100011010
101111000
1011011010
1111111010010100
1101110
1111110110101010
1111101010011010
1111111110110011
110000
10011101
1111111101010111
1111111110000111
110010
1111111110010101
1111111110001001
1111111011010011
1111111100001001
1111111000110010
1111111000001011
1111100100110111
1111010100001111
1111110010111110
111110011
1111111011000111
1111010011100100
1110101100111101
1111010001100110
1111101000101000
1111111010000111
1111110001101010
1111101101011111
1111110010110101
1111110110100001
1111111100001111
111011
1111111100011111
1111111101010000
1111111111101111
10000
1111111111000100
100000010
1001000
111011
1100
1111111100100010
111001
1111111111100000
1100101
111101
1111111101100100
1111111110011000
1111111110111001
1111111001010111
1111111000111111
1111111001111001
1111111101001000
11111011
1111111101100101
1111111100011001
1011111
1111111101000111
111001
1111111110001001
1111111110110000
1111111101001111
10101001
1111111101111110
