1111111101011000
1111111110110100
10100101
1111111110011000
11000
1010110
1111111111010010
101010
11011010
11101011
10001000
10101000
1111111001011001
1111111101001111
1111111111011001
10100110
1111001
1111111101011000
1001111
1111111111111111
1111111100010101
10111100
1010101
10110001
1111111110111110
111000
1111111101110011
110101
1111111100101110
1111111110111101
1111111111100111
1010111
1111111111110000
10101111
1111111111011111
1111111100011001
1111111001001111
10110110
1111110111001011
1111110010010010
1111111000011010
1111111010011001
1111111010001010
1111110010001000
1111111010100000
1111111110100110
0
1111111111101100
1111111101110000
10001
1111111100000110
1111111110111111
1111111101001010
1111111111100001
1010011
100001111
1111111101000000
1111001
10000110
1111111111010001
1111111101000100
11000
1111111010100101
1111111001100111
1111110011000111
1111100001000100
1111001100010100
1111010101001000
1111100011001100
1111100001111111
1111101011111000
1111100111010001
1111100110111001
1111110010010010
1111101110001011
1111110011110101
1111110110100100
1111110100100111
1111111010100101
1111110111101100
1
1111111101001101
1111111111101110
1111111110111000
1111111100011110
1000011
10011001
1111111011001111
1000110
1111111111000001
1111101110011110
1111100010001100
1111011110010011
1110111001101000
1110010101000001
1110100111101101
1110101101001110
1110001011000100
1110111111111011
1111110000101011
1111110011011010
1111111110011001
11111011000
100011000111
111011100
1010
1111100111100101
1111011011110110
1111101011110110
1111111011110110
11111000
1111111101011110
1111111100011001
100
10111010
1111111110101100
1111111111001110
100111111
1111111011100101
1111110110100111
1101110000
1111010110001010
1110111001101111
1000011101
10101111000
11001110001
1111111100000101
11011010001
110010010000
100001111010
11100100110
100100011000
1111100001010111
1111000010110010
1110111101101100
1111011110010001
1000100110
1111111100001111
10011000
1111111101110000
1101
100000100
1111111110110001
1111111101011110
1100001000
10101110001
1111101110
10001000011
1111111110001100
100111101
1111100111110111
110110101
10010101000
100000110
1011000001
1111111000000000
11111111010
1111011101000001
1111100111111100
1111101011011000
1111010010011000
1110111110111101
1110111111000101
1111111000001110
1000111111
110100000
1111111111110100
1110001
1111111111001000
1111111110010011
1111111110111110
111101101
11001111000
11001101010
1111110111
1111111011110101
10100011100
11001101001
1101101101
1111110011011001
11010100011
1111111010000100
101000110
1111010010001010
1111101100010110
1001110010
1111011100100111
1010001011
1010100001
10010010100
101000100100
1001001101101
100110110100
10110001101
1111111111110100
10001011
100110
1111111100011000
1111111011100111
10010011110
11000110000
10100000001
10000110010
100001000001
11000111
1011101011
1100010100
1111101000010110
10100100111
10010011010
1111010011010011
1111111010011000
10000010110
101010100111
1001001110
11001010010
1100010000011
1011000001100
110111101000
1011010101111
101100011110
100100000110
10000001111
1111111110110100
1111111110001100
1111111111101111
1111111010100011
10010110010
10110101111
1010100100
1011010111
1010110010
1111100000001110
1111101100111111
1111110101010110
1110010001
1000100000110
10111011110
1111110011000101
10001101101
101010001011
10011011100
1010110100010
1101011101101
1100101001110
1100111100110
1001110110110
1110110100100
1100101100011
101101111110
10010001000
110000101
1111111110011010
1111111110010111
1111111101001001
1011001111
100100011
111001111
1000110001
1111111000001011
1111100011001010
1111110010110100
1111110000000110
1111011010101101
1111101000000001
110001110
1111111011111101
101001000001
110000011111
1011011001011
1100010001001
1110110100000
1001110011010
111001110010
1100011101000
1101110100100
1101101001000
110010101000
1011000001
101100
1111111111001111
1111111110111010
1111111110110000
1011011010
111101001
1111110011001000
110
1111101010011010
1111011011100111
10111010001
1111110010101101
1111101100010101
100100000011
10001001101
11111000010
1100110100000
1011000111111
1001100010000
1000111101001
1001111010001
11011100101
100010010110
1010111111100
101110000000
111100110110
100010011110
101000000
1011000
1111111111111100
1111111101000101
111001
1010110000
10111111000
1100101000
11010110110
101000110101
1001001100100
1100110000001
10010001111010
1110010010111
10001000010010
1010011110001
110100101111
1011011010000
1000001010010
100100010100
100001011111
1111000010
1111100011101011
1111011011111010
10101101101
1111110100100101
100110111
10010100010
1101110111
1111111100110111
1111111101110010
100100
1111111101110111
110111000
100101101001
110000011111
1010011111111
10000101111100
1110010000101
10011010001101
10011001010011
1101110100100
10000101101101
110110100111
11001011000
10010110111
1101011010
1101110011
1111111101101010
10100111
1111100101001000
1111110011010111
1111101110010011
1111101000011010
1111101011100101
110111110
1110111011
1111111111100000
10100111
1111111101000101
1111111111100010
1111010100
111100100111
1001110100011
1011011010011
1000001011000
1001000110100
11010001000
1111101101101001
1111001100000010
1111101001110110
1110110011110101
1111011011100111
10010010000
1111111110110100
1100000001
10101011001
110111111
101101111111
1111100111101001
1010
1111011001111000
1111011010001011
1010110111
1111111001110110
1111111001100110
1111111111111101
1001110
10011110
1101111111
1000010010010
1000001011001
1111110000011000
1111101100101010
1111011110101000
1111011100101001
1111011000101101
1111000101110011
1111001111001110
1111000001011001
1110111110001010
1111101100101111
10100011001
111100000100
1111110110001010
100000110010
10111101000
1111011010010110
1111101011110011
1111000101010011
1111000101100100
1111111011110100
1111110000001011
110010
10011100
110111111
11101110
111001011
10100001110
1011000011
1110111000010111
1111100101100011
1111101110000101
1111101101010011
1010110101
1111100110011010
1111111100101101
1111000101001110
1111011111110010
100010100
1001011110
101010011010
11101110010
1011100000
1111111110100111
1111110011001111
1110111010
11100100
1110111011101011
1111001001101111
1111101010111101
1111110111110010
1111111111100001
1111111111111001
10111010
1111110001100111
1111011110011000
1111011100011000
1110111011101111
1111111010000001
1001000010010
1111101110101010
1111011100000011
1111010111100100
100001111110
1111011110110001
1111000110100000
1111111001000101
100100010
1111110110010100
1111110011110011
1111001001101101
1111011111000001
1111101101111010
111010110
1111110010010011
1111010010110110
1110111001001011
1111101101010101
1101100
1001110
10110111
1111111011001101
1111110100011100
1111011001010111
1111111011101111
1111011001110001
11100110001
1111110001100110
1111011111001000
1111000100111000
1111011110000011
101000110001
1111101101111011
1111101000100011
1111000011110011
110001000001
11000111101
1111010100110111
10011110001
1111101101001000
1111100100010000
1111110100001100
1111101111001100
1111010010111100
1110111101101011
1111111111000110
1111111011111011
1111111111000010
100110
110
1111111000000010
1111100010110110
1111010011000000
100100001
1111001110010000
1111100101011010
1111011101011101
1111110010101101
110001100
100001101001
110001101
1110111000001100
1111100000011001
11010111011
1111100111101011
1111001011011110
1111100110011011
11101010010
1011111010
1111101001011011
1110111010011110
1110111001010010
1111000101100101
1111111101001110
1111111110111101
1111111111111001
1111111110011101
1011111
100001100
100010
1111110010101101
1111011100
11100100
1111100000001100
1111000001101000
1111011111100110
1110010001011010
1111011111111011
1111011111011110
1111101010000010
1111110100100110
1111110000111110
1111011001111010
1111100000000011
1111011010011010
1111110000011000
1111110010001110
1111010111110100
1110111101001111
1111000111110011
1111011100110101
1111111001001101
10100
1101010
1010
1111111111001010
1111111011010100
1111010110001011
1111110000101011
111011110
1111110111010011
110011001
1111001010000100
1110111001100101
1101111100110111
1110110011100100
1111011000010101
1111100110000010
1111111000011111
1110010000110110
1110111110001100
1111010011011110
1111011010100110
1111010100010111
1111101000110001
1111101111010111
1111101000010011
1111011011101011
1111101100000010
1111111101100110
1111111110101010
1111111111010111
1000010
1111110101110110
1111110100010001
1111001111001110
1111011010100101
1100000
1111100110111111
11011
1111010000110000
1111001000001010
1111100001101000
1110110110110010
1110101011101011
1111010111111101
1111001111010111
1111000001000111
1110111100110100
1111011111110100
1111010010111101
1111110101100000
110100010
1111111110001010
1111101100001101
1111101100001110
1111110011000000
1111111110000011
1111111111110001
1111111110000111
1111111100011001
1111110110100101
1111101101000110
1111000010011011
1110111011001100
1111110011100000
1111100001111110
1111100001110010
1111100011000000
1111010111111010
11010000011
1111111010000100
1111111111010001
101100101100
11111011000
1111111101001111
1111011110110101
1111111101000001
1111100001110000
1111110001100110
1101110000
1011011
1111110010111000
1111110010001111
1111110000000001
1110110
100000011
1111111111000110
100110101
110
10010000
1111101101011010
1111001110011100
1111010010111110
1111101100110100
10101111
11001001000
101111000110
1001000110011
1000001100010
1001011010001
1010010100000
1110111111001
1101110110100
1100011100110
110111100001
100000000
11101001100
101100100
1111111011101101
1111111011010100
1111101010010100
1111110100001011
1001001
1111111111011011
111
1000010
101110
1010111110
1101001100
1000101011
10011101001
1100100011
11001011111
10111011001
111010010100
1001101101011
111101100011
1011000110001
1000100010110
1001001010110
1000010011000
110111101000
11111100011
1100001010
100000101
1111111111100011
100000
1111111000110100
1111101111000111
1111110000000100
100001
1011110
1111111110001010
110000100
1111111110110100
1111111111100110
10100000
11101000
1011000011
10000101010
10111110100
11011001110
11001101101
11011000010
1100011110
11010001111
11000110101
10110000010
10101001100
10110000111
11000010111
11110000100
1111111111111001
11000011
10110010
101000100
101001
1111111010111111
1111111110100000
1011001
1111111111011100
10000
1000
110100
1110110
1111111110101100
11100
11010101
1111111110010001
1111111111101010
1110100
1001011010
100000
100100111
1000011
1111111110111001
1010010111
1001001010
0
1111111111101110
1111111111101001
1111111111101001
10111
1111111100111110
1111111011010101
1111111111101011
1111111100001011
1111111111000111
1100101
100101000
1111111111011111
1111111111100011
111010
100001111
1110111
10100010
110010
11011110
1111111111001010
1111111110011101
1111111101011111
1000
1110101
10
1001101
1111111101001100
1111111111100000
10111001
1111111111010001
1110101
1111111010000111
101111
1111111111110011
1111111110101011
101000001
11010010
