1111111110101111
1111111111011011
1111111101111000
10001000
1111111100110000
0
1111111110100110
10110001
1111111010101101
1111111111000010
1111111100001111
10011101
101
1111111101110111
10011
100101111
100011001
101010100
1111111110010000
111000
1111111111011110
1111111111001010
10011100
1111111101111100
1111111111111110
1101100
11011110
1111111111000000
1110000
1111111101100101
1111111101111100
1111111111111100
1111111101000001
11010
1111111111111001
111000
101000010
11100010
1111111110011000
1111111111010101
10000010
1111111111011101
1111111110010100
1111111101100110
1111111100001110
101111
1111111101111101
10110100
100110000
1111111101011010
1111111111000100
1011000
10011100
1111111110011001
1001101
10000011
1111111011100100
11010010
10100110
1000
1111111111001110
1111111110100011
1111111111011100
10101001
111
110011111
1101000111
1011010000
11001101001
100001111101
11101101001
10100000110
11011000000
100001111000
1101111100
101010001
1111111101001001
1111111010011000
1111111111000110
1111110111011011
1111111001101010
1111111100000100
100010000
11010010
1110010
10111000
1111111101000000
10001001
1111111111111100
1111111010011110
1111111101101101
10010100
10101111000
100110111000
101001111110
101111010110
10010001001
1010111000
101011000111
10101000001
1111110000001111
1111101010100010
1111100110111111
1111111001100110
1111101011011110
1111111011101111
1111101101101011
1111101010001111
1111101111111110
1111111111000001
10001001
1111111100100011
1111111111111001
1111111111110101
110000
1111111100110001
1111111010011001
1111111001000100
1111111011110000
1111111001110101
1111111000000010
100000111010
100001110000
100101010110
100100010100
1001110100
1111101101011100
1111100011101000
1111111010110110
101100011111
11101111011
110011100
1111101111101010
1111100001000100
1111011011001000
1111111101110111
100000110
11101111
100100010
1111111100001000
1111111101010100
10000101
10100111
1111111001111101
1111101110000000
1111011011110101
1111011111001100
1111110011111011
100100010000
1110010
11110010100
1010010100000
111101111001
11000111100
0
1010010111
110000011110
101001001010
101110101100
10010100
110110110
10101101100
1111111001111101
100010100111
1111101101
11000111000
101000110
11
1000100
1111111110101101
10000010
1111101111001000
1111010000011000
1111100000011000
1111110111110111
111011101000
1111111110100111
1111010011001001
1111110110011111
1111111101010000
1001000101
1111100100011110
11100001000
111100110001
1110100101
1111011101101100
1111100100110000
1001111011
1001110
1111110100101100
1111011111000001
1111111110011101
100101111100
11011011110
1111111110010111
10010010
10001111
1010011
100101110
1111100110001011
1111010110001100
1111101101101111
1111111101011111
100010001111
100100110110
111001010
1110000010
1111111011110101
1111100101010110
1111111110000000
1101001011
1101111101
111100011
1111101011110001
10101000101
1111000011001111
1111010011011011
1111101000000001
1111011101110110
111100000
110111101000
10110101100
1100010
10011110
1111111111111011
1111111110110010
1010001
1111100110111101
1111001110110001
1111101100011001
1111110000100011
1111011011101100
1111111011000110
11011101
100100101010
1010011110
11000011000
1000010111111
1111101110000000
1110110010101100
1111101111110010
1111101011111101
1111010010110101
1111100011111110
1100010
1111111111000111
1111110110100110
1000111111011
1011001011011
100100001111
111011000
100010101
1111111111011001
110011
10000110
1111101001011001
1111001010001100
110010100
1111100011000101
1111101110001010
1111110100100111
11110000
1010000011
100111000110
1001000111011
10111001110
1110010001011101
1110010110101000
1111010101000101
1111101110010110
1111100000110000
1111110101101001
1111111110011000
100101000
10001001010
1010101111111
1001110001110
11111100010
1011110
1111111110001100
1111111111011110
1111111111000101
1111111101111101
1111101000110111
1111101110101011
10001001100
1111101000
1110101011
110101011000
111100100110
1010100011110
110101001010
1011010110001
1111101111010001
1110011101001001
1110110111111010
1111101010110000
1111100111011100
1111111101100001
1111110001000010
1111111111110100
10101101000
100011000111
1001010001101
100000111100
1000011100
1111111010010100
10110
110111
1111111111011000
1111111011101001
1111101100001110
1111111111000100
11111110100
110101111100
101100001111
1010100110011
111100101100
100110100110
11001111010
1111010110100000
1110111000101100
1111000111110000
1110111100011000
1111111011011101
110110111111
1100001110
1111110101001111
1111111111100110
10000100110
11010111001
100101100100
100000011011
11010011
1111111101010100
1111111010111000
1111111110111010
1100
1111111101100000
1111111011110111
1100001111
10000000011
10011111101
1111010100
1101010011
10010111
1111111100011000
1111101111111010
1111000011110100
1111000111101111
1110101101110010
1111010000010100
1111100010001110
101010010000
1111011000000000
101000011000
111000010010
101011110010
10011110111
101001111000
11101000111
10110010011
10111001110
1100110
1111111110101010
1
1100101
1001001
1111111001111001
101000
10110110101
1000101101
1111111001000011
1111110000001111
1010110011
110000100000
1111010101110010
1111100111010110
1110100000100011
1111011011111110
1111100010011111
1111100111000100
1111100000101001
10100011001
110000011000
11001100011
111010111001
111100001000
110100100011
11101111110
1011010000
10010100
1111111101111011
1111111110101001
110010
1111111011010011
1111111101000111
10010110101
110101010100
110101010100
1011101
1111110101111000
101011111001
100010110000
1110110110110100
1111110011010010
1110101001001110
1110111110111111
1000110101
1111010010001100
1111001000110011
1111010101100100
1111110011111000
1111011110100111
10010110000
11111000010
11000010100
1110010100
1101100101
100
111100
1111111001100010
1111110100000001
10100
1110111110
110110111001
1001100011000
1000101110001
110011111001
100010
1111100001011011
1111001100000111
1110110010010111
1110100001011101
1110110101100100
1111010011101010
1111111100000110
1111100101010110
10100110110
1111100110101101
1111101100010011
1111010010111010
1111101011101110
1000100000
11111011001
11011000100
1001010111
1000101
10100000
1111111001101011
1111101001001011
1111111111001010
1011001111
100111001000
1001001111001
1011011011000
10000010010011
100010110010
1111111100001001
10001110
1111001111010111
1110110101000011
1110111010000001
1111100010110101
1111110111110111
1010010101
11000000010
1011011100
10110000
1111111110011101
10101101100
110010100001
110110101000
11100101100
10010110101
111111
1111111111110111
1111111110001111
1111101001110011
1111010111001000
1111110011110010
101010010111
1000110011100
1001011001100
10110111100101
10111111100100
10011111100110
10011111110000
1100101010101
1111100100101110
1111001000000001
10001110110
11100011010
1011010100
101001110101
11011001001
100101001101
1111111101001100
11101111001
110001110010
111000111111
100001101100
11101110
10110
1111111111011100
1010
1111110111111111
1111000101101011
1111011000011010
11001100010
1111111001110011
1001011000000
10010100111000
10110100111011
11000011010110
11001101010011
10110010111001
1010010111100
1111100111
100000101101
10111001001
100000110010
1001111
11010000100
1110100000
1111011111110000
10011111000
1000110100101
1000110111001
110111011
1111110110010000
1111111100001101
10100101
11010010
101010010
1111010100011110
1111010100010000
1111110101101011
1111100001000101
100110010001
111011111000
11001000101
100101010100
1010111111010
10000111001011
100101110011
11001101100
1010010011
11101100100
11001001111
1111110111001110
1111101111000100
1000011100
1111111000100100
101011101010
1000100101111
110001101000
1111111000111111
1111110111010000
111010
1111111101000010
1111111101111110
101100001
1111110110000010
1111011110011001
1111111010011100
1111000010111001
110010000
1111011001000011
1111000010101001
1111011001011000
1111110010001000
1111111111011001
111110011000
100101001011
1001111111
1010011101
1111101000000000
1110000011
100010001000
11000101010
1111110100101100
11110101111
110011100001
10010101010
1111111010101001
1111111000110000
1111111110101011
10011
1111111011011100
111101111
1111101101011101
1111010101010000
1111011110001101
1111001110110000
1111100001101111
1110100111101100
10010001001
1111000101110100
1111010100111110
100010000
110000011010
10100110110
11101101
1111111101011100
1001100110
100010100100
10011000111
1111111110100100
111101101
100001110110
110000001000
110101001
1111111111010101
1111111101111011
1111111110110011
101111
101000
101110011
1111111011100001
1111011110110010
1110111101101110
1111011100001111
1111100101001000
1111100101101111
1111101110000000
10101011110
111100111
110000010000
1000111111001
1111011000
1111111011010010
1111100010001110
1111111000100111
101111010
1111100001011001
0
10011010011
11001000011
11101011100
10001011111
1000100111
1010010
1111
1111111101011000
100100
1111111111111100
11000101
1111101100011111
1111001111011110
1111010011110110
1110110010100000
10001111
10101011101
10101000100
1111101010110101
1111110110100000
1111101100101010
111110110101
1000000001101
111010100011
1111110111100111
1111110001000001
10101101101
111001110101
1000011100101
110011010110
101000110010
101001110
100001001
1111111101010001
1110010
1011110
1111111011101101
1111111111101000
1111110111011101
1111100011011010
1110111010110110
1110100111010000
1110011011110101
1111001000000101
1111011110011010
1111110010100101
1111010110
111100100010
11100110111
1111111100101110
101001101011
101010110111
1111110010100011
1100101110
100101011111
100101000100
10100011001
10110010000
1011001001
1001
1111111011000100
10001100
1111
10111100
1111111111111011
1111111110101001
101100
1111111101111110
1111110000111101
1111101110010010
1111100000011111
1111001110100011
1111001010011101
1111100001111100
1111110010011011
1111111100011101
1000001000
1100000110
11100010000
1100011111
1110011111
1011000
1111110111110110
1111110111100111
1111111001010100
10011001
1111111110010111
110
1111111100100110
11001100
10000011
1110
100101110
1111111110100001
1111111110101001
1111111110100110
1111111110001010
1111111110100101
10011000
1111111110101001
1111111110100010
10010001
1010011110
1010001111
1111111011011101
1111111010010000
1111111110010011
10001001
1111111110001101
1111111111101010
1111111010010010
1111111100100010
11100011
101000110
100010
1111111101101100
1111111101110010
1111111111101110
1000
1111111101000111
1111111100000100
1111111101011100
1111111111110001
1001100
110100
100110000
1111110
100011001
1111111111101000
1011001
10010101
10011
111111
111
1111111111011001
1111111110100001
1111111110111001
1111111011100011
110
1111111111101110
1111111110101101
110110
1111111110111101
100
1111111111001010
1111111110101010
10100111
