110101
1111111111110101
1111111111010011
10101010
11110
101011
1111111110101101
1111011
1111111010010000
1001010
1111111111100011
1111111101110110
1111111101110100
1101100
11001010
1110001
1111111111011100
1111111111101001
1111111110010011
1111111110010000
1111111111101011
1111111111110100
1111111111101110
1111111101110100
11000011
1111111110001101
1111111110101111
1111111011101001
10010
1111111110111011
11001000
1111111101111100
10000
1111111110101111
10010111
1111111100011000
1101100
10001
101000
100101
1110001
1111111110101001
1111111111010010
1111111111110000
1111111100111100
1111111111110010
11101011
10110011
1100
1011110
1000110
11010
1111111110100101
101010001
1111111010100011
11001111
1111111110101101
1111111011111111
10101100
1010011
1111111101010110
1111111111011100
1111111011110100
1111111001011101
10001111
11101011
101100
100001000
1100100000
10001001000
100100100100
11100010001
1100011111
1001011110
1001101011
110110101
1100
101
1111111011001110
1111111010001010
1111111010010110
110110
1111111100111110
1111111110000100
1111111110101101
1111111011010110
1010111
11010011
1111111011110001
1110010
1111111110010000
1111111010100111
10111000
1010100000
10011111001
110111100110
101111100001
100111011101
11111000100
1110111110
1010101010
10011011000
10000110011
1000001001
111011
1000001011
1100000
0
1111111101001111
1111111111011011
100000
10100
1111111111111011
11011
111
11011001
10001111
10010011011
11100110101
100010011011
101110100000
101001101011
110110101110
1001100100110
101000000100
110100101101
10011100101
1111101111111110
1110111011010100
1110010000111011
1110011001010010
1110101110100011
1111000111101010
1111011010101001
1111101010010010
1111111001111000
10110000
110100
1111111110101101
11000000
1111110
1001101
0
100110000
11001001000
101100111101
100110010001
110001011001
10100001001
10100011111
1101110110
10010111011
100001101101
100111000
1111101011101110
1011111011
1111110000000111
1110001110010100
1110011000000001
1110100010101100
1110101010101100
1110111011011110
1111001000111001
1111101001101000
1111111100100010
1111111101100011
1111111001111001
1010010
1111111110010011
1111111111001101
1111111111111100
1110110010
101101011001
111010000101
1010010001101
1001001000010
1000100110001
11100101111
1111110111110010
1111101111111111
1111001001001100
1111011010111110
1111000111010111
1001110001
1000000100000
1111010011110011
1110100
1110011100110001
1110101101000011
1110111010111110
1110100100100111
1111001011011001
1111101010001001
1111110000001011
1111110111101111
1111111011101010
1000111
1111001
1111111100100000
1110101111
1010001100111
1101001000011
1011111100101
110100001100
11100011001
1111101000010100
1110110110000001
1111100111101110
101110010111
1110010001
10100110011
1001011000000
101111101000
1111101110111111
1111000011110100
1111001111111110
1110111101111110
1111000101011000
1110110101110010
1111000011001110
1111000110010100
1111011110011001
1111110011110001
10101001
1111111111110001
1111111101111001
11001001
10011111111
1101110011000
1011110011101
101011000010
1111110111110111
1111011010100101
1111101101011001
1111100110011010
1111001101110011
1111011010000000
100001111100
100111010100
1100100001110
11100101110
1111111110010101
1111011001001110
1110110000110011
1111110011000011
1000001101
1111011101001111
1111000101100010
1110101011101001
1111001101111111
1111101110111100
1111111001111100
100001
11100
1011010
10101010111
1001110011100
110001011100
1111110100010101
1111001000110100
1111011011010011
11110001
1111101010111110
1111100110000111
101111100
111011110111
1110010110111
10100100010001
10001110011
1111100101110101
1111001110000011
1111100101011010
1111100111111101
1111101110001110
1111110101100101
1110010000010111
1110010000101001
1111000010011000
1111101111010001
11001010
1111111101000011
101000
10010100
10000110111
1001101110
1111100110011010
1111100001101010
1111100001111000
1111001011000100
1111110011010110
1111100101101111
1111101011110111
110101100
101011100001
101110011110
1010100101110
11010011010
100101101
1111110001111100
1111110010011101
1111101001100111
1111110011011100
1111101010100011
1110011100000100
1110010001111011
1110111011110011
1111101110010001
1111111110111110
11001100
1111111110100100
111100
10110000000
100100101000
1111110101011011
1111000110111110
1111101110111001
1111011010100000
10000010010
1111100111001000
1111110011101100
1111101010001000
1111000110101011
1111100111001011
111100101100
1001010101011
111001001000
10011100000
100011000011
110011111101
111100111111
10011101111
1111010101101110
1110101111110101
1111010111010110
1111110111100000
1111111100010111
1111111101011101
10010100
1010110
111001111
110000011010
11110111110
1111111010100011
1111111110010111
1111111101010101
1111110110111011
1111011000011111
1110111001101100
1111001111010111
1111001111101000
10101
101100000100
1100001001100
1001011000010
1010110110110
1001110101101
100100011111
10101001110
100001101010
1111101010111111
1111011100110100
1111101110110000
1111111000100001
100111000
100101
1111111101110100
1111000
1011000010
110101011111
100000000000
11110111110
1011101100
1111011010101111
1111010000110010
1111101000001101
1110111110011000
1110111011101000
1111011001100111
1111111101101100
10010001011
1000100110001
110100111011
1001101011110
111111100101
110001001110
1000101010000
10110001011
1111111100011011
1111101100110110
1111111000101101
1111111010010101
1111111101011011
1111111111001100
1111111101001010
11100001
11000101101
11110011001
1000010110
1111111100001010
1111110110010101
1111100010001101
1111100110100010
1111101000001010
1111001001101100
1110101001001111
1111000000001011
11100010111
1011111001111
111011100110
11010010000
1001101010100
1001100110101
1010001101110
1100101111001
1100000111
1111101011011011
1111100011011011
1111111010100100
1111111110010101
1100000
1101111
1111111111111001
1111111111110001
11000101100
10001001100
1111101010001001
1011
11100
1111110111011110
1111001100001011
1111010101100000
1111000001011110
1110010110011100
1111100101101011
100101101011
10010011101100
1110001000011
1100000100110
1001011011000
1100011100111
11111100011
10110011001
1100101010
1111001110011001
1111010011000101
1111110011110110
1111111010000010
1111111110111010
100100
1111111110101101
1001000110
11001101110
100001000010
1111110110101100
11100111
111001001001
1111111101000110
1111101010001011
1111110111101100
1111100010101001
1110101111110100
1110110101010110
100010111010
1111101010000
1100100110000
100001110110
1000111011100
10000001101
1111101111001100
1111111011101100
1111111101111110
1111011001010100
1111001111011000
1111101110100111
1111111111010010
1
1111111110011110
10100100
110010000
100110000000
1111011010
1111000001011001
1111000111100011
10111111111
10110010110
1111011011111101
1111010011010011
1110111100000110
1110100010111010
1110101
1101000011000
10000001101000
1100001101
1111101010111100
1111110111110101
1111000101010101
1111101101111011
1001010001
1010111010
1111111111001101
1111001011110001
1111110001100110
1111111111011001
1001111
100001100
10000110
1001100111
11110010101
1110001000
1111010110001110
1110110101111010
1111101011011001
1001000011
1111010000110101
1111101111001011
1111101000100100
1110110010101100
1111111110001001
1110010000100
110101000100
100001010
1111100001101110
10111001
1010000
111101110
1101010001
10000100111
1111011101001011
1111001001011000
1111101111001011
101
11101101
1111111101000011
1111111101111110
101111011
11111110011
1111111010000101
1111100100001001
1111001110111101
1111010101001110
1110110100101000
1101101010101010
1110010110001011
1110111111000100
1110101010001001
1111110111100011
111011111100
110111000
100011100001
100011001011
111101111
110011010000
1001110000
1111111110101001
1111100000110011
1111010000101101
1111001101010100
1111111010010001
10111010
1111111111010000
1111111101010001
1110011
11011110
10011001111
1111100100001111
1111010111000111
1111100010001111
1111101110010001
1111100001101100
1110100110110101
1111011100111010
1111000000111011
1110111001100010
10001110111
1000010111011
1100001
101100101101
11111111001
100110001101
10010111010
1011000001
110111000
1111010001100110
1111010110100101
1111110100001111
1100100
100100
1111111111011100
100000111
0
101001001
1100111111
1111011110011000
1111001000011001
1110111001100000
1110111011110111
1111111011010110
1110110110111010
1111111001000100
1111001011101001
1111011100101101
1110111010000111
1111110101110100
1111111111111001
10000010110
11111111
101011101001
1111101000000100
1001011000
1111111101011101
1110110011110110
1111001110000001
100000
101000100
1111111110011111
10110
1100
1011000
101110011
1010100110
1111111010000101
1111010010101000
1110101001111000
1110011001001001
1111000111111101
1111111100000101
1111101101000001
1111011010011010
1111000010111111
1110100101010110
1110011100110010
1111011101000101
1111101001010100
10111111010
110011101110
1111111001010010
10011001010
1111001100101101
1110111100011010
1111011111100010
111001100
110010100
1111111101010000
1111111011010010
11101111
1111111111000011
1000011
1000111011
10011001010
1010110011
1111110001000111
1111001011010101
1110111001100011
1111110010011110
101100
1111110001010000
1111011110000011
1111110001110100
1111011001100100
1111000111010111
1111000110000011
1111111001110110
11001111101
1111110000000000
1111011111110011
1111010011100111
1111101100010000
1111111011111010
1111111001
110010011
1111111111001011
100111
1111111110011001
1111111101100100
1111111110110011
1111111101011001
10110010001
101101111111
1000110111010
100000110011
100001111101
110110001
1111101011000110
1111001101010110
1110111110010000
1111100011001001
1111010010110100
1111111011001001
100010011
1111101100110001
1111000100010011
1111100001001110
110110111
10001011010
10001111010
110101010
1100010101
1111111001110001
1111111100100000
10111011
1110
11000101
1001010
1111110100010111
100010011
100000100100
110000101100
111111100001
111011011001
111010000100
11111111011
1111100
10010011101
100010001
1111111010000001
1111000011001000
1111110110101110
1111110010000110
1000011100
11100110000
11001000100
10010011011
1101100
11001011
100101001
1001011
1111111110001111
1111001
1111111101000001
1111111110101000
1100101
1111111110011111
110001
1010110011
11000100110
11101011100
100100110000
110100011101
101010111110
10110100110
11011010011
100111111110
101001001001
10000010000
111011100
10101010001
1010110001
10011010
1111010010
10101000010
1000011011
1000000
1111111011111101
100001101
11101110
1111111100111110
1111111110011110
110110
100000
11011
1111111101100000
1111111111000011
1111111111111000
1011
100110110
1111111101001110
11011
100101000
110100
1011000010
101001111
1111111101000100
1111111111011110
101010000
1111100
1111100
10011110
1000000110
101101011
1010000
10000
1110
10101
101000
