10000100
11100
1111111111100010
1111111111001001
1010010
1111101
1111111101110000
1111111111011101
1111111111010111
1111111101110010
1001100
11101
10111
1111111111001110
10100000
1111111111110101
1111111101000100
10001110
101110
1100011
101001
1010110
100011
1111111101011010
10011111
111011
1111111101000010
1111111110110100
11111010
1111111100110010
1100101
1111111100100111
10110000
10101010
1101001
1111111110001010
1111111111000100
101001110
100100110
1111111110101010
1111111011110001
1111111011011110
1111111100000101
1111111111111000
1111111101000010
1111111111011001
1111111111100011
1111111110100001
1101000
1100100
1111111011110101
1010010
1111111111101111
1111111111000101
101101
1111111100010011
11101110
1010101
1111111111110010
1011110
1111111110010000
1111111110101001
11101101
10111111
10000111
1111111101100001
1111111100111000
1111111010000111
1111111001111101
1111111100011010
1111111101000010
1111111101111010
1111111101101111
101111
1111111100011111
1111111
101110010
1111111110101000
1
1111111111100101
1111111110101100
1111111111010100
11010100
1111111010101111
1111111110001011
1111111110001001
1111111111000110
1111111100101100
1000011
100011001
1111111111101011
1111111111000000
1111111101001110
1111111000000110
1111110010001001
1111110000010101
1111110100001000
1111101010110001
1111101110110100
1111101101101010
1111101111100101
1111111110011000
1111111111001101
1111111100011100
1111111010010101
11000010
1111111110011011
1111111111110110
1111111110000000
1111111101001000
1111111111110001
1111111111111011
1111111101110000
1111111101000111
1111111111001000
1111010
1111111111111011
1011111
1111111101110011
1111111110010010
1111110110111011
1111110100010111
1111110101010011
1111110001101001
1111110110000001
1111110100101000
1111111110101100
1011001
1111110110001110
1111110001111011
11101010
110001100
1111111110101010
1111111100010011
10010110
100110
1111111101011111
1100011
11001
10101111
1111111101100000
1111111111010011
11010010
11011100
100111100
1111011
10001101
1111111101011010
1111110101100001
10001100
1111111100010010
111101010
1100111000
110101101
11001010
1011011101
1001000
1111111111010100
1111111110101100
10011100100
10111001001
1110011100
1010010101
111110011
111000011
10110001
1111111110000111
1111111111011110
1111111111010100
0
10100000
11111110
100110001
10101001
1111111001010011
1111111011111001
1111110111101101
1111110000001010
1111110111101110
1111111001000110
1111111001010010
1101000001
1100111101
10010100
110000001
111000
101111101
11001110
10010001111
110101
1000010111
1110000101
100111110
11000011
1111111110001100
10101000
10111000
11100
1011101
1111111111000111
1111000
1111111010101101
1111111100010100
1001000011
1111111001100101
1111101010010101
1111110111111101
1111110001100101
1111111101110100
1111111000111100
11010000
1101000111
1111111011011101
1111111011010101
110110110
1111111100110100
1111110110100001
1111111101000101
1111111000001010
100100000
1111111110111011
1111111111000011
10101001
1111111111011100
1110011
1111111100001101
1111111101010000
1111111110011000
1111111010110101
1111111110000000
10000101
1111111111001100
1111110100101010
111011101
1111101110010101
1111111100100010
1111101100111110
101011000
11111001
1111001100
1010000100
1111111111010001
1111110110011110
1111111010111101
1111101110100110
1101101
1111110000011100
1111110001001000
1010000
10010010
1111001
110011010
1111111110001101
1111111110011011
1111111111011000
1111111011000010
1111110101101101
1111110111101101
1111111001101011
1001111
1111111001111011
1111110111101011
111110100
111111001
1111101101010101
1111111100101111
1111111000000110
101011000
1111111100101001
10100000
1111101110001100
1111110010100010
1111111001000100
1111110011011110
1111111101111100
101101101
111011
100011000
1011000
1111111111101001
1111111111010000
1111111100100000
1111110111101100
1111110010011011
1111101100000010
1111100011111101
1111110100001000
1111111110101000
1101011101
1111110011000110
101000101
11001111110
1111111011110101
1111010111001100
1111101100000110
1111100111010101
1111010110101110
1111110010101101
10001100
1100001
1111110101010010
1111101110101111
1100001001
1101010000
100000110
10110011
11011010
11001
0
1111111101110010
1111110101101110
1111101110011000
1111100100101011
1111101111010000
110001011
11000101
1010011110
1111110110011100
1111111110010010
1111110001111011
111011100
1011010000
101111110
1111110000011111
1111011100010011
1111110100001101
1111110101000110
1111110101101100
1111111110100000
1111111110001110
10111010001
10001110001
10100110000
1001100100
10110000
111111
1111111111101101
1111111101000011
1111110110010100
1111101011111000
1111101001000001
1111110110001110
10000101011
100101100
1111110001011110
10101001
101100101
1111110101011000
10111011001
110011010111
111011011010
1010110111
1111111000110001
11011110
1111111011010010
1111101001
10101111100
10111010000
100110110001
100000011001
1100101010
11101111
110001011
1111111110100000
101111
1111111101011111
1111111000100001
1111101101100011
1111101010101001
1111111110101010
1111101011
1111001100
10011000000
1100111001
1111111010010001
1111000011
110010001100
1000100101111
101100110000
100101000110
11100110011
11101101111
10111110101
100000111111
10100111000
10010011000
1011110010
1000011110
1111111111011001
1111111011001101
11111110
1000000
1111111101000101
10010101
10011011
1111111000110010
1111110001011111
1111110110000101
101011100
10000000100
1101110000
10001111000
1111111110000000
100101111111
110010011000
100101001101
11001100010
100101010100
100011100101
100000101001
1011010110
1111111111000101
1111100000111011
1111110000010011
1111110000010101
1111101011101001
1111111011011011
1111110100111001
1111111001110000
1111111111111000
11101011
1111111111111011
10001111
1111110110101000
1111110001100001
1111101111011001
1111101101011010
1111111101000000
1111110110000000
10001011000
1100110000
11100111001
10110000110
11110010011
10110111100
10111011111
11001011010
1111111000101000
1111101110001001
1111100011110101
1111010101000001
1111100001011110
1111100111010001
1111101101001000
1111110110010010
1111110101001101
1111111101100100
1111111101101101
111111
1111111111111101
10101110
1111111000100110
1111101001010000
1111101000110110
1111100001000111
1111101010111100
1111101010110110
1111111111011111
10011100011
100000110010
10000110010
10111111110
100110110001
11110100
1111111101011101
1111111001011011
1111101110111100
1111011011100101
1111011100001100
1111100000100111
1111101001101110
1111101011110000
1111110110000010
1111111011101111
1111111011001001
1111111110111110
1100010
1100110
11011101
1111111011000110
1111101011101111
1111011010001111
1111011001001100
1111011101110001
1111100110001110
1111101100010111
1111111111010100
1100101011
11011100001
11001011000
10001011
1111100000101110
1111101010011110
1111100000001000
1111011111011001
1111110110001111
1111110000011000
1111111010100100
1111110111001000
1111101110101001
1111110001001100
1111110001000101
1111111100100010
1111111111000001
1111111101011101
1111111111001110
11111111
1111111100000011
1111101111111000
1111100100010110
1111011111011000
1111011100001011
1111110000010101
1111100001110010
1111011011000100
1111101110110001
1111101010110000
1111011111000010
1111011001011110
1111011110111010
1111101011011000
1111110001101010
1111110001000011
1111111110000101
1111111111001100
1100100
1111111100100000
1111101110110100
1111110001011011
1111110100001001
1111111110000011
1111111110101011
111010
11001100
1111111111110111
1111111100101000
1111110100100000
1111110101100011
1111101011110010
1111110010000000
1111101100011001
1111010101100000
1110111111100101
1111000101010000
1111010000000111
1111100001011010
1111010100000000
1111111000111101
1110010110
1000111011
100111
11101101
111111000
1111111111101000
1111111110100000
1111110010011001
1111101111110001
1111111011101000
1111111110010110
1111111101010111
1111111100101101
1111111110100111
1110111
1011000
11001101
110010010
1111111100011110
101101
1111111010101100
1111011110110111
1111011011011110
1111101000001101
1111100011100001
1111110110101101
1111111011001111
1001000001
10000001010
1001111010
10101101010
101000110
1101010000
100001011
1111111001001000
1111110110111010
1111110101101110
1111111101110101
1111111101001101
1111111100011111
1111111110010010
1111111110111011
100010
11111010
11010110
1110100101
1010100001
111000100
1111110111010111
1111111011001001
11010111
1000
10100101
1101010100
1110000011
100001110
10011110
1011000011
1110001010
1001101101
1001101111
1111111110101111
1111111000010010
1111110010000111
1111111011000110
10001011
1111111101000000
1111111110010111
1111111101011101
0
101011100
1111000
11010011
111110
1000101011
101011
100010110
11110001
11001101
1000111101
101110001
10100001011
1111111001100011
11101011
1010000110
101001111
100000100
1111111011101110
1000100001
1111111000110010
1111101011000100
1111110100001001
1111111011111000
11011
1111111110110110
1111111111101110
100100011
1111111110100110
1111111111000111
1111111111010010
1111111100110110
1111111101000100
1111111100001010
1111111110101110
10100100001
10010010001
1000010111
1110010011
10010001100
1111001000
1111111110010011
110111111
1000010100
100100010
1111111110110111
11010
1111110111101000
1111111000011010
1111110011010000
1111111011110011
1111111011010100
100101
1111111101110000
11110000
10101111
11110011
100000110
1011011
10010101
1111110101011111
10111100
1100101000
1101010100
10001001101
1010111010
1000110000
1111111101100000
1111110100100100
1111111010000010
1111111100100100
111011101
1111111011001010
1111111001110100
1011111
1111011
1111111110111111
1111110111101101
1111111011010011
1111111110100101
1111111101011010
1001100
1111111100111001
1111111100001100
1000011
1111111100111011
1000
1111111001111000
1111111001000110
11111101
1100000
11110
1111111010101001
1111111101111000
1111111001111011
1111110111111100
1111101101010011
1111110011111101
1111110001000011
1111111110000011
1111110100001110
1111110011110110
100001011
1110101000
100111000
101001110
1111111111010101
1111111100100011
1111111111000011
100001
1111111111100101
0
1111111111100110
1111111111000110
1111111100000111
1111111110100101
1111111111101000
1111111110000011
11001
1111111101011001
11101010
100011011
1111110100100111
1011110
1111111111101101
1100100
1111111100100101
1111111011111111
1111111110010111
100001001
100101
10
1111100
110101
1010111
1101001
100101
1010111
1111111100001101
1111111111011001
1111111101111001
1100000
1111111110000110
0
1111111111010111
1111111111111100
1111111110100001
1111111
1111111110011010
1111111001000101
1111111100000111
1000110111
100101
1111111111010100
10101011
1111111111111011
1111111011011101
11101000
10010110
1111111110010100
1111111111001000
1111111010101010
1111111111111011
1111111110111100
100111
1111111101011100
1111111101010011
