1111111110110000
11011
1111111111111010
111
110
1111111111010101
111
1110000
1011010
1111111101010000
1001110
11100001
10000
100111100
10000010
1111111101100101
10011010
1111111101010010
1111111100110110
10000000
100001
1111111110111001
1111111111001000
1111111111010011
10010000
1101001
1111111110010011
1111111111110111
10100100
1111111101001111
100010110
10100100
11011111
1111111111101001
100011111
11
1111111101101110
1111111101111010
10110110
100100001
1111111001101100
1101110
101001
1111111111010010
1111111101111110
1111111
101011110
10011111
1111111111100011
10001001
1111111110101100
10010
100111
1111111100101110
1111111111101110
1111111111001010
1111111110110010
1010100
1111111101100011
1111111111111110
100101000
10000011
100101
1111111111000111
111100
1111111100101000
1111111111101000
100000100
10010000
101000011
111001100
1111111101111010
1111110100101111
1111110011111110
1111111111010100
1111110111111010
1111110110001000
1111110010111011
1111111000101001
1111111010001100
1111111101000001
1111111110100111
101000
1111111110001000
100000110
1111111100000111
1111111101101001
11000010
1101011
100110100
101111010
11000111
1111111010101010
1111110110010100
1111101000010011
1111011111000110
1111111001111000
1001101011
10000110111
11010010110
10100110010
10111100111
1110000011
1111111110001000
1111111100001110
1111110101000001
1111110100101001
1111110011000111
1111110000110111
110010
1010010
1101101
1111111111111011
101111
101101
101010111
1111111101000100
11010000
1111111011011101
1111111111111000
1110010101
1100100110
1101011
1101010
10110101011
1001011
1101001101
11011100101
1000101110111
100111100011
11001011110
1010011110
110011100
1111111100011000
1111100000111000
1111100010111101
1111111001100101
1101101101
1111111111101100
1111111110001111
1111111111110011
11110010
1110111
100010000
1111111100101001
11000111
1101011000
1000000010
1110110010
11111111001
1110110001
1111111000000100
11100
101110100
1111011111111000
1100000000
11000101001
1111111000010101
100111011100
1100111001
111100011100
11000000011
111111000
10010010011
1001010011
11000100101
100101
1000
1111111011100110
1111111101001110
1111111100010110
100100010
1111111101111001
110101111
1111111111011001
1111110111110001
11111001101
10010011111
11100011
1111110011101111
101100000100
101001011010
10101010101
1111110000000001
1101001110
10010010111
1000101111
1111110010001101
10011111
1111111111000001
1111011011111101
10110011111
1010100001000
111011101011
10001011010
101011000
110000110
10000
1111111011001001
1111110110011110
1111011011101000
1111100100011011
1111000000011001
1111011100001011
111001010101
10110101100
101001110111
1111000
11100010111
1111111100011010
1111101111011001
1000010000
11011101110
1111110011100100
1111111100111110
1111111010110111
1111101011110110
111001000
111011100
101100011111
1101101001011
110110100111
10111000110
11
1011010
100001110
1111111101100001
1111110010110010
1111100001011001
1111101111011111
1111011001010100
1111110110101001
111011000011
10010011000
1111110010101100
1111011110010001
1001111111
1111111001111111
1111101000111101
1111010110011101
1110111100011010
1111000111011011
1111101100011100
11010001000
1111101001100000
10011101010
110010111010
1110000100
1110101111000
1101100010010
101001000101
10100111
11001000
1111111111010011
1111111010000010
1111110100001101
1111101110101100
1111100101110011
1111100100010111
10101101000
11100101100
110001000
1110101010101100
1111110100011000
1101010011
1111101001111100
110101000110
100010000110
1111000011001010
1111010011001010
1111000010010000
1111000000001111
1111101100000100
1011101100
110000101
1111011101011011
1000011010110
10000010101001
11011011010
111001001
10000010
1111111011100110
1111111101000001
1111111110001111
1111111111010111
1111100010111001
10110101100
1111111111100111
1111111111100100
1111110111011110
1111101100011000
1111111100001100
100111001011
110000000000
1100110100110
1000010011001
1111100001011110
1111010100001110
1111010101101010
1111011110100110
1111110111010001
1111110100110111
1111011000101100
1111010100011001
100101100001
10001001101100
110100011110
111001001
100110110
1111111110110100
111010011
1001011010
1101111011
1011011101
100100001111
1111100001100010
10111000110
11100010001
10101011011
11001001000
101000010000
100010101101
1111101001000
10111100011011
11100101110
1111111000110000
1111111010000100
1111110011101011
1111101000010101
1111000110001110
1110010001111011
1110111011000101
1111010010000010
1010101111101
100100111111
11101010
1101011
1111111110000111
1101000
1111111101100100
1101000000
1111111101000111
101010010
1111111001010101
101111101110
110101010000
11100100101
100111100100
1111110000000100
1100101100
10100101111100
11101100000100
1000100111001
1111001010111100
1111100001110111
1111111101010100
1111101010010000
1110110000100000
1101110111111101
1101001001011001
1100111110011110
1111110110010001
1100101001
1111111111101000
10100101
1111111111011100
1111111100110011
1111111111100100
1111111011010100
1111101101111000
1111111111100101
1111101010111111
110010110110
100001010
1111101001100101
1111110111000110
1111110010011110
1001110001111
10111000111001
10110110100000
1001001010100
1111001011011011
1001100100
1111100010010110
1111100100001101
1110011011111011
1110011100010000
1101100101011000
1101010111001010
1111011111010100
11010101
1111111101001001
10010100
1111111110100100
101101
1111111111001011
1111111110010010
1111010111100111
1111101110011010
1111001001101001
1111010101001100
101110010111
1001001101
1111100001101011
1111011000111111
1011000111011
10011100110111
1100110001101
10011011001
1111010011100000
1111011100110110
1111000001000010
1111001001110110
1110110000100011
1110100010011010
1110011001001110
1110010010101100
1111100001101111
1111110101111010
1111111110110111
1111111111001111
1010001
111001011
11101101
1111110011011110
1111001011110110
1101100001
1111100001100110
1111101110000111
11011110110
1111011001001010
1111100011010111
10101011101
10101000001101
10001101110011
100011010011
1111011000101010
1110100101111010
1110110001001111
1111000010010100
1111001110010101
1111011100000101
1111010000011100
1111000101000010
1110111000101011
1111100011000001
1111110100101011
1111111001101100
1111111101001000
1001101
1100111010
11000101100
100101111
1111011011010001
1110111000111101
1111011100011100
1111010000111101
1111001010010001
1111000010111100
1111100011011110
1011010010010
10010011100010
110111101111
1111001001110001
1110100011110100
1110100000101110
1110110101010010
1110101111100001
1110011110011111
1111001011100110
1111011100101100
1111101011110111
1111110101010100
1111110001011010
1111111101000111
1111111111011001
11101100
11000001
111011101
100110101100
10000001010
101000000
1111111000110101
1111010011001001
1110111101010011
1111011111101010
1111100101111100
1101010100
1100010001011
1010101000011
1111101001001110
1101110011100111
1110111000001010
1111011111001101
1111011010100111
10001001110
1111101010110110
1111101111010100
1111000110100010
11110001000
110101000101
1111110101101000
1111111101111000
1111111110001100
1111111101100101
10011
110011000
110111110001
110010100111
1111110111001110
10000011010
1111111110111111
1110111111111111
1111101010011001
1111000101001001
11101110001
110100110001
101110000011
1111101001100101
1111100011111001
1111110010110000
10010011
1111101110010000
11100000110
10001101111
1100011
1111111011110101
101100001010
110001100100
1111110010100111
1000101
1000011
1111111110101001
1100111
1000110111
111000010001
1011000010011
111100101
1111101110001101
1111011001100100
1111110110111111
111011110
11101100010
1111110111001101
11110101100
101000011001
10110010000
1111111100000001
100000110110
10101100
11010001101
110110000
10010100111
1001111010
111000000000
11000011110
11100000111
1111111100000011
1111111010010011
11000110
11110000
1111111011010000
11111110
100100111011
1011001010110
1111101010000011
1111111100111010
1111010011010100
1111110010010010
110101000100
1111110111101001
1111011011001111
1111111010110110
101000000
1111110100111001
1111111101110101
100010111010
1110100010
1110001100
100010110000
111011011011
11100100011
100010010000
11111110001
111111000
1111111101101101
1111111110100011
1110001
1111111110110101
10011000
1101010111
11100101101
111101111001
1001010001
1000110101
1001101010
11011111000
101101111111
1111100111
1111011100011010
1111000010010101
1111000010100100
1111011000001110
1100101001
10100100111
10000110110
10001010111
11100110110
11010111001
10100011001
10011101100
11001100
1111101001010001
1111110111001011
1110100
10111000
11001001
10110011
1101011111
11010001000
100111100100
1111111010001001
11010001
1100101010
11
1111110111001011
11110100100
11100110
1111111011010101
1111100100001110
101001001010
1111100111011101
10100000100
100001001110
101110011
1001111111
1111110110011110
10010000
1100101011
1111111011001010
1111101100101001
1111110110010100
10001000
1010011
1111111110100111
1110111
1001101000
10001100010
10110011011
1011000010
1100110100
1111011101010101
1111010101011111
1111101011010001
101000010
11001100000
1111110110110010
1111010110100111
1111101000010010
1111111011101110
10100010011
1111111000000000
11000010111
100011101101
10110101
1111110111101001
1001101
1111111111010101
1111111110110100
1111111010001001
1111111111100010
10011
1110110
1111111110111101
1001100010
1001011011
1111101000
10101010110
11011111101
11110001100
10010001100
1111110001010011
1111101011010000
10010101111
1111100110010011
1001111001
10011101010
1111111110111000
1111111111110010
1111111101101011
10101100101
10110100111
1011111100
11110110
1011000001
100101010
10111110
1000000
1111111101111001
101
1010100
1010101
1111111111100010
11100010
1010011
11001
1111111101100000
100010001
1100010101
100010011100
100111011000
100001100010
11011011
10000110101
11010111
110000000
101010101
1010110110
1100000011
11110101
1111110100110100
1111111010011101
111011111
101101010
100111010
1111111110010010
1111111111011011
1111111111011001
1111111111010001
10100111
101010001
1111111100110001
1100100
1111111110011001
1111111010011010
1111111011000111
10000000
10110101001
101011000
1001101
1111111011101000
1111101111011101
1111100100010101
1111110001000111
1111111011000100
1111111010011001
1111110010011000
1111110111101110
1111111011001001
1111111101100111
1111111101010101
1111111110010010
1111111101111000
1111111111110001
1111111111101100
10111000
1000101
100110
1111111100011100
110010101
1111111110110001
1111111111100101
1111111111110110
1111111100011010
1111111100010101
1111111110001011
100100011
100111
1111111101100011
1111110010101111
1111111000000111
1111111001000110
1000110
1111111110011001
1111111111011101
1111111101110101
1111111100011111
11010
1111111110000011
1111111100111010
101001
1100010
1111111111010110
1111111111011100
