1111111110001100
10
111111
1101
1111111111000000
1111111010101010
11111010
1111111111011110
1
1111111101000100
1111111010101100
1111111100110111
10001000
1111111110010111
100100110
1111111101000011
1111111010010011
1111111100100110
1010011
1111111111101111
1111111101110000
1111111100010100
1111111101100010
1111111101101010
1111111011111111
1111111101001101
1111111110000100
1111111101110101
1111111100001101
1111011
11110110
100110
10011100
1111111111100100
1111111010011110
1111111111110001
1111111110101110
1111111111111000
1111111110111111
101010
1111111111110111
1111111110010010
1111111111111001
100110100
1111111110101101
1111111111111011
110110
11101010
1111111111000001
1010111
100100101
1111111011010011
1111111101001110
1111111101010010
110011
1111111111100101
1111111111010010
1111111110101011
101
1111111111010110
1111111100101111
1111111111010100
1010010
1111111110000001
1111111111110001
100110001
10110011
10111110
10010100
101110
10111111
100101000
101110001
111000110
1000111000
10000100001
1000011000
101101011
10011001
10010101
10011111
1111111111011101
1111111101111100
1111111110111111
1111000
1111111110011010
1110100
1111111101000111
10110111
1100100
11010110
110011
11101001
11000001
1111111110100001
1111111001101001
10001110
1111110111000100
1111111100011011
1111111111000000
1111110100100000
101101000
10011011001
110101111
1111010111
10000111000
10001111110
111111100
101011111
1111111100011001
1111111111100100
10001011
101100110
11000000
1111111110011000
110101
10011
11111110
110011111
101010100
101111000
110010010
1111111101011011
1111111110111100
1111111111001001
1111101110100111
1111111100010011
1111110101100000
1010010
1111111001001101
1101100110
1011110
1111111010011001
1010100011
1110010010
1111110110
1000100010
110000110
10011
10
1111111100110011
110001110
1111111111011101
1110111
1110
10000010
1111111111111110
11010001
1101010101
1111000101
10001100011
1111111011100101
111111001
1111110101001101
1111110100111101
1111110110000010
1111110000110011
1111100101110010
1111111001011100
111100110
1011110111
111010100
1001111010
10100111011
10000111001
11111101
1111110
1111111111111101
1111111011001001
1111111111111110
1111101
100011001
1111111110110100
1111111101000000
100001110
10101010000
11000100010
10101111110
100111101
100010011
1001011011
1100000
101001
1111100011111000
1111111000001001
1011
1111101111100101
1111111100001100
1010110011
1111110000010111
1111111110001011
110101000
100010011101
10110110001
110110110
1111111110110101
101000
1111111111010101
1111111100111110
10101100
10111110
100011010
1100100
10010011110
11000111011
1111111100111011
11111001
1000110
101010111
1111111011001000
1111101111100000
1111101010011101
1111111011000000
1111111010100111
1111101111001111
1111110110111001
1011010010
1111111111111100
1111110111101001
1111111101011111
11100111100
11011111010
101111011
10111011
1110111
101
1111111001111000
1111111100001010
10001110
1010100101
111100001
1101010110
101010111
111111110
111100001
110000001
1001101111
10011111100
1111111101110111
1111101010011001
1111100011111010
1111110110011110
1011111
11101111
101101100
1111110110111010
1011000111
1001000
10100110101
101100110100
1011000101
11010001
1110100
1111111100000011
110100011
1111111110101111
1100110
100101010
110100111
11010011101
1011010000
100110010
1111101110101001
111011001
1001101010
1111101111111110
1001110101
111111
1111101111101101
1111111010010100
1111101110011100
1111101011001001
1111111100111010
10001111000
1110111111
1111111101111101
10101100100
101110111010
1001100001
111011
100101001
10
11011
11111101
1111111100000011
1111111101111010
111001111
11100010
10010011111
100101001
1101011100
100100010
111011
11111101001
10101101010
11000011110
1111110100001010
1111101011010011
1111101011010101
1111111100000000
1010010110
1000001010
101101001
1111111001110000
111110100
101010000111
1101010101
1111111101101110
1111111111000010
1000000
1111111111110010
1111111111000000
1111111000110010
1111110101011100
1111110010101001
1100010011
1111110111101101
10011100001
111101001
1100111111
11100000001
101000111101
100110100001
100001100010
1000110001
1111000101
1001110110
1111110100010110
1111101011110001
1111100110000101
1111011011100011
1111101010011110
1111100101111100
1100000010
110011100
1111111110101101
1111111110110111
1111111111111101
11110
1111111100100011
1111111000100100
1111110100111101
1000011
1101001001
1010100000
10001110100
1100101101
10100011101
1001000111
1101110011
11001011110
11001011000
1100011001
1111111101001011
1111101110001011
1111011100011110
1111100010110011
1111001110101000
1111010010001010
1111010011110000
1111001001011100
1111110011011110
1111111101111111
1111111100110101
1111111110001010
111001
1111111111111110
1111111100010011
1111110110001110
1111111110010101
1111111101010100
1111111010110001
1000001110
111101010
1111111010010101
1001101001
110011000
1001101100
10100010001
101100001100
11111101001
1111111001001110
1111110011000010
1111111110000110
1111110000000000
1111110101100100
1111100110111111
1111010111001011
1111100110000111
1111110001011110
1111111010101100
1111111111101100
1111111111110000
10100110
101101101
11011011
1111111110101111
1111111111111010
1111101101111011
1111011010010011
1111101110100101
1111101101011010
1111111110101011
1111110111000000
1111101000000001
1111111001110010
100000000100
101010011001
11100110011
1111110011101011
1111110001011010
1111111010010010
1111111011110010
1111111101011010
11110001
1111110000101101
1111110010101011
1111110101010101
1111110100110011
1111111101011101
1111111110000011
1111111111101110
11100111
101101110
111111
1111100001011101
1111110101011101
1111100101000101
1111100101101101
1111111001001001
1111100001011001
1111101100010110
1111110010100110
10110011100
100001011100
100100100111
1111010
1111110100011101
1111111100110001
10011011
1111111111001000
10000100110
1001010001
1111111111011110
1111110010010110
1111110011000011
1111110010101100
1111111110001010
1111101
101110011
10001011
1111111110110011
1111111011110000
1111100100001101
1111101010100111
1111111110100011
1111101010100001
1111111011010000
1111100011110111
1111110011000100
1111110110000101
11011000000
11011011010
10000100111
1111111011000010
1111101101010111
1111110110100101
1111111110010010
1111110011011011
10000000
1111110100101101
1111110111010011
10001000
1111111001101000
1111111010101101
1111111111110101
1101
1111111100111001
110110
1111111100111110
1110
1111111010011010
1111110101110001
1111101011111100
1111101010111011
1111110011111111
1111100011111011
1111100111001101
1111111111111000
11011001010
111111111
1111101111001100
1111110011000001
1001101100
1111111111110010
1111111001100011
1111110011000101
1111110100110111
1111101011101001
1010110011
10101000001
1111111000101101
1111111001010000
1111111101110110
1011011
10000
101011
1011001011
1100000111
1111111111110101
1111111000011100
1111111101010011
1111101101100110
1111101001001100
1111000101101011
1111110000110101
1000000010
11110110000
1110001010
101011
1111111000011100
111111110
1111111010101000
1000101111
1100000110
1111111010000000
1111111100000010
11010010
100111011
1111101111001001
1111111001101100
100
1101111
1111111101011001
1110110
10001000000
10000010101
10011111
1111111001100001
1000111
1111110101100101
1111110101010010
1111111110111110
1110000111
1111111010000001
10100110100
1101101110
100011111
101010
10110110
1111111010011110
1001011111
1000110100
1111111001101111
1111111011010111
1111111100100100
1111111011001011
1111101111000011
1111111100010001
1111111110111010
1111111100011001
1000
10001010
1010010000
1010001100
1111101011101010
1111110000101011
1111110011000011
1111110011100111
1111111101011110
1111110100111111
1111110110111100
1100101111
1011000010
11001011110
1001011101
110110111
1010110000
100101011
10110100
1011000
1111111010110110
1100101011
11011100
1111110110010101
1111110111100000
1111111111001100
11110000
1111111110111010
1111111111001101
10101000
11001
10100000
1111110011010011
1111101110110011
1111111101101100
1100110111
1111111110101110
1111111110011100
1111111000111011
1111111000110100
10000101
111111111
1001001000
1111111011111101
1111111011
1100111111
1100010
1111111001010110
1111111011001010
1111110101100100
1111111110010000
1111101110100110
1111111000001110
1111111101000110
1111111011111010
1111111011111110
1111111111011011
1101111
1111111001010110
110100101
1111110100001001
1111101111111011
100100010
1111110101011111
1111110100000101
1001110100
111101111
1001111
1111111101011101
1010010100
1110011111
1101100000
11000111
1010001100
111000000
1111111110111100
1111110101001101
1111110000111010
1111110101011001
1111110111101010
1111111101101100
10100111
1111111110001010
1111111110100011
111111
1111111101110110
1111111111000011
1100110101
10000111111
11111100
1011010110
1111110011001000
1111101101110101
1111111100111001
1111110001010001
1111111010101000
1011100010
101110000
11010110
1000011001
11001011
1100101001
10011011000
10001001011
1111111001001110
1111101101010101
1111110000000001
1111111011001001
1111111011011010
111
10001011
1111111111110101
100100010
10100011
101111011
1101110011
11010110101
11110011000
100011110110
10101010101
100000011
10001010011
101000111
1111111010101100
1111111110001011
1111111101010101
1001101
111111111
1100110011
1001101000
101001100
110001
1100111
1111110011111100
1111110010111010
1111110111111100
1111111100100110
1111111110010011
100101011
11101000
1111111110010001
1011100
1001000
101000111
1000110011
1011001011
1101111001
10000111100
11000101101
100111000000
10011000001
10010011011
10100100001
10001110100
11101000101
1001001100
1110001010
111010101
1111111010100100
1111110010100001
1111111001111110
1111111010001000
1110100
1111000
1111111110011101
1111111110000001
100000101
1111111010111101
1111111110110001
1111111011101001
100011
1111111111111010
101111
10010
1111111100010011
1000100111
1001010101
10010110
11101010
1111111101110011
1111111100001000
1111111100100000
1101001101
1110000011
1001111101
10
1111111101101010
1111111010101110
1010111
1111111101111101
1111111011110001
1111111111110001
1111111101111001
1111111101010001
10111
1111111110011111
1111111010001011
11111
1111111110000010
1111111111111000
1111111110001100
1111111111101010
1111010
1111111110011000
1111111110100100
1111111110101111
100000
1111111111111001
100011101
110011010
100110000
1100111
1111111111110011
1111111101110000
1111111110111110
1111111110011001
10101111
10000000
111100
1111111110101100
1111111101101011
101111
11110
