1111111101110110
1111111110011000
1111111111011011
1111111101111100
1111111111110001
1111111011110100
1111111111111001
1111111111101111
1111111010111111
0000000000011101
0000000000001000
1111111111100011
0000000011110011
0000000000100101
0000000000010000
1111111101001101
0000000001010010
1111111111111100
0000000000000100
1111111101000011
1111111101001101
0000000001000110
1111111111000011
1111111111001111
1111111111100000
0000000011100011
0000000000001101
1111111101010100
0000000001010010
1111111101000011
1111111101000111
1111111101100100
1111111110001100
0000000001000001
1111111101001100
1111111010110100
0000000001011000
1111111100101101
1111111110100100
0000000000100100
1111111110001000
0000000001000111
1111111111000100
1111111100110011
0000000001010111
1111111101101110
1111111101000100
1111111100011010
1111111110010011
1111111011100011
0000000000001011
0000000011100001
0000000100000110
0000000101111000
1111111110001001
1111111111110011
0000000001010100
1111111100010111
1111111111101100
0000000000001000
1111111111001100
1111111110101110
1111111100010101
1111111001000100
1111110110010111
1111110011100100
1111110101100101
1111110000101011
1111110101000001
1111110101001111
1111110100110010
1111111010000000
1111110100000110
1111111010011111
1111111000001001
1111110111000111
1111111010011001
1111110100001000
1111111001110110
1111111011100010
0000000010001100
1111111111001000
1111111011110010
0000000000111100
1111111101101010
1111111110000011
0000000001000000
0000000010100101
1111111111101011
1111111111100010
1111111100011110
1111110101100100
1111101111010000
1111100111010001
1111100111001000
1111110001010100
1111110110100011
1111111011110000
1111111100101111
0000000100000011
0000001000010110
0000000111001111
0000000111000000
0000000000001001
1111110101011010
1111110010010010
1111101110101000
1111110010110000
1111110111100101
1111111110111100
1111111011101001
0000000001111111
1111111101100000
1111111111101010
1111111101100101
1111111100111101
0000000001000110
1111111010111000
1111110100110011
1111110011101001
1111110011001010
1111110000001100
1111101000101011
1111111001110100
1111110010101111
1111111011010000
1111110010100101
1111111010001011
1111111111011001
1111111101000110
1111111010000011
1111111011011000
1111110010101100
1111101100111001
1111100011100000
1111100011101100
1111110010000101
1111111110001000
1111111100001010
0000000000010010
1111111100101111
1111111101100101
1111111111101100
0000000001000101
0000000001111000
1111111111001111
1111111101010101
1111111000101110
1111111110011001
1111111001001100
1111110110110110
0000000000001111
1111110110110100
1111111000110011
0000000000110001
1111111100101100
0000000010011110
1111110011010011
1111111001110100
1111101011101010
1111100011010011
1111101011001110
1111111100001010
1111111111110110
1111111011011011
1111111101110100
0000000001110100
0000000000100110
1111111111001000
1111111101111100
0000000100110100
0000000000011011
1111111011110000
0000000010111110
0000000101101110
0000000011011000
0000000110101111
0000001000011011
0000000110001110
0000000010111010
1111111011010010
1111110001010110
1111110001101111
1111111000000110
1111111110010110
1111110010101111
0000000001101010
0000001010110101
0000001010100101
0000001000100100
0000011000001110
0000011011000110
0000001111111110
0000001000001110
0000000011110010
0000000010011110
0000000001011110
1111111100110110
1111111110110001
0000000010100111
0000000000101001
0000000001000001
0000001000111000
0000001101110101
0000000100101100
0000010000101000
0000001011101010
0000001011111001
0000000011000110
0000000100110101
1111111100001100
1111110100110001
0000001101101001
0000010110011111
0000011001001011
0000100011111111
0000100011011101
0000001111110100
0000011001100111
0000011101000001
0000011000110001
0000001001101111
1111111101000110
0000000001001000
1111111100110110
0000000000000000
0000000000100011
0000000101001101
0000000100101000
1111111101101010
0000000001101101
0000000110010010
1111111111000000
0000000110010000
0000001001011011
0000010010111111
0000000110100110
1111110110101100
0000000110000001
0000011110001010
0000010110111101
0000001100010110
0000011011001011
0000010001010111
0000100010110100
0000011010011001
0000011101010100
0000100010110110
0000011001011001
0000001000110110
0000000110111101
1111111010110111
1111111111011101
0000000000111111
0000000000101000
0000000100100111
0000000101010001
1111111011111011
1111110111011101
1111111000110110
1111111001101001
1111111111100100
0000000010001011
0000001001001111
0000001111000110
0000001001001111
0000000010110011
0000011101011100
0000100011111011
0000001110011011
0000011000111010
0000010011100011
0000000011100101
0000001110100101
0000011001101000
0000001000001100
0000001110101110
0000000110001100
1111111110111101
1111111101100001
1111111110111101
1111111111101010
0000000010100111
0000000101101000
0000000101010001
1111111111110010
1111111101011001
1111110100110100
1111110011101001
1111111011011001
1111111011100001
0000001010011010
0000001100011100
1111110110111010
1111011100010111
0000010001011111
0000010011111000
0000001001011101
0000010011001001
0000001101001111
0000000001101101
0000001011111010
0000001010101110
1111111101110110
1111111100011000
0000000001010111
0000000101000000
1111111100101001
1111111111000111
1111111111000000
0000000100010011
0000000111100101
0000001000110111
1111110111000100
1111111111001111
1111110101000000
1111111001011000
1111111010010101
1111111110000100
1111111010000011
1111111001010001
1111011000000000
1111001001101101
1111111110111001
0000001010010000
1111111010010100
1111111011100110
0000001001011110
0000001010110111
0000001100111111
0000000000010100
1111110100100001
1111100110101110
1111111010111000
1111111010010011
1111111111110100
1111111111100010
1111111111111011
0000000111011111
0000000000111010
0000001100110011
1111111000100111
1111111101010000
1111110001101101
0000000101111111
1111110010011100
1111110111011110
1111111011010101
0000001100110100
1111111001000001
1111001111111011
1111110010110110
1111111001111010
1111101110100010
1111101011110011
0000001011011101
0000000111000100
1111111111001110
0000000010001010
1111101001011111
1111101010111110
1111111011110011
1111111111011001
1111111101010110
1111111011111111
0000000000011100
1111111011110001
0000000011101110
0000001110001100
0000000110001010
1111111100100001
0000001000100111
1111111100001111
1111111011011101
1111111110001001
1111111100110001
0000000110010010
1111110001111110
1111101110110101
1111110010011001
1111111000010011
1111111110101100
1111111101010110
1111111111110111
0000000000000000
0000000010001001
0000000110001001
1111111001100111
1111110101110000
0000001000001010
0000000001001000
0000000001111100
0000000001100100
1111111111010010
1111111011110111
0000000011001100
0000001101010001
0000010011100000
0000001101000010
0000010101111111
0000001011010100
1111111101110000
0000001000100101
1111111100110000
0000000100010001
1111110101101100
1111101111000000
0000000001110110
1111110110001110
0000000010110100
0000001001001000
0000010100110010
0000001001011101
1111110111111101
0000000110111101
0000001001100100
0000000111001010
0000000111011011
0000000010111111
0000000000000101
1111111100100101
1111111010100100
1111111111111011
0000000001010010
0000001110111100
0000011000010111
0000001110101000
0000001101011001
0000010010100001
0000000100111010
0000010000101111
1111111011000110
0000000001101111
1111100001110110
1111100101111111
1111110111001101
0000000001110011
0000001010100100
0000001010000100
0000000111110110
1111111010101001
1111111101101100
0000000011010101
0000001000011101
0000000100100101
0000000111010110
0000000001100111
0000000011101010
1111111101010100
1111111010000000
1111111110111001
0000000001001011
0000001010111010
0000010010010000
0000000000010001
0000000010010010
0000010001010000
0000000100000000
0000001001111101
0000000111100000
0000001101111011
1111110111000000
1111111001101101
1111110111110010
0000000001101000
0000010010001010
0000000101111000
0000000010001110
0000000110111111
0000010000010110
0000000101011101
1111111111100101
1111111101111100
1111111110110111
0000000011100011
0000000100110100
0000000010100110
0000000001110100
1111111111111101
1111110111000001
0000000101000000
0000001101010000
0000000011101010
0000000001000001
0000000100111000
0000000111111001
0000001011001101
0000010101110001
0000000010101000
1111101110011101
0000000011101000
0000000100010111
0000001100100011
0000000001000101
1111111111110011
1111111101010100
1111111101001100
1111110100001011
1111111010001010
1111110011011101
1111111000110110
0000000011111011
0000000100011010
1111111111001111
0000000000111101
0000000010101011
0000000000010010
1111101111000000
0000000000010000
0000000100010010
1111111111001111
1111111110110000
1111110100100000
1111111000111101
1111111101010111
1111111110110110
1111110100101110
1111110001111010
1111101101111000
1111111001011110
1111110101001101
1111110100001001
0000000001010000
0000000110101100
0000000000101010
1111111011110111
1111110100101000
1111110000000101
1111111001011100
0000000010111011
1111111110000101
0000000001000110
0000000011000111
1111111111000100
0000000000000101
1111110110110011
1111110111001010
1111111010001011
1111111111000110
1111110101101011
1111111011110001
1111101110010001
1111110011110101
1111100111010111
1111111100111100
1111110100011110
1111111110110101
1111111111011111
1111111011100011
1111110010011000
0000000011111011
0000000011101000
0000000100101110
1111111101100101
1111110001000010
1111110011001001
0000000011110010
0000000111001000
0000000011001011
1111111111111010
0000000000010011
0000000000001101
0000000000000100
1111111000011110
1111111110000111
1111111111110011
1111111010010100
1111110010010101
1111111011010100
1111111010001011
1111111000011010
0000000111001111
1111111110011010
1111110111101100
1111101100101101
1111111011000010
1111111111101100
1111111010010010
1111111010000001
1111111100110110
1111111011011010
0000000010001001
1111110111010110
1111111111010111
0000000100001011
1111111111011100
0000000100010111
0000000000010100
1111111100000101
0000000001110100
0000000000100010
1111111010101000
0000000100001000
1111111111001100
1111111101010110
1111101111101010
1111110100110010
1111111010001101
1111111001101100
1111110110111100
1111110110110110
1111110000100101
1111110010011011
0000000000111111
0000000101110010
1111111011111011
1111111011010101
0000001011100100
0000000011100101
0000000001001111
0000000001101101
0000001001111111
0000000101011000
0000000010011110
0000000001011011
0000000000011101
1111111110100101
1111111110101100
1111111111101011
1111111100111110
0000000110111000
0000000000111101
1111111100010101
0000000110101001
0000001101011111
0000000000111100
0000000001101001
0000000100100110
0000000001011000
1111111001011100
1111111010100001
1111111110001001
1111110110000011
1111111111001100
0000001001011010
0000000101101111
1111111011100000
0000000000100001
0000001000101101
0000001001000010
0000000111110111
0000000010101111
1111111101111100
0000000001110100
1111111101110101
1111111110100100
1111111111111011
1111111110101001
1111111111010001
1111111011000010
1111111101000101
0000000011011010
0000001011000011
0000010000111010
0000001011000011
0000001010111000
0000000000010110
1111111100101101
0000000110101111
1111110011010101
1111111101000011
0000001100010101
1111111111011110
1111111000000100
1111110111000100
1111111111111110
0000000110011011
0000000101000111
1111111110111001
0000000001001111
0000000001101001
1111111111101101
1111111110101001
1111111111111000
1111111100111101
1111111110000011
0000000000001001
1111111100110111
1111111011010101
1111110011101001
1111110100100000
1111111000010001
0000000101011110
0000001010110101
0000001110100011
0000010110010010
0000001101001001
1111111011100001
1111110111011110
1111111001000011
1111111011010111
1111110100001011
1111111001100100
0000000010001100
0000000000000100
1111111111111100
0000000000001100
1111111101111111
1111111101110001
1111111111000000
0000000001101011
1111111010100011
0000000000111011
0000000000111100
0000000001000110
0000000001110110
1111111110001101
0000000010010000
0000000000010000
0000000101011100
1111111001010000
1111111101100001
0000000000000000
0000000010001000
0000000010001000
0000000010111111
1111111101011000
1111111011100010
0000000001111001
1111111111111001
1111111101011001
0000000010100011
0000000001010110
0000000011001011
1111111110110110
0000000000001010
1111111111011111
0000000001110100
1111111101101011
1111111100101101
1111111110111010
0000000001010000
1111111111101110
1111111111110011
0000000101000110
1111111101001101
1111111100011100
1111111011001100
1111111100011011
1111111110110110
0000000000111100
1111111110010001
0000000010110011
0000000110010000
1111111110011110
0000000000110001
0000000001000000
0000000010111100
1111111111100001
1111111101011110
1111111101000100
1111111101001001
1111111111011111
0000000000110010
0000000001111010
0000000000110110
1111111110101100
1111111111101011
0000000001000011
0000000001010001
0000000001001001
0000000001101101
0000000010101110
0000000010011010
1111111111101001
1111111110110111
1111111111000010
0000000001011000
0000000010011110
1111111100010111
0000000000111110
0000000000100011
1111111111010011
1111111101010100
0000000101011111
0000000001010011
0000000100101111
0000000100100001
1111111110001111
0000000001001001
0000000010001100
1111111101100001
0000000010000001
1111111110111110
