1111111110001110
111
1111111110100001
1111111110111010
11000100
10011100
101111001
1111111110100010
101011
1111111011100101
1101100
1111111110011101
10101101
1001
1111111101110111
100011
1111111110100011
111000
1111111100011010
1111111110111110
101100100
1111111111111011
110101
1000101
1110010
10010110
1111111111000111
1111111110100011
1111111111001010
1111111111100100
10001
1010101
1111111100111000
11110000
1111111111100001
110101
1111111111101001
100111
111
1111111100001100
1111111111011100
1111111111111101
1111011
110100111
11110010
1111111111001001
1111111111011000
10100110
1011110
11011
1111111101100011
1001111
1111111111100100
1111111110110011
1111111111100011
11000110
1111111111011110
1
1111111100111101
100010000
1111111111011101
1111111110000100
10111000
110010
1111000
11010011
1111111100110011
110010001
100001001
111010110
1111111110000010
10100011
1111111110111110
100111010
100101011
1001001010
11011100
11011100
11010010
10101
1111111111011001
10100010
11100
101001
1111111110001100
1001111
1111111110100111
1111111110000000
1110010
1111111010001010
1111111100010101
1111111101010010
1111111110010111
1001001
1111110111000101
1111101111000000
1111110010110011
1111110010011010
1111110111011100
1111110110010101
1111111011101011
1111111001110000
1111111110000110
1001101001
1100101010
1011110000
1101111000
100010011
11001101
1111111110101101
1111111110100000
1111111110001010
1111111101010101
1101011
111
1111111101101111
1111111100001101
1111111011001010
1111111000100001
1111111100100101
1111101010101011
1111100011100110
1111100001100001
1111110011100100
1111101111010100
1111101000111101
1111100101010101
1111101110101100
100100
1001111010
1111111011101011
1111111001111110
111010
11101001100
100111101110
101010110010
10001100110
1111111111101010
1001111
1111111011001111
101010
1111111111001001
1111111110011001
1110010
1111110000100100
1111100110011000
1111101010110000
1111110000010101
1111111110001100
1111110011100101
101100010
1111110111000100
1111101000010000
1111111000101001
1111101111110001
1111110000010100
1111111101001111
1011000111
1010101
1111101101101110
101100
1010000011
100001000000
110010101011
10011011010
1000
110111
1111110
10
1011001
1111111110001011
1111110010001100
1111110001100000
1111101001011101
1111101100100001
100110100
10011100
1111110101010110
1111111000101000
1111110100100010
1001000010
1111110010001000
1111110001010011
1111110111111010
1111101110000101
1111110110111011
1111110110011000
1101101000
1111111001111001
1111111001010010
10100101100
10001001000
1101001111
1111111011101010
1111111011010000
1010001
1101100
10001110
1111111101100100
1111101101110101
1111011011111001
1111011111101100
1111111011010111
101001011
1111111110010010
11010111
101111000
10000110111
110001000
100110001
110100111
1111110111000101
111110001
101000111
1111111000011111
1111111100000000
111101000
111011000
11011110111
11110100100
11010111001
100011111
1111111001001100
1111111101111001
11001110
101101
10101101
1111101111110001
1111001111111000
1111011001100001
1111110100011110
1111110001111010
1111111010000010
1111101001110001
1111101111110000
10111011
1111101011101010
1111110101010101
1111110100001001
1111110111101010
1111111101000001
1011010
1111101110101110
1111110010001001
110110000
1111100000000100
101001001
111100010010
100111010100
1000111100
1111111101110001
10011101
1111111110001000
101011
1111111100011110
1111101011011001
1111001100111110
1111010110011110
1111100101111000
1111100110111110
1111111100000110
11001001
11001001111
11001010010
11011111100
1111111111000010
1111100101011110
1111101110001111
1111111010111101
1111110011011011
1111111101000000
101101110
1111111001000001
1111101111001011
1100100000
110111010101
111101011100
10001100110
10011001
1111111111000111
1111101
10100
10000
1111101101001100
1111100101010011
1111111001011110
1111110011101101
1111111110000100
11000011101
101111111001
100111100010
100011100100
111001001001
11101100
1111100100100101
1111111101000111
1111110110010011
1111100110111111
1010
1111101111110111
1111110011011101
1111100101110001
1101101001
111010111011
111101111001
11000001101
1011111
1111111101100011
11111010
11110111
11100101
1111111010000000
1111111011111011
10101010101
10111100110
10111100010
100101000110
1010110101
10000100
1100000111
10001100100
1111110010110001
1111010110111001
1111110000111101
1100000100
1111110010000011
1111110011001100
1111100101101100
1111011110001001
1111110111010001
1111111111001111
10000110000
1110011011
11110000
10101110
10111000
1111111111010110
1111111100101100
1101101
110101100
1101000001
10101001111
110011110011
10110111001
10001110011
101011011
1010110001
11000001100
1100001101
111110
1110111111001010
1111101110111000
1111110111001010
1111100111010011
1111101000110100
1111110100011111
10000010110
10100110011
100100001001
10011000
1111110011100011
1111111001111001
100011
1111111111011000
1111111111010110
100010101
1111111111011110
1111111111110010
10100101101
101000101001
101100101101
10111001111
1110010001
10010010
10101010000
101001100100
1001010011
1111111110000111
1111010010110011
1111100010001000
1111101010101111
100001000
0
1011110001
11101110
100000000100
100111001011
1110110101
1000111
1111111001011010
1111111101011100
1111111111111110
1111111110111000
1111111110110100
1111111110100110
111010100
10000101011
11101000111
100111010111
11101001100
1110100110
1100101010
101011101101
110000010
100110111
1111110110011010
1111010110000000
1111110111111000
1010000011
11111011
1111111111110011
101100111
1110001101
11111000
11010101110
10101111100
101110010
1111111010001000
1111111010101001
1111111111101101
10001110
1111110
1010001
10111110
111000001
1001001101
111000101
10000110111
10101110000
1111111110101010
100100000100
1111111100000100
1111111111000001
1111001111001111
1111000010101110
1111110000100111
10011010001
100001001110
11000111001
11000110
1100000111
110000001
101110001
1110110110
1111111100000010
1111110111000011
1111111110101011
1111111110000001
1111111111110011
1111111010110001
1111111110011101
1111111010010100
1111111010110000
1000011111
111100110
1111111100111011
11101111
1111101111011101
1111011001
11000001
1111111101011100
1111100000110101
1111011001111100
10100111100
1011011010
1001000110
1000110
11101111
1011101011
1111110101000000
1111111100110010
1111111010000010
1111110100000010
1111110011000100
1111111001010100
1111111101100011
1011010
11111
1111110111010000
1111101010110110
1111110100110011
11001010101
11000110001
1110111
1111111000001100
1111111110010111
10011110011
1100000101
1111110001000010
1111011111011100
1111100100110110
11000111000
1100011110
1111111010011100
10001000
1111100101011000
10001101100
1111111101011101
1111101010101011
1111101101001110
1111111100101010
1111111011101001
1111111101100010
1000
100000
100011010
1111111110110001
1111101001100111
1111110000011011
1011000110
1111100011
1011101110
1111110010000111
1111110100110011
10110101011
1001101
1111110110110100
1111100011111011
1111111010110000
1010000101
101111010
1111111011010010
1111110000101000
1111111101001110
1000010011
1111111100110011
1111101000011011
1111101001111111
11110100
1111111011100101
1111111100111111
1111111010111011
1111111111101101
1010
11111001
1111101111111111
1111111001101011
1111110101100111
1000110010
10000010011
1111110011
1111110110010011
1111101100100010
110011100
1111111110011111
1111111111000010
1100010101
10111110
1111101110110000
1111110011111001
111011001
1110101100
1111111000001110
1101100
1111110101110110
1111101111101101
1000101100
1111110111000011
1111111000111000
1111111111000010
1111111101001110
1111111111010000
100000111
1111110110100101
1111111001111011
101111010
1111111000000110
1111110100101000
111000110
1111110110100000
1111101100101100
1001110010
1001111
10111001101
1111111100000111
1111111111110000
1000011001
111110010
1111111001010000
1111110001001110
1111101101111110
1001001101
111100110
1111110110010110
11000001
1111111100111001
111001
1111111111100011
1111111100111011
1111111110001111
1111111111010100
1111110110000000
101010110
1111111111011011
1111111011111101
1111111100100101
1011011100
111011000
11110010
10011001110
1111001110
1000101101
1111111101010100
1111010010
1111111111011000
1101
1111111100110101
1111110110100110
10000001010
10110110110
10001011
1101000001
101111101
1111111001011111
1111111111001101
1111111111010100
1011011
1111111101111111
1111111111001001
1111110101001010
1111111010011100
1111110110100001
1111110100010011
1111110000000011
1001001001
1111111110001101
1111101101101011
1111111101100110
1011000011
1111111111101000
1111110110010010
1111101101110110
1111111001101111
1111111101001011
111001111
1111111010110101
1000100101
1010
1110010
1100101011
1111111110001110
1111111011111001
10001110
1111111110000110
1111111101111011
1111111011111100
1111111110001001
1111111101001110
1111111001101101
1111111111000001
1111111100000000
1111110001000101
110010110
1111101011010000
1111111110100001
1111111100100000
1111110110001001
1111111000000101
1100111110
10000111
1111011
1111111001101111
1111011111101010
1111110100101011
10000110001
1100111111
110001010
1111111101010010
1111111001111001
1000010
1111111110100011
1101000
1011111
1111111110010110
1111111101110100
1111111110010010
1111111010110111
1111110100001011
1111110001010001
1111100011010001
1111111001100100
10001001011
100111000
1111110011001000
1111110110001010
1111110110101111
1111101101011110
1111111100111011
1111111010110010
1111111101100001
10111010
10101111
1110000000
1100110110
101100011
1111111111010110
1111110110100011
1111111000011101
1111111101011000
101101
11010101
1111111110111100
1111111111010100
1100
1110111
11101000
1111111001100000
1111111010000000
1111111001011111
1110000011
10001100
101001110
1100101001
1100110111
10000111001
1111000111
10001110011
10011100011
1101100100
1101111101
10001011010
10010010100
1010111110
10011011
101000
1111111110010000
0
1111111101010001
10110100
1111111110001100
1111111111111100
1111111111001000
101110
1111111100101011
100000011
1111111110001111
100011000
1001101010
1001001001
101011100
1011100010
1011111000
1111111001
1111011101
1101000100
1000110100
10111101
1110101
1000111110
111110110
11100111
10010011
1111111111101001
1000110
1111111111100010
1111111111010110
111001
1100000
1111111111000010
100100
1011001
1111111100011101
11011001
10001011
1
11011001
1100
1111111111110111
11101110
1110010
1111111111000010
1111111111011110
111010000
1111111111111110
1011101
1111111111110111
11101
11100110
100111000
111111
1111110
1111111111001000
1111111111100110
1111111101011101
