1111111101100110
1111111111100100
1111111110001111
1111111111011011
10010000
1111111111111001
0
1111111
100010
1101100
1111111111101010
10011011
100010100
101001101
100100010
1111111110101100
10111100
1111111111111010
101001
1100001
1101001
1111111110110000
1111101
101001
1111111111111010
1111111001000101
1111111110011000
100101
1111111110010110
1101100
1111111110011001
1011
1111111101110000
10
10101110
10100110
111111000
1001000100
1011010010
10011111001
10001011001
10101000000
1101000101
101111010
1000010001
1001110000
1100111011
1110001010
1001001110
10001110000
1000110010
1110111
1111111111010000
101011011
1111111101110100
1111111110101001
10110100
1111111110110000
1111111111101100
1111111111100010
1111111101101110
1111111110000110
10100100
100110001
1010101111
10011110010
110111001110
11101111010
110000000001
110101000101
101010001111
101000111100
101110110010
11101101101
11010111100
100110100000
1111101000
10100011100
10111100000
1001100110
1111111100101010
1101
11100
111111
100010000
1101000
100001
11001100
1111111010111100
10001011
1010010001
1000111111
1010010111
100010101001
1001001101010
1000101100011
1000010110000
111111000111
110001110010
10100110110
11011000101
101100110011
111011000110
111100000011
111110011000
110000110100
1100101101
1111111110011001
1111111000100000
1111110100111110
1010100
1111111111100011
1111111010011011
10001111
1111111101101111
100001000
10111111
1111111110111001
100010
11010111
1111111110110000
1111111011010101
10110011011
10011111000
1101100
1111011010100000
1111100000110110
110000110110
1111111101001100
101111110011
1111101001
1101001010
101011100001
10010101101
1111111110011100
1111011011111000
1111100001110010
1111101011101011
1111111000011000
11111111
1111111111111011
1000001
1111111101011001
10010100
110011111
1111111010001000
101001000
1111101101011111
1111111000100111
1111111101011100
10100000000
1110110111011010
1111000110010100
1111100111001011
111001011
11011
1111000110001011
110001001
11110101
110010000111
10101110011
1111011001111010
1111001000010100
1111011111100011
1111100100100101
1111011111110010
11111
11000000
10010011
1111111111101000
1111111101000000
11100000
111111011
1111110110011101
1111111111010001
1111111101101101
1111111101011001
1111100110110010
1111100010001111
1111110001011100
10011110010
1111110010010010
1111011011001100
1111010001010001
1111010100111011
111001110
10010000110
1111001111100100
1111011101111010
1111111110111001
1111010101101110
1110110111101001
1110101110011100
1111010110100010
1111101110100011
1000101
100001
1111111110110101
1101
1000100
111000000
1000011110
1111101000000010
1111100010100000
1110110100000010
1111001110010011
1111011100101000
1111110101111111
1111101110110110
1111010101001111
1111111010100110
1111110010111001
1111101010110111
100101100001
1111110011011011
1110010111001011
1110111111011101
1111011001000101
1110101110011100
1110101000110110
1110111010101000
1111010011011100
1111101101011010
1111111100100100
10110
1111111100100100
1111111101010011
1111111010110100
110010001
1111111001011101
1111001111110111
1111001110100010
1111010000001010
1111000011011010
1111011010001010
1110111010001000
1111111001110101
1111100011010100
1111100101010000
10010001011
10110011111
101001101111
1111000001001111
1110010011111000
1111100010111000
1111011101110010
1110101111111101
1110100100001010
1110100001100110
1111000110110001
1111101101101101
1111111011111000
100110100
1111111110101100
1111111111110110
1111111110101110
1111110100101110
1111100111000101
1111100111000011
1110111110
1111101111101010
1110011111000010
1111000100101101
1110011110111010
1110111110000001
100011111
111100010011
1011010101
1111000111100100
1111011001100000
1111111001011010
1111011001111100
1111101111010000
1111000110011111
1111000101101010
1111011001111100
1110100010000011
1110100101111011
1111101001011101
1111111101110111
1101101
1111111110110101
1001110
10010001
1111100101001000
1111100011101100
1111011001111011
1111110011001101
1111001111001001
1111001011001011
1111011001000000
1111111010000011
1111111111110101
1100101010101
100110000110
1111001000000111
1111000011011100
1110101110001101
1111110010010111
1111001110111101
1111100010110110
1111001101001011
1111110111000110
1111110110011101
1110110110111000
1110101101110001
1111011001111110
1111111100101101
1111111111110011
1111111110110010
100101011
100001011
1111110010100010
1111001100000010
1000010101
100100100110
100111011
1001110000001
1010100010010
1100011000111
1000111110011
1110110001100
1111101011100111
1110111000111100
1111101110011000
1111011000110011
101101111
1111111101100001
101000000100
111000001000
110010011
101011101
1111001111110111
1110100010011010
1111011101110010
1111111100011111
1110111
11
100101001
1000010
110110
11001000010
1011101111111
1110010000100
1001001000101
1110011011011
111101000111
1100001110101
101100101110
1001100111
1110101010111011
1111010011011101
1111111001011101
1111110010100111
1111111001001000
1001000
1111111110000101
1110111100
101101100100
111001101100
110111011
1110110010010010
1111011101001011
1111111010001111
1000011
101010101
11010001
1000110001
1111000001
1001101000010
1110011100001
1100010011010
100000111100
1110000100
11011011000
1111111011010001
1110111110100000
1110100111010011
1110110111010010
1111111100010001
1111011011111000
1111011001010001
1111101010001110
1111111101101101
1111000010100000
101011111001
1010111110111
1111011100110
111000010011
1111100000011100
1111100011000000
1111101111011001
10001110
1111111111001111
100000010
101000
1111110100001110
100001000000
101000001001
1011010000
1001011010
1
1111111101101001
1010110010
1111001011001110
1110001111010011
1111011011101110
1111011010010011
1110111000010000
1111001010000011
1111100010111111
10001011101
100110111010
1000000100110
1010010001010
1100000110010
10010011000
1111100001010100
1111101000011000
1000101
1111111110001101
1111111111111111
1111111111110011
1111110001110000
1111100110001010
1111111000111111
1110000111
1011101011110
1110110100
1111110001100011
100001101010
10011110000
1111010101010100
1110000000010001
1111000101110011
1110111101110110
1110111100110101
1111111110010011
10101001010
10111110111
1011010000101
110111010110
11010000100
101001001000
1111110111010000
1111101011110010
1111100001010001
1111111110011111
1111111011110001
101010
1101100
1111111011010000
1111110100111100
1100010
100001001100
111000101101
110001111100
10001111010
10111111101
1001111010111
1111010101111110
1110101111011111
1111011011000011
1111000101111110
1110111001000010
1111011010010110
1111111010001001
10101000011
1111110000
1111101000001010
1111100
1111110101100011
1001100101
1111100000010101
1111100100100110
1111111110110101
1100111
10001111
1010101
1111111001110010
1111100001101111
11000100
11000000101
100101110010
11001101000
1010111010
1000011110
110101010110
1111011001010100
1111001001101001
1111010100000001
1110100110110111
1111000001101101
1111101010010111
1111110110011011
10101010111
10000001100
10001001
101110001111
11010001000
1111110111100010
1111101000001011
1111110100001110
100010
1111111111100101
101
110000111
1111101000100000
1111000100010111
1111110101010110
1111010011000000
1111011100001111
111000101101
1011010011
110100001101
1000010101101
110010110011
1111010111000011
1110101010101010
1111110110011100
100010101101
110101101101
110101010100
100100111
1101100
1000100111101
1111110100010100
1111101000111101
1111011010100011
1111011110011011
1111111010010100
11100000
1111111011010100
1010000
1111100
1111111000111101
1111001111011111
10100001100
1111100010111011
1111010001111010
11010001010
100001011011
110001010000
1110000100100
10001000011011
1001000001101
1100010100
11001001111
101011111101
100011000111
11001110110
101101010001
100011101111
1110100111
1111001110000000
1111110101110110
1111010100101001
1111100011001110
1111111000111010
1111111111110000
1111101
1111111101101001
1111111110001111
1111101010000110
1111010000000010
1111111001110110
1111011011110001
1111000110011010
1111111001100000
1111111100
1001100101
1111100010110110
1000000001101
1010110011010
1010000111001
1001101000000
1111111000111010
1001010111
1111100101100011
1111100010111111
11001001111
1111110110100000
1111011010000010
1111110000011110
1111100000010101
1111110001001010
1110101
1111111011110001
1010101
101010001
1111111010010001
1111101110110111
1111010001110110
1111011111101000
1111000110011111
1111001001101000
1111101001011111
1111101001010010
101011001
1111101110101101
111101110111
1010100011010
1001001000000
1011001101111
101001011
1111101111010000
10000000000
1111110100110000
1111100101
1111110001100010
1111110000010110
1111101000110010
1111110001110110
1111111101001010
1110000
1110111
11110001
1111111111011011
11000001
1111111011110101
1111100001101111
1111100110100110
1111100111111101
1111001101000101
1111100010101100
1111110110101010
1111110010000111
1111110101100010
1011011000
1000111100101
11100001100
111000111101
1111101110
1011100010
1111100110110100
1111101010100101
1111111101011000
1111110100100010
1111100101101111
1111100010100011
1111110000110100
100101000
1111111110111000
1001001
111001
10000
1111111110100000
1111111110101010
1111101110010011
1111101001101111
1111100100110100
1111100110000111
10001110
10000101101
11010101100
1000000111001
11111101110
10111101011
11001010
10101110111
1100111101
1111111111000100
1111110101110111
1111101011001100
1111100101000011
1111100111010001
1111011111010001
1111101111110101
1111111110010000
1111111101111010
11001001
1111111111011001
1111111110111111
1111111100101101
1111111111110100
11100100
1111111111101010
1111110001111001
1111101001110110
1111100100101110
1111100100011011
1111101111101001
1111100100101111
1111011101111010
1111111101110010
101000100
1010011101
11010111101
10100110110
10100010000
1111111101000100
1111101100011000
1111100101011101
1111101011101011
1111111101101000
1111111010001111
1111111110010011
1111111110100101
10000
1111111111110010
1111111100001100
1111111101011001
11001110
10010110
1000110
1111111100000110
1111111111000011
1111111100100110
1111101110110101
1111011011011111
1111001111011101
1111001110000101
1111011011100010
1111011110100011
1111010110101111
1111010010111000
1111011001110010
1111101001000101
1111101011111100
1111110101100010
1111111001010000
1111111101000001
1010000
1111111110101101
1111111111100101
100010
101111
1111111101011100
1111111011110111
10101111
1011010
1111111101010001
1111111101011111
1111111111111111
1111111011010000
1011101
1111111001110100
1111101011011011
1111101100000111
1111101101111101
1111111000111000
1111110101101000
1111101011001111
1111111001111010
1111010
1010001
1000110
11010010
11011
1111111011110111
1111111110100101
100000101
1111111101010000
1001001
1011100
1111111101101100
1111111110110010
1111111111010111
10110
1111111100101100
10010
1111111110010111
1111111110111011
10
10010011
1111111111100110
1111111011110101
1111111111100101
1011100
10100100
1110000
10100
1111111111011100
101010000
10011
1111111110111000
1111111101110001
1
1111111111001000
1110101
1111111100110011
1111111010101010
1111111110101011
1111111111110101
