1111111111111101
1111111110001100
100001000
1101
1000110
1111111111100101
1111111100111000
1111111110010111
1111111101100011
10111
1111111110100101
1111111101110100
11100111
11001100
111000
111110
11000110
1010011
1011
110001
1111111111001010
0
1111111101110010
110
11001010
1111111111010010
11010
11111011
110
1111111111101111
11101
111001
10111101
1111111111000010
1111111111101000
110
1000110
101011
1111111101001101
1111111101010111
1111111110000111
1111111101000001
1111111111011101
1111111101000000
100010
100110
1111111
1011110
10001110
1111111001011011
1111111100100011
10100001
1111111101110001
1111111100010111
1100011
1000001
1111111111001100
1111111111001101
1111111110010110
111110
1111000
1111111111111000
11010011
100100
10011100
11100101
10101010
1101101101
1000100010
11011001
100010101
1111101101110101
1111110110001010
1111110110001111
1111111011110100
100011001
101001
10001010
1111111101010001
1111111100011110
1111111101111011
1111111101010101
10101011
1111111110011110
1011111
1111111110011000
1111111101000111
100110100
1111111101100110
1111111100101110
1000111
1111111111111111
101101110
1101001010
1001101010
110101110
11111110
1001111100
101010100
1111101001010100
1111111100101000
1111110011101101
1111110101110111
1011110010
1111111101100110
1111110010100110
111101111
101001101
1001000101
1101001
111100101
10111100
1111111101011000
1111111110001011
1111111111101011
1111111100011010
100011
1111111111101111
1000101100
1100101011
11110011010
111010000111
111010011100
101111010
11001001010
1001010111
1111101001101001
1111100001000000
1111100010001010
1111111111000000
1111110011000000
1100100
1111111010111000
1111101010101100
1111101110001001
1111111111
1111011111
1100101010
1111111010101011
1111111100011110
1111111110010001
10100110
1111111111001000
1111111100111000
1111111111100000
110111011
1001110110
10011111000
110010111001
111100101101
11010101000
1111011101010111
1111100111111101
1111100011000110
11010100111
100111111001
11101101
1111111100110111
1010
1111111000001100
100011111011
1111110100111110
1111011010001010
11011000001
1111110101010011
1111110011011000
1111111010101010
11010101
1111111111111001
1111111010000001
11100101
1111111011011111
1111111101111011
1111101101
1111110111010010
1111101110001100
1111100110110010
1111010100111001
1110110101011111
1111001101001100
1111010101011000
1111000111111101
1111100011011011
1111100001101001
1111011010001110
1111001110111101
1111010111000011
1110101100010110
1111000101010111
1111010101010010
1111100001010100
1010001100
1111101001111101
1111110001110101
10110
1111111100000110
1111111110111001
100
10010000
1111110010110000
1111101011101011
1111110000000001
1111111011100000
1111101100110110
1111101010000101
1110100010011100
1110001101110111
1111101000010101
1111000111010110
1111010101000010
1111010111101001
1110100111010100
1110111110000101
1111001011100010
1110000011111110
1110111010000000
1110111010111001
1111100111001110
1111110000000101
1111101010110100
1111111100000010
100011100
1011100001
1111111010111100
111100
1111111111001111
1111111110100100
1111110010011001
1111010010111001
1111100010011001
1111110100100101
1111011110001110
1110101110011101
1110101011111100
1111010010101100
1111001111100000
1110110000001101
11011010
1111100101111001
1111011000100000
1111000001111111
1111101110110001
1111000001011111
1111010111000110
1111010010001101
1111001000110111
1111010011010101
1111101101010010
1111101111100101
110110101
1111111001000010
1111111001101000
1111111011001101
111100
1111110101101111
1111101111111100
1111101011001100
1111011111110110
1111000111011011
1111110001000110
1111001000101110
1111111010011000
1110101111
1110110000111011
1111110111101000
1111011101001000
1111101000000101
1111011100010101
1110110010110010
1111011011110011
1111010101111111
1111001011010011
1111101101111011
1111110011101111
1000101000
1111100101101001
1111100110100110
100101011
1111111001000011
111111011
101111
1111111111011100
1111111000111101
1111111110000110
1111101100101110
1111010000011000
1111011010101010
101010
1111100100000110
1111101110101111
1111101001010101
1111000110011011
1110101011011000
1110100001010011
1111000111011011
1111010110011100
1111101011110011
10111101
1111111111101101
1111101110010000
1111110001000010
1111011100110001
1111111100000111
1111111011111101
10011011000
110100111
1111110110010010
1111111011100100
1111111110001010
100011110
1111111110100101
11001101
1111110111000101
1111100001100011
1111001111100110
1111010001001111
1111100100011010
1111110101101111
1111010011010010
1111100100010100
1111101101110101
1111001011000100
1111001001100111
1110111100100000
1111100011100000
1111011000010011
1111010111010001
1010110111
1011001100
11100
1111100000111111
1111010111100000
1111101001110011
1111100110101100
1111100101010101
1111111001111100
100011
1111100
1111111
1111110010111110
1111100000000101
1111010111010010
1110110010110100
1111010110101100
1101111010
10111111100
1111010010100000
11100101010
10110111
1111010011001101
1110101101001100
1111001010101110
1111011011101111
1111000111011100
1110110011001101
1111001000000111
1111011100100001
1111001010101100
1110100110100111
1110101011001100
1111100111010101
1111111110001000
1111110111100001
1111111101101101
101110
110001
1111111101111010
1111110111101011
1111010101010100
1111000111010000
1111010001010000
1111101111101010
1111111111
1111101000101111
1111111000101110
1101000001
1111111111111110
1110001000
1111001100111110
1111110100111001
1111101110010000
10010110101
1111110100101000
1111010011100010
1111000011000101
1111110111010001
1111111101110101
11101000101
101010100
10010011111
1000000010
1111111101100111
11
101011
1111111101101111
1010010001
1111111001000110
1111100010011111
1111101001010101
11111001000
111111011011
111011001010
100101001100
101110010010
1000111111111
110010000010
1111110011101011
1111100111001001
100001111011
110010101110
10110010011
1111101100101100
110011101
1001110101
101100001110
111000100
1101000
1110101010
111010011
101010110
1111111101100111
1111111110011010
10001110
101011010
100100000
10010101111
1100111010
111000011010
1111100111
1001000011100
1001100001110
1001011111000
1000110110000
10000110011
101000110
111000011000
110111110011
1010001101101
1111110110101011
1111011111000001
1111100100010000
1111100100100001
1000111010
1111101001011000
10110001100
11011111100
11111110
10100000
0
110000001
1111110100010001
1111100001110111
1111101100100101
111111110
11101101000
101111111000
10001011
1000111000000
10111010101
10111101000
101010001010
101101101101
11010000
110010000110
1000011110011
1011011101011
10001101001
11001110001
100000011100
110110100000
101110111000
100001100001
110100010011
11001111011
110111010
11101
1111111111110001
10110101
1111110010001111
1111100010100111
1111101110111011
10110101111
111101000000
110011100101
110111000110
111011100011
101100010110
1001000010000
100101001111
100110110101
1100111111
101001010101
101001101110
110001011101
1000011100101
100001101110
101111000011
10111100001
100011100101
10010010000
10111110100
1101011001
10010000
11010010
1111101
1111111110010101
1111110011111110
1111110010001011
11010111101
111010111100
110011010111
1000000000010
101110110100
1011011101
11100110010
11110101101
110010101010
11000111101
1010001001001
101000100011
1111110101110
111110100011
1001010110100
110111010000
1101000001
101010010101
10001100000
100100011010
111110100010
10110110001
100001011
1111111110110011
1111111111010101
100101
1111110111010101
1111111001101111
101010010001
100011110100
10010001000
100000110100
10000101
11010101110
1111000101
100100011111
10010101110
100110111
1000010101010
1011110100110
101110000001
11100010010
111001111010
1000010101110
11001010010
101100000000
11101000101
11111110111
110000011011
1111110011
11110001
1111111110001010
1111111111011110
111000
1111111110110001
10011100
110101101111
1010101101
1111101110001111
11001100111
1111110100110101
11110111
1111111111111001
10000011110
1111110001000100
1111010100110100
10110001110
1111000111
1111110000011101
1111101000101101
11111001100
1100001100111
11000001100
101000110000
1000101100011
111001110011
100010001111
10001110001
10100110
1111111101000101
1111111110011110
1110100
1011111
1100001101
11111001110
11011010100
1111011111111111
1111110000010011
1111011010110010
1111001101101011
1110111100111011
1111101100011101
1100000100
1111110111000001
1111011110001101
1110110011011011
1111101100001111
1000101100
110101110111
111101011010
1111110000011101
1100111
10010110010
101000111101
10111000100
1011111000
110011000
1111111111101110
1111111111110001
1110010
101001100
1000010111
100011111110
1101111110
1111100111010000
1111011001011001
1111100000001101
1111101011110000
1111100110000101
1110111111
1100011100
1111001000110111
1110110010001100
1110110110100001
1110110111010010
1111001001101110
1111101010011110
1111100010001010
1111011100110011
1111100000000001
1111111010010101
1111111101100011
110000010
110100010
1111111101110110
1111111011110011
1111111101111101
1101011
10011011
1000000101
10001000100
1110101010
1111110011001011
1111100001110000
1111011001000111
10100
1111111100100001
10011101010
1111000011000011
1110101011001010
1111100100000100
1110101110010001
1110001011110000
1110010111011010
1111001110011000
1111001111011010
1111011011011101
1111110101010100
1111111110111101
1111110100001010
100100111
10010000
1110111
110100
1111111111011110
111011
1100011
1111111110101100
1111111110100110
1111110111000100
1111110101100010
1111110010111000
1111101011100001
1110111101100010
1110111110010101
1111010101101001
1111010111101001
1111111001001110
1111110100001111
1111101011010000
1111110100001110
1111011011001000
1111100000000011
1111100111100000
1111110001101100
1111110111100110
1111111110100101
1111111110101110
1111111100100101
1000001
100
100000010
1111111100111001
1111111111101001
1111111110011101
1111111100110100
1111111110110111
1111111100001010
11011100
1111111011001110
1111100001011110
1111000111100010
1111101010111011
1111101000010100
1111010110010111
1111100010001001
1111100111001111
1111011011001011
1111011100101100
1111001011100110
1111001000101110
1111010011001000
1111110000001011
1111101100010010
1111110111101111
1111111111000101
1000
1111011
10100011
1001110
1111111110100111
1111111100101001
1111111101010100
10100001
1011101
1111111101100100
100101001
1111111010111100
1111101100001001
1111101010110110
1111100101101110
1111101010011110
1111110010100101
1111110001100100
1111100110011011
1111101001000110
1111101110110110
1111101110100100
1111100101010110
1111110010001100
1111111001110001
1111111100111100
11011
1111111111010010
110100
110101
1111111110010000
1101
1111111110010000
110
10000110
10000000
1111111110111111
1111111111110100
1111111110010011
1111111011001001
1111111101000000
100011001
1111111110110110
1111111110111111
1111111111110000
1111111001110011
1111111101010001
1111111101101110
1111111000101110
1111111010001001
101001
1111111101100101
100101100
1111111110110101
1111111111100001
1001000
1111111110001001
1111111110101110
1111111110100000
1111111110011000
