1101001
1111111101100011
110010
1111111101100011
1111111111011000
1111111101011101
1001
1110101
101000
1111111111110010
1110111
1111111101110101
1111111111101001
1111111101111000
1001100
1111111110011011
1110
11101
1000001
1111111110010001
1111111111001100
1111111010011000
1111111111001011
1111111110101011
1111111110111111
1111111111100011
1111111110111111
100000
1111
1111111011000000
1111111100111111
1111111111100011
1111111101110010
1111111100011011
1111111110110100
1111111100110111
1111111010101010
110001101
1111111011000010
1101000
1111111011101100
1111111110100101
1111111111000110
1111111100001000
1111111111000100
1111111011010101
11100
1111111100001101
1111111101000101
1111111111001110
110110
1101101
101010010
1110000
11000000
1111111101110011
1100100
11000101
10010100
1111111100000111
11100
1111111100110100
1110010
1
1111111111011010
11110000
1111111110110101
10010110
1111111111100011
1111111100011101
1111111001101111
1100011
1111111111111011
1111110111001010
1111101111110100
1111111000111000
1111110111000101
1111110110000001
1111111101110000
1111111101010001
1111111101001111
1111111101010101
10010
1111111101100101
1010011
1111111110001101
10000011
10000100
11110010
1101111
11111010
110100010
101101111
1111001101
1000111001
101011
1111111011101010
1111110000001110
1111100111101011
1111111011111111
10100
1111110010100111
1111100101111111
1111101011000010
1111011111111111
1111101000101101
1111101100111111
1111110001101101
1111111101110100
1010000
11110010
1111111110101001
1111111011001101
1111111101110101
10110
101010
1111111110000111
100011101
101110101
1111111010111011
1111110110100101
10111110
1110111000
1111110011110101
1111110111111111
1111110110000101
1111101101000111
1111100101100101
1111100110100111
1111101001010000
1111100100011011
1111100111000110
1111101000100001
1111100001011101
1111101001100100
1111110001010101
1111110101011010
1111111101100010
111000
100111
100101110
1111111111111111
1111111101010000
1111111110100001
1111111111011010
1111111111000011
1111111011110011
10000111
1111111100011110
1111110011101011
100111011
1101011101
1111110
1001110111
1111111111101100
1000111101
1111111011010010
1111111000111100
111010
1111101111001100
1111100110110010
100110
11110001
1111110001001010
1111111101011101
1111110111100010
1111111101101101
1111111101010111
11010100
10110011
1111111100100010
1111110101110101
1111111000001001
1111111010110010
1111111000011100
1111100110100100
1111100110110001
1111111010001110
1000101011
10011010010
1111111100110100
1111111001000111
1001101100
1111111100001110
11101111
1111111000010001
100011011
1111111011111000
1101010100
1111111010001001
1111110110001100
1111101010001101
1111101111001000
1111110101100110
1111111110000110
1010111
1111111111110100
1111111111000010
100011110
1111111000110100
1111111001111000
1111101010101101
1111101101101101
1111101100010101
1111110111001001
1111110110001100
1111111000111010
1000100101
10101010
1101010000
10000011010
1111100110000011
1110001
101001000
1111111100111000
1011111
1111111111101101
111001110
10101001011
1111110011101110
1111100011100000
1111110000010011
1111111110001000
1110111
1111111110011011
1111111110101010
11000000
1111110010111000
1111110100010001
1111111011001010
1111101110010101
1111110111000001
1111110111000011
1111101111110011
1011010001
111101000
1111111111001101
1111110110010001
100101111
11111000
1111100011000110
1011110011
1111111110001001
1010010001
1010101101
1011010
1100011100
1111111000000100
1111001111110010
1111101011100100
10000000
110101
10101010
1100100
1111111101110101
1111111010001110
1111111101111010
100110000
1111111110000001
1110111011
1111111100001011
110001000
101000110
1110011011
1000111011
1001011011
10100001111
1110101000
101010011
1111110100110100
1100
1111101000111110
1111101110000001
1111110011101001
1111111011000000
1111100000101100
1111010110111111
1111110011000000
1111111101000101
1100
100001011
10011111
1111111101101001
1111110011010010
1111110100010101
111010101
1100100111
1101011010
11011100111
10011000001
1010110010
101011000
1111110110110100
1111111111111000
10110011101
11000100111
1100010010
1000100110
1010010
1111101110010010
1111110101010001
1111110101111000
1111011101100110
1111100111110000
1111110010001101
1111111100000011
1111111011111011
1111111110010010
11110001
1111111111100111
1111111110010000
1111110100011110
1111101110100001
1111111010100010
1111110000111010
1111011100010111
1111100101100001
1111100000010111
1111001010100100
1111010010101100
1111011101001010
1111010010011010
1111101100011001
1111110100110110
1111110101110010
1111100111010100
1111101101100000
1111110100000111
1111100101010011
1111111010011010
1111100111100011
1111101000000100
1111110001000110
100010
1111111010111111
10011111
100011000
1111111110101011
1111111110111100
1111110011011111
1111100010101010
1111011011100110
1110111011100100
1110101010000011
1110110000101000
1110110001111110
1110101110111001
1110110111010101
1111010110101100
1111001110010110
1111011001011101
1111100010101101
1111011110011111
1111010110010001
1111101010111011
1111101111100011
1111110001110011
1111111010001011
1111011001010000
1111100101110100
1111101110110110
1100000011
10001110
10001001
1111111110100110
101011
1111111111000000
1111110011110101
1111011111111000
1111000000111000
1110110010110110
1111000101110100
1111001011101101
1111011101010101
1111101101101010
1111110110011110
101101010
1101100110
10110110100
101000010
1111110110001100
1111110000001011
1111100001100000
1111101010001100
1111110100101100
1111110101011110
1111101010000000
1111101110100100
1111111111110101
10011010100
1001000110
101010110
10101001
1111111111010000
1111111110010110
1111111000100010
1111101100011010
1111010100111111
1111101001011000
1111111010011110
10101101011
11010110011
10001000101
1111111110101110
1111111110100101
111101011
1101100000
1111110101000001
10101010001
1111100010111110
1111110011111101
1111100110001001
1111100101110001
1111101001000011
1111111000100000
1111111111101110
101101111
1100100101
10001100101
1111111111110000
1111111111001011
1111111011111100
1011011
1111111110001000
1111110010000001
1000000010
10000010000
101000001
1100101011
1111111010011010
1111100
111010011
1111110011101110
10101101111
1101110011
1111111001000110
10010011011
1111100110001101
1111100001000011
1111101100001011
1111101000000011
1111110111001100
1111110101101110
1111110100000111
1111010101
11001010110
10110100100
1111111110111000
1101000
1111111110110110
1111111110111011
1111111111110101
1000001010
10000100110
100100100000
1111111011001101
1111110110001000
1001110
11111100
1111111111110011
1111110000101101
11000101000
10100010010
1111111000000000
10001101
1111110111000000
1111100111111101
1111111101111011
1111111111101100
10110100010
111111011
100100110
1010100001
100001010000
10001111001
1111111111000000
1111010
10110001
100
1110100
1101001110
101000010110
11101111011
1111110001
11111111
1001101
10010101011
10011100100
10111111011
1100101101
11101110001
1000111011
1111110100011000
1111101100010010
1111100110111111
1111110111000011
1110110
1111110000110111
1111101111000010
1111111111001001
1011011010
11111000001
1011101001
101100
1100001
1111111101101111
1111111001100100
1111111111101011
1111001100
100101010011
1111100111
100010011010
1011000111
10000111010
11011000010
1111100110
100100100011
11100101000
11110010100
1111110111101011
1111110010101101
1111111001101100
1111110010100101
1111111101011010
1010111
1101101101
1010100011
10000100101
100110100010
100000101001
101000111
100000100
10100
100101101
1111111111101010
1111110100011000
1001111100
10101000
1111111100100110
10001001100
1110011101
11111011000
1010110000
10100010000
10100111011
11101111100
1111111111110011
1000010010
1111110111110111
11110
1111110100000010
110000101
11010011
1011011110
10101010
110011010
11011001000
11100000101
1000010000
1111111111100111
1111111111111100
1111111110001100
1111111111110101
1010110
11000000011
101011011
1101000100
100100111
11101010010
11011100011
1110000100
11100000100
1010011000
1111101110111001
1111111000001110
1111110011110111
1011101110
1111111001101010
1111111011001110
1010101101
10110001
1111101111101000
1111111011111101
1010000101
10010010010
110101010
1001111
1011110
1010101
11010
1111111011000001
1111111110101000
1111101011
1001101001
10000110
1111111100001100
111001010
1111111100100011
10000111010
100000001
110011100
1111110100011101
1111110101011011
1111111111001010
1011100010
10101010011
10010111111
1011110100
1111111110011000
1111111001110011
10010010101
11000011011
1110111011
10100101
1111110
0
1111111100100001
1111111111101000
1100000
1111111101110111
10011110001
100011101100
110011010
1101011
1101111111
10000010011
1111111110110010
1111110111011011
1111101111111000
1111101000100010
11110010
1111110100100000
1111111111000001
1010100100
100011101010
11001100100
10011101111
1010010101
10110110101
10000001000
1001011001
101011
1111111100001000
1100101
10010111
10011010
1000001
1111111100111111
1001111100
10111111111
1101011000
1111111110110110
1111110011111111
1110000101
1111111000001110
1111101110010111
10100001
1111111001000011
1111101011111111
1111110101100000
1111111001100111
111110000
1101110110
1010001111
10101001111
10010111001
10111101100
101101110
100001100
1111111110011100
1011010
11010
11100010
1010000
1010111
1111111000010111
1111110111011100
1111111101100110
1111101111010111
1111100111010111
1111100100110100
1111100100011000
1111011011100100
1111110000000100
1111110101101111
1111110011111000
1111110100000101
1111100110100000
1111101011111110
1011000011
10100100010
1001110011
100011010
111101110
101111010
1111111111100011
101010100
100100101
1111111110101011
1111111100100110
100110
1111111010111011
1111111110011110
11001
1111111011111111
1111111000101010
1111101101111101
1111101100011111
1111110000111101
1111101000001011
1111010110100001
1111010011001011
1111010101110011
1111010111100101
1111011110110000
1111011001100001
1111101101011010
1111111000110011
1111111100010010
1111111000011111
1111111011100010
1111111001111011
1111111100000011
1111111101010110
11110100
1101011
1111111101110101
1100010
11100
1111111101101110
111100
1111111101011110
1010111
1111111101001000
1111111001111001
1111110111110111
1111111011111000
1111111110110011
1111111101011011
1111110111110101
1111111110010110
11000100
1111111011010100
1111111101111111
1111111110100110
1111111010101110
1111111000000101
101
1111111101100010
1111111101000110
1111111111010010
1111111101000110
1111111101000100
11011001
1111111111010000
1111111111010111
1111111101111111
10000
1111111101100001
1011100
11000001
1110110
1111111110011111
1111111111110000
1111111110010001
1111
1111111111111100
1111111111111001
1111111111000011
1111111111001101
10100101
11001101
1111111111000100
1111111111001111
110111
110010
10
1111111110110110
10101
1111111111010111
10010001
1111111110010001
1111000
1111111110001001
