0000000011101001
1111111101111110
1111111110011100
1111111100101111
0000000010111011
1111111111101011
0000000011011100
0000000000100011
1111111110011100
1111111101011101
0000000100110000
0000000000010001
1111111111000100
0000000010111000
1111111111111111
0000000001011100
1111111010111110
1111111101111101
1111111111010101
0000000000000110
0000000000001011
0000000001011001
1111111111001011
1111111101100010
0000000000001010
1111111110110000
0000000011101010
0000000000000001
0000000000000000
0000000000010101
0000000000111101
1111111101110000
0000000000110001
1111111110110001
1111111101101111
1111111011101010
1111111101111111
0000000101000000
1111111110001100
1111111110011101
0000000010101001
0000000011101100
1111111111011100
1111111000111001
1111111101110110
1111111110100100
0000000010110011
0000000010101001
1111111111111100
0000000000001111
1111111110100001
1111111111001111
0000000110110111
0000000011111100
1111111111101001
0000000011111110
0000000010111110
1111111100111100
0000000000000000
1111111111000100
0000000010000100
1111111101101111
0000000000110101
1111111100011001
0000000100111011
0000000011111111
0000000001010100
0000000011011110
0000000000001010
0000000101001101
0000000101000011
0000000001111110
0000000110001110
0000000010100101
0000000100101110
0000000001011001
0000000001101011
0000000000100000
0000000001110100
1111111111110100
0000000000101010
1111111111111110
0000000000011111
1111111110010101
0000000000110111
1111111111101011
0000000000000100
1111111111010101
1111111111101100
1111111101011010
0000000011010010
0000000000111111
0000000010111101
0000001010101111
0000000000011100
0000010000110111
1111111111110101
0000001100101101
0000001001111101
1111111001000001
1111111100111111
1111111110000101
1111111010001100
0000000011001101
1111111100011001
0000000000111100
0000000011101000
0000000100100010
0000000010101111
0000000001010010
1111111111000010
0000000000110101
1111111010010000
1111111111010110
1111111110010011
1111111011001101
1111111010111001
1111110110111000
1111110100111011
1111110100001001
1111110000110000
1111111111010111
1111111110110111
1111111100010100
1111111001000010
1111110010101111
1111110001001001
1111111101111110
0000000001011101
0000000000000010
1111111001110111
0000000011011100
0000000011000000
1111111110111111
1111111010001000
0000000011101010
0000000011111111
0000000101100101
1111111111001100
1111111011010011
0000000000101110
1111111110101111
0000000000010011
1111111001101001
1111111111111111
1111101100101100
1111101100101100
1111111011110000
0000010001001101
0000000111110000
0000001101001011
0000011011101011
0000010010111011
0000001110110011
0000010001101111
0000001000001001
0000001111010011
0000001111100110
0000001010001000
0000000001000000
0000001011111000
0000001000110011
0000000101011101
0000001000101010
0000000110010011
0000000000110010
1111111111110100
0000000010001110
0000000000001100
1111111100110111
0000000000100101
1111111000101001
1111111100100000
1111110011111001
1111101011110111
0000000111100011
1111110101100110
1111110011000001
1111111010011111
1111111001000010
1111111111000100
0000000000000111
0000000110111000
0000000100001001
0000000000110000
1111110110110101
1111110111001101
1111101110000100
0000000010010100
0000000100111000
1111111101110000
1111111101011101
0000000001000000
0000000001011111
0000000001000110
1111111100011001
0000000000001000
1111111110100000
0000000010011010
1111111011111001
1111111001110011
1111110000100111
1111110110111100
1111111101010010
0000000100100011
0000000001011001
0000000010001010
0000001011001011
1111110110101001
1111111101110111
1111110100101101
1111110010000000
1111111101101110
1111101001110001
1111110100001100
1111100011000001
1111100101111011
1111111010110100
1111111000001101
1111110000000110
1111111100111000
0000000100101001
0000000000000111
0000000000111000
0000000001111111
1111111101111100
1111111110100101
1111110000111010
1111110010000011
1111111011010101
1111111001101010
1111101001100001
1111111100100010
1111111000100010
1111111100001110
1111111010111111
1111110100111111
1111110110010000
1111110010010011
1111101111010110
1111110100011000
1111101101110110
1111100110111101
1111101010100000
1111100111111100
1111111000111011
1111100111110001
1111101010100010
1111111011000111
1111111101010100
1111111111001100
1111111111101011
0000000010000111
0000000000000100
0000000100000000
1111110110010000
1111110011100000
0000000110001000
0000000100001111
1111110111100011
1111111100101011
0000000011110011
0000000001010100
0000001001001011
0000000001011011
1111111110001011
1111110100001011
0000000000010000
1111101010110011
1111101011011011
1111111100110011
1111101001001101
1111101110111110
1111110011011010
1111100111111100
1111110111000101
1111111001011100
1111111111000000
1111111100110100
0000000100111110
1111111101101011
0000000010011001
1111111100100000
1111110010011000
1111110000110011
0000001000111011
0000010010111111
0000001011111111
0000000101010011
0000000111000010
0000010100000011
0000000111100101
1111111100101100
1111011101101111
1111100010001010
1111100100110100
1111011110110011
1111110001111010
1111111111100011
1111111010101111
1111101100011101
1111101000010100
1111100101110011
1111111111101100
0000000101110011
1111111110111110
0000000001010111
0000000000000011
1111111101100101
1111111101101010
1111111101001110
1111110010001111
1111111001100101
0000010101101000
0000011010110100
0000000101001111
0000000011010101
0000000100110101
0000001010010010
1111110101011001
1111100010111100
1111000101100100
1111010110010010
1111010011111100
1111011101001000
1111100001101101
1111101110000010
0000000101010111
1111111000010100
1111110111100110
1111111100100001
0000001001000010
0000001110110000
0000000011101111
1111111110101000
1111111101000000
1111111111011100
1111111101001000
1111111110100110
1111111100110111
1111111111110101
0000010001110110
0000001101000111
1111111010110100
0000000011100100
0000000101111111
1111110111000010
1111011101101000
1111011001000101
1111011010101111
1111010111010101
1111100000100101
1111100010000100
1111110011011111
1111100111111001
0000000111010101
0000000110101111
0000010010111110
0000010010010100
0000010000100000
0000010010111011
0000000010101010
1111111101011111
0000000110110111
1111111111011101
1111111110010111
1111111110110100
0000000101110110
0000000011100101
0000001101110110
0000001000100001
0000001100111001
0000011001000000
0000010110011001
0000000100100010
0000000001111110
1111111001100000
1111101110100110
1111101101110101
1111101101000111
1111101111000101
1111111101111000
1111111110001001
0000001010011011
0000001111100111
0000010011111101
0000010011111001
0000010001011001
0000010000000111
0000000101010100
0000000011111001
0000000010011001
1111111110001001
1111111100000001
1111111010001111
0000000111110100
0000000100001010
1111111111100011
0000010001111000
0000010000111110
0000011000000100
0000011001000000
0000010001011111
0000100000100100
1111111100001111
1111110000111000
1111110111011000
1111110010110001
0000000000100010
1111111001100110
1111111100111110
1111111110101000
1111111101010100
1111101111110010
1111111111010001
0000000111000011
0000001111010001
0000001010100001
0000000100100000
0000000001100000
1111111111001101
1111111010100101
1111111111010100
0000000111001110
0000000001010010
0000000110011101
0000001000010110
0000001011101110
0000010100110011
0000001101000011
0000010100001110
0000010000111101
1111110110101011
0000000010110101
1111110001000001
0000000001101000
0000000110110011
1111111000101010
1111111001111101
1111111110010000
1111110100111011
1111101100111101
1111110000010000
0000000011110100
0000011000100100
0000011010101111
0000000011111101
0000000000111000
0000000010111110
0000000000101010
1111111100001011
0000000101110101
1111110111111010
0000000000000100
0000001100000001
0000001000010110
0000001000001010
0000001000100001
0000011111001010
0000101100110001
0000011000011000
0000001010111110
0000000011101000
1111111101111100
0000001000111100
0000001010111101
0000000000000000
1111111111101100
1111111010110001
0000000001100111
0000000100100010
0000001110101010
0000100011101011
0000011100000101
0000000101100110
0000000000100111
0000000001011001
1111111100000110
1111111111001001
0000000010111010
1111110111010110
0000000000000101
0000010000011101
0000000111100100
0000000110101110
0000001110011011
0000011110001011
0000100111110100
0000101011100011
0000000111111000
1111110110100011
0000000101000101
0000000111101101
0000000011110000
1111111111110010
1111110111001010
0000000001101101
0000000000101001
1111111001100001
0000010100010100
0000101111001111
0000011000110001
0000001010000000
0000000000111000
0000000011100100
1111111111111011
1111111110110100
1111110011100010
1111110111000110
0000000100100100
1111111110001111
0000010011001111
0000001111001101
0000001011111010
0000011110111111
0000011001101111
0000110001100000
0000001000110111
1111111001011111
0000000111110011
0000001010010010
1111111110010100
1111111001001111
1111110110010111
0000000000010001
1111110110010111
0000000000110111
0000101000100100
0000110101001010
0000010000001001
0000000011000011
0000000011010011
1111111100011100
0000000010111001
0000000001111011
1111111011100111
1111110011111000
1111110011100110
0000000000110001
0000010100111000
0000001010100100
0000010011010000
0000010010101111
0000011010001010
0000100000111000
0000010100100110
0000001111111101
0000001101000111
0000000111101111
1111111000011110
1111110111110101
1111111101111100
0000000111100001
0000000100101110
0000001100001111
0000011101101101
0000011111111000
0000000101100001
1111111110011111
0000000010100101
1111111111110011
0000000010010010
0000000001111011
0000000101110101
0000000111000110
0000000101111100
1111111001110010
0000010110000011
0000000100101000
0000000101001101
0000001110101010
0000011000001110
0000010000110111
0000000101011101
1111111111111000
0000001001001100
0000000110110010
1111111110100111
0000001110110101
0000010100010011
0000000010001100
0000000110111100
0000011110100001
0000100100110101
0000010001011111
0000000011100000
1111111110100000
1111111101011000
1111111111010101
0000000000000111
0000000101000110
0000000010111101
0000001000110101
1111111011000000
1111111110011001
1111111110011111
1111110101001011
0000010110010111
0000010101111001
0000001111100110
0000001110101010
0000010010101111
0000001010010010
0000000110011101
0000000101111110
1111111110110110
0000001111111110
0000000010000011
1111111011111100
0000000101101111
0000100100001010
0000100100000001
0000001111010000
0000000100000100
0000000101110101
0000000000010011
1111111001111111
0000000001100001
0000000100011010
0000000011010101
0000001010001100
1111111010010010
1111111101001000
1111111110010100
0000000100101010
0000001000010011
0000000111011101
0000011101001000
0000011011001011
0000001010111100
0000001100010001
1111111101111001
1111111110101011
1111111000101110
0000010000110110
1111111110011011
0000010000110111
0000011000110111
0000011101111011
0000011010011110
0000001001101001
0000000110111101
1111111110111101
1111111111101011
0000000000001010
0000000010001110
1111111111010001
1111111111010101
1111111110010000
1111111011010001
1111101101110011
1111110010111011
0000000101001010
0000001010101000
1111110100111111
0000000010111110
0000000100001001
0000000010011010
0000010010000110
1111111001100000
0000000010111001
1111111010111000
0000001010100101
0000100001001001
0000101000010100
0000100100101011
0000100111110001
0000011001001000
0000001011000100
0000000010001101
0000000000010100
0000000101101011
0000000001111110
0000000001110111
1111111101100011
0000000000000000
1111111011100100
1111101110011100
1111011101001001
1111011111000011
1111101101100000
1111100100110001
1111011110110001
1111110000000001
1111110101001001
1111101011001101
1111111010000110
1111111001110010
0000000001010001
1111111011001110
0000001010011011
0000010100010100
0000010100010110
0000010010111111
0000001100101011
0000001110110001
0000000110101011
0000000101011010
1111111110000011
1111111101001001
0000000000111011
1111111111001101
1111111111110001
0000000001111000
1111111011000001
1111111011100110
1111111000110010
1111101011001101
1111100100011110
1111011110110101
1111011110010101
1111011101100111
1111100110000010
1111100101100001
1111101011110010
1111101111011110
1111110110100100
1111111000100010
1111101111011101
1111110100001000
1111111011110111
1111111000101110
1111111110011011
0000000011000110
0000000011100100
0000000011100000
1111111111100010
1111111111100011
0000000000100011
0000000001011000
0000000000010101
0000000010000110
0000000000010101
0000000011001001
1111111110100011
0000000000011110
1111111001000111
1111111001100101
0000000000001010
0000001001001111
0000001111110101
0000010011101010
0000001101010110
0000000001011101
1111111100111110
1111111110000001
1111111111000100
0000000100001010
0000000101101010
1111111100101000
1111111011100111
1111111111000100
0000000000000010
1111111110111111
1111111111100100
1111111110000010
0000000000101000
0000000101100010
1111111110110000
0000000011100000
1111111111001010
1111111101110100
1111111111011001
0000000011101010
0000000000001001
0000000010011100
1111111111011111
0000000000100000
0000000100111100
0000000000011101
1111111110101111
1111111110100010
1111111111000110
1111111111010111
0000000100100100
1111111100001110
1111111101010000
1111111110010100
1111111001111010
1111111100100110
1111111101011101
1111111111010001
0000000001011110
1111111111000010
