11
1100
11010000
1111111111110001
10110100
1111111111101101
1111111111010110
11011
11110110
1101101
101111000
1000000
1111111110011011
1111111111100111
1111111110010011
1111111101111001
1111111111001000
1000001
1111111100100100
1111111111111011
1111111101010010
10010111
1111111111000011
1101110
1111111011110101
1000000
1111111111010110
100101110
1111111101010111
1111111111100001
10101
100011
1111111110010000
1110100
1111111100110000
1111111111011000
1111111111100100
11111011
1011010
1010011
1101000
1111111111111010
1111111111110010
11000100
1001
1111111100011111
1111111110001010
1101011
10011
10010101
1111111110101011
1111111101001111
10000101
10001001
1111111011010101
11001001
1111111111110110
1111111111101001
1111111111000101
101101
10001011
1111111111001101
11101
1111111101110110
101101011
10110
10110010
111101111
111001010
111111100
11101100
1111111110000110
1111111010000100
1111111101101000
1111111110100101
1111111011101111
1001011
11100000
10011100
100001
10100110
1111111101110101
1111111101111111
1111111111100011
110001
10010110
1111111110111011
11000010
101110
1111111101001000
100100
110100000
111010100
1000000101
1011010000
1101001101
10000111001
1001000010
1111111011000000
1111110101011101
1111101010010101
1111100010111110
1111011011010010
1111011100100110
1111100001000101
1111110001011010
1111110110110010
1111111101001100
1100000
1000101
10
11111000
10101010
1100010
1111111100000010
1101011
1111111101011111
1111111110011100
100011001
11000101
1111111110001001
1000111010
100011111
1111111100010000
1111111010101001
1111110100010010
1111011000111110
1110110111101010
1110110010010111
1110011100000010
1110111011101111
1111000000110111
1111001111011011
1111010111010110
1111100100110011
1111110100001101
100000100
1001110
1111111110010110
10100
1111111110110010
1100000
11101011
1111111111100100
1111111001010010
1111110110011111
1111110101101100
1111101000111011
1111011010101000
1111011111001100
1111100101000110
1111111001011101
1111110011001111
111110110000
110010011011
1111011110110100
1110111110001000
1111000010000011
110001010
11010011110
10111010001
1111101010001000
1111011000110100
1111100010001000
1011010
10000100
1000010
110001
1100000
1111111101010000
1111111110100100
1111111000010100
1111101011110000
1111001001010000
1111000110111111
1111000100111111
1111011001000000
1111111111110001
1011100000
101111010110
1011011010101
10101110001101
11001111010100
10010110010000
1100111010010
1110101011001
1101011010010
110100111010
110010010010
10110000001
1110111001110011
1110110111000101
1111101000001001
110010011
10010011
101111
1111111111001000
1111111101000011
1001000
1111111101010000
1111010100111001
1110110100000010
1111000101001110
1111000110000010
1011111110
1011110111100
1100011001011
1100011000100
10110010010001
10100011110000
11000111010111
10110111000111
11111100101011
10101010100100
10001110111001
1001000110100
1101110011001
1000111001110
1111000110010111
1110101110110100
1111010000100111
1111101111101011
1111110001101001
1111111110011010
1111111110110011
1111111111101111
1111111000111000
1111110011000111
1111010011010101
1110111001110101
1111010011101000
1111011011110001
111111000111
111101110100
101001111001
10000101100000
10010000110101
10010010010110
11011101010101
10111110000010
11001111101100
1111001101000
1011111100000
110000110001
10011011110
11110100011
1111110100011011
1111000111110001
1111100111100000
1111110101011000
1111110111010111
1111111110111110
10010101
1111111101110011
1111111011011010
1111111010010101
1111100001000111
1111010000000001
100110010110
11111011010
101010101101
100011111101
1011001100011
10010010100000
111011110111
10111001110011
11111110011101
11010100110000
1001111001001
1111110110101011
11001000110
1111111100001111
1111111010001100
1111001100000111
1111100111000110
1111100011111010
1001011110
1000101
1111111110111110
1111111100110110
1010101
11111101
1111111110011100
1000000010
1111101011011111
110011000
1011010011101
110000111111
1000110111001
1111110100000011
1111111011000110
100000011101
1111111111000110
10011100111010
11010100111111
1111010000010100
1110011111100000
1110011010001111
1111011101100001
1111011100111011
10001110100
11110101011
1111100100111110
10110111000
10001010111
1011110110
11000110
10101011
1111111111110011
1101010
1111111010001101
1000001010
1111110111101111
1010011000001
111010001111
100101000110
10111101100
1111000111111000
1110101111100110
1111010110111000
1110011000010010
1111100011
10101000
1110111011110000
1111010110001100
111110100010
1010001101101
11001100100
1001111011101
1010100101101
10111101001
11001101001
100101101110
1010110110
1010100100
1101
1111111011101000
1011
1111111110100100
111101000
100101001011
1100111110110
1110000111
1111100100110101
1111011101010011
1111100011000100
1110100000000100
1101000110011101
1011111000100011
1101101101101110
110101001110
1111111010110100
1111100100011011
1011100010000
1000101110110
110100111010
100010001011
101100001111
10100100101
110010011
1111111101010010
11100011
10001100
1000101
1111111011101100
101110
10111
1111100110
1110001110
0
1111001110010101
1111011101001111
1111011101111010
1111000000101100
1110111101110100
1101111000101100
1101001011000010
1101110111
1111000011011
1111101010110100
1111110110110000
1111101111111011
100101010011
1111111011111100
1111011001010000
110011110
101101011
1111010000011101
1111100001010010
1111110111100001
1111111110011001
101111100
1111111101111010
1111111101111000
1111111111110110
1011110000
1111100100010100
1110101101001000
1111010010101000
1111010000000101
1110101110011101
1101111100100001
1110111010100000
1101000010010010
1101011001100001
1111000
110110000101
1011100111
1111011000111010
1110111000010101
1110110010000100
1111101111000001
1111110011011011
1111110001101101
1111011010001110
1111000111101000
1111010110101101
1111111100001110
101010011
1111111110011010
1111111110101011
1111111110111101
1111110011010110
1111100110110111
1111011111010101
1111010010110000
1111000111111011
1110100100010111
1110100001001100
1101011100000010
1111001110100111
1110101100001110
1110010101001111
1111101000000110
1110111100010001
1111100011111101
1111001011101001
1111100011111001
1111100101010010
1111001110011000
1111101100000100
1110100011111011
1110000011110010
1111001000011100
1111100101100010
1111111011100101
1000110
10100100
1111111100000010
1111111111100110
1111110110110110
1111100110101110
1111100111110010
1111011111100110
1111001110000110
1111001111001000
1111001110111110
1111010101010000
11010011100
1010101100
1111101000101000
1111011101101010
1101101101111101
1101101110100000
1111001111110100
1111000101010001
1110110110101110
1110101000000111
1110011001110000
1110001111000010
1110101011011000
1111001011110101
1111011011000001
1111111101110010
11111011
111011
10111000
1111111111101101
1111111010111101
1111101010001110
1111010100001000
1111001000100010
1111001101001111
1111010100010011
1111000111100111
1111010101100010
100100010010
1011101100
1100110010
1110101001110101
1110000111110110
1110111011001001
1111010000000011
1111001100011001
1110111100110111
1111100010011011
1111100010111000
1111011101010110
1111001010111010
1111000001010111
1111100110100111
100001101
1001100000
100010
1111111100000100
1111111101001010
1111111011100111
1111101100100010
1111011000101001
1110111110101101
1111011000011010
1111111011101110
1111100001110111
1111111010000001
111001110101
1110011101
1110110000011000
1111001010010110
1111010001001101
1111111010000101
1110001101011001
1111110111010001
1111011110110100
1111111010010011
1111111000101001
1010110111
11100011
1111011100010100
1111101001111011
1111111001111001
10101
11100111
1111111100110010
1111111100101011
10100110
1111110000010111
1111100000100100
1111010010110001
1111100010110110
1111111010011110
101110100001
1111100101
1111111100011011
1110101101011001
1110111101110100
1110110100100001
1111001110010001
1110111101011100
1111010111000110
1111110001011101
1111110010110011
100101110011
111001010101
111100110010
101011000001
10011001100
110101000
1000001011
10101001
10110010
1111111111111110
1111111111111101
1111111110001111
1111111010001110
1111101110001010
1111100110011100
1111100011100110
1111110100101010
10110001010
111001101
1111000101111100
1110110110010011
1111010011000000
1111110111110000
10111101000
1111010101110111
1111110101110100
1111101110001001
1111110111111000
100110111010
101011110101
101111010110
111111010000
111001110011
100110101011
110010111
1111111011101011
100111
1111111110110100
1000000
1111111100100110
1111111110001100
1111110101110101
1111110100111000
1111111000100110
1010110111
1101100011
1111101101010110
1111010101110010
1110111000101110
1111010110011010
1110111111111010
1111110111001011
1111110010011101
10000100
1111001101100011
1010010110
1111010101010111
111100100
110110101011
110011100010
11100001110
100000101000
100001111
10001101
1111111100001101
1001110
1111111101101110
10011101
100
10110
1111111011111000
11000110011
100000110010
100001010011
1001111100
1111100100100010
1111011101101100
1111011110001011
1111000001011111
1111111010100111
1110101001111001
1111010110010110
1111110011011001
1111110001110011
1110101111000101
1111100100001100
11101011000
100111000100
110011010000
11101100010
11110
1111111111010100
1111111111110000
100100111
1111111110101100
1001011
1111111101110000
11100100
110001011
10010000011
100100001011
1001100001101
10101011010
101110000010
10110110001
11111000001
10000010100
10111001100
1111110100110000
1111110010111100
1111010010111101
1000000
1111110100111101
1111100010011100
101100110111
1001000100001
110101011110
11000100100
1111111101100000
1001110
1010110
10100101
1001000
11
1111111101111001
1111100100
1111111111100100
10100101010
111100010110
1110100101001
1001100111001
1010011111101
1010001100001
1000110101110
1000101111010
110101000111
111100111111
100111111110
10111001
100001110100
1111111010
111001011111
111100100100
101010011011
10001111000
1011000010
1111111100000111
1111111111110000
1101001
1101010
1111111111011011
1111111110010110
10010100
10101100110
11101100111
11100101000
1001000010011
10010011111001
10011001110001
1100111010101
1011100011110
1101001100110
1010101011111
111001011110
1110100010
1001111111111
1000001010010
1101110101111
1001000111011
1001101011110
110000111101
10110010001
100011011
1001000
1000001
10111
1011011
1111111110010101
1111111110101111
1111111111011100
1111111111110111
11110111
101011001
10011001000
11001110101
110000010010
1011001100110
1100110101100
1010010001000
1101110111110
1101100110000
10011110110110
1101010110101
1101111000111
1100100000110
1111001000110
110100100011
100010110000
11110110001
1101001110
100111100
1111111100000000
1111111111101010
1111111110110101
1111111100110101
1111111101111000
1111111111000111
11100010
1111111101110011
1111111111000101
1000111
10011111
1110110
10101110
111100000
1000111000
1101101
10010011111
1101000110
11101000000
101011110
1010111000
10000110010
10010010011
10000000001
11000001
11110100
1110110
100110
1011100
1111111111111100
1111111111111110
110010
