1111111111000101
1111111110000101
100100010
1111111101101011
1001010
1111111110011000
100010011
1000001
10011110
100101001
10011
1111111100101011
1111111100000000
1111111101111001
1111111111110111
10101
11
1111111100001011
101110
1111111001101001
1111111101101001
1111111111110111
1111111111100110
1111111111100100
1111111101110010
101
10001000
1100001
1111111111011111
11111
10111000
1111111100110110
1111111010100100
1111111110000010
100000110
10001
1101001
11001
100011000
10000010
1111111100011000
10100011
1111111011110110
1111111011000010
1111111110111000
110111
10110111
1001110
10100001
1101001
1111111100011111
1111111110001101
10010000
1111111110110100
1000011
1111111110010111
1111111110100101
10101011
1111111101010010
1111111110000101
10101010
1111111110011000
1111111100101001
1110
10001010
11100111
110010101
11010110
100001000
1001100
1000011
1111111100110000
1111111111110011
1111111110110000
1111111111110010
1111111101100000
1110000
1000001
1111111111111101
1111111110100110
1111111100100010
1111111101100111
1111111110010011
1111111
1111111110000011
1111111110011001
1111111111000111
1000001
1111111101000001
1111111101001101
1111111111011101
1001000
111011111
1010000000
1011010101
1110110011
10000011101
1110010010
10100011010
1000000010
111101001
110011010
100010101
11110101
1111111101111100
1111111110010110
1111111101111101
1111111011011101
11100
1111111100001100
1111111100111011
100101000
11000
1111111011001010
11000
1111111110010110
1111111101011010
101000
1100111
111001001
111001101
1000011010
101001111
11010
1000010
100000110
1111111001000101
1111111011110000
10110011
10001101101
1001111000
10101011111
10001001110
1111000000
101010010
1111111010110000
1111111100100100
1111111101011010
1111111110001101
1111111110111000
100010111
100010011
1111111111000000
1001101
1111111100111001
10101101
111101011
1011110011
1010110011
1111000001
11001111
1111111111001100
10000
1111011110011110
1111100001111101
1111101100011011
1111111101111010
10001111110
1111111101100111
1001101
1101010100
1000010110
110100000
11010001
1111111110010001
1111111110001100
1111111101010000
1010
1011010
1111111110001100
1111111111000111
1111111101100101
11101000
101101110
11111101
1010110010
1010100111
1001000101
1111101001100011
1111100000011001
1111101011101011
1111011001110101
1111011001000100
1111101101111011
1111101010110001
1111100001101011
1111100000100110
1111101100001000
1111111010100110
1111111001011111
10110001001
11001000100
1001111110
100001001
11101100
100110111
1111111011101010
1111111111010101
1111111101010111
1111111111111001
1100100
110110010
10010110
1001001011
1011110
1111110100010001
1111110000100011
1111110100111011
1111100101110000
1111101010001111
1111101000110001
1111100000111101
1111011101101001
1111110111000101
1111110100001100
1111111110110000
1111110000111010
1111110000101000
1110110100
1111000100
10100001100
1111010010
100011101
10001110
10010111
1111111111111101
10011010
101011001
1000101000
100011101
1111110110111011
1111111000111000
1111100111001011
1111111011100101
101000000
1111101111011001
1111101001001100
1111101110011100
1111010011110010
1111100111011100
1111011111010001
1111110010011001
1111100010001111
1111101010111101
1111110111001001
1111110011011010
1111110100010011
1001111011
111010111
1100100100
1111111111100111
1111111110001110
1111100
1000111
101111110
1001001
11000
1111110011100001
1111011100010110
1111100000101000
1111100111110010
1111110010111000
1111100110100001
1111100111011111
1111110010001011
1111101001001110
1110111010101110
1111010001001000
1111111010010101
1111100110110001
1111110110101010
1111111101000000
1111110011011110
1010010
1111111000110010
1111110100101000
1111111000101100
1111111010111101
1111111010101101
1111111111110111
10010001
1111111110001110
100110001
1111111111110100
1111101110010001
1111101001000110
1111001100111101
1111100000000111
1111101000011111
1111110000100001
1111011010101000
1111011101110011
1111011100110100
1111001000000000
1110110101110101
1111111100000101
1111110110011111
101100110
1010111000
1100
1111111110110000
1111110010100001
1111111011010101
1111110000000011
1111110011111010
1111110011110101
1111111100000001
1010000
1111111100001101
1011101
10
1111111001010111
1111100100110110
1111011001011111
1111010110100001
1111100011110100
1111011101011011
1111100101011100
1111101100101110
1111100101101010
1111110010110100
1111010010000001
1111100110111011
1000010
1001001
1111110010000001
1111100100101000
1111110110101010
1111111001000111
1111101100001111
1111110010010001
1111110011010110
1111100101011010
1111101001011110
1111110100100100
110110
1101101
11100011
10
1111110111000110
1111100000011011
1111011101010110
1111101110001010
1111110011000001
1111101111110010
1111101101101100
10001110101
101101011110
110000001111
100101100101
1111110011001011
11001000
1111111111110011
1111011000000011
1111101111110010
1111110101000010
1111101111010001
1111101010010011
1111110100111111
1111101101000011
1111111000011111
1111110101100010
1111110110100001
1111111110010000
1001111
1111111111110011
1111111001011110
1111111001100011
1111101010001111
1111111101011100
10100011101
10000100001
10011001111
11011000010
101001111101
111100100011
1001111100010
1111111101101011
1111010101010000
1010010011
1111111100110011
1111111110010011
1111101011000110
1111101100001001
1111101100100010
1010100010
10110110
1100011111
1001010100
1111111101110101
1111111110110111
100010
1111111101111110
1111111111100100
10001
1111111110101111
1111111101000110
100000001110
11100100001
101100101100
11111001101
111011101011
101111111110
1000010001010
1000110011001
1111111111011011
1111110110010001
1111111100001111
10000111111
11111111100
1111111100010100
1111111100110010
100011101
1010011010
10100111000
10010001011
10000111101
10100011
1110101
1111000
1111111111001011
11110110
100011
110011001
1001011101
10101010010
10110100101
101001101001
11001100000
110010011010
11011101011
11100001111
101010100110
1111111111110010
1001011110
1111111010110001
1110011111
11011010010
10000000100
10100111010
1111111111000100
10001000111
10111101010
1110011011
1001100111
1001000001
1111111100000100
10111010
1111111111001010
1111111101100000
1111111101100100
11010011
1000100001
1001100110
10001001000
11001111001
1101110000
1101100000
111001101
1101010000
110011111
1101111000
100010100110
100110110101
111011101
1100001101
11100011111
11111100111
11100010000
100001111011
10001000001
10011110001
1101010111
1011000110
1111111110110000
10100011
1000001
10111111
10000101
10000110
1011000100
1100101101
10000010100
11011100000
10011010101
100100100
100100001
11000001100
1111110110001010
1111110111101000
1000010111
1111000001
10010011111
1111111010
11001101101
1010101000
1011011100
11100001100
10011110111
1010111101
1011111011
1000111001
1111111111100111
1111111111101110
10011110
1111111110111110
10100100
11000001
1101000000
1111011001
1010101010
10101001111
1101101000
1111010
1111111101100111
1000001010
11011001111
1111111000010000
1000110001
1101101010
111011110000
1000110011
10010101000
1111110000101011
10010111
1010001101
110010
1000010110
10001111101
100011011
11100100
1111111101111010
10000011
1100000
1111111101110001
101111110
101100011
1001000001
1101011
1111111100011011
1111111010001110
101011100
1110111100
11010000000
1111001000
10001000101
10000100101
100011101110
1101000100
1111111110110001
1100000110
1111101011110111
1111111010010001
1111110000101000
1111101010110101
1111111001010010
1001110010
10111010
1101
1111111100100101
1010010
1010010
111011
100100110
110001011
1111111110011111
1111111000011010
1111101111000011
1111100110101111
1111111110100001
110101110
111110011
1100101000
1111111000100001
101101001
111010100
100100
1101000
1011000110
1111110010011001
100100011
1111111010011010
1111101100010000
1111110000010111
1111111110101101
10110000
11100
1111111111010100
10111001
1010110
100000100
100010011
110010100
1111111010000000
1111110000000010
1111101001100100
1111100111011110
1111110010110011
1111111100111001
1000010000
10110010000
1101110000
1111111000001011
1111101100010010
1111110010100000
100100111
1111111010010001
1111111011100111
1111111000001001
1111110101110000
1111110010110000
1111111110000100
100100101
11001111
101101111
1111111100100001
1000000
1
1101011
10000100
10
1111111011010101
1111110100010101
1111110100101110
1111101010110111
1111101000100000
1111110000011011
1111111001110001
1111111001010010
1111111111010110
1111100000101011
1111111110111011
1111101000010001
1111100101101010
1111110010110000
1001001
100101010
1111111111111111
1111
1010010
1111111101111010
111010001
1001100
1111111111001010
1100010
1010010
1010001
100011001
10100101
1111111001010111
1111111110010001
1111111000101001
1111101111110010
1111101110101111
1111100111100000
1111100101001000
1111100011101110
1111101100100010
1111101011101010
1111100111010100
1111100011011000
1111100000000001
1111110010101001
1111110110000111
110101010
1111111110001110
1111111110101000
1111111100011010
1111111010100111
1111111110101001
101001
1100001
1111111011110101
1111111111101000
111011
10010011
1111100
1111111100110010
100000
1111111001011110
1111101010000001
1111101000001101
1111100111001001
1111100000110000
1111101101011000
1111101110110111
1111110010010111
1111111000101111
1100111001
1100101000
1111111111011111
1111111111111101
1111110111011011
1111101110111110
1111111000110001
1111111100101000
1111111010101000
11101010
1111111110011000
10110100
11001
1111111110100100
1111111101100101
111101
111000
1111111011001101
1111110000110101
1111100110100010
1111011110000100
1111010111010100
1111100011111110
1111101101001000
1111101100011000
1111100110000011
1111110101000001
1111111100111110
1111110010111011
1111101110011011
1111100001111001
1111100101011101
1111101010001011
1111110100111011
1111111100010010
1111111011100101
11
1011011
1111111110101101
10010110
1111111110000011
10010
101111
10110011
1111111100000000
1011
1111111010011010
1111110110000100
1111110001100000
1111101110001001
1111100111100111
1111101011101011
1111100111000011
1111100101110111
1111010001110000
1111011110111000
1111011110000110
1111100111101000
1111100000010011
1111101001101101
1111110110111010
1111111100110011
1111111111000010
1111111101110101
1111111110000010
1111111011100111
1110111
101
1111111111101001
110011
1111111111011010
11011001
11011110
1111111111011000
1111111111010010
1111111011101110
1111111100000011
1111111110000000
1111111011010011
1111111100010000
1111111000100011
1111111010110011
1111110011101101
1111111101000010
1111111011111000
1111111100101100
1111111011110001
1111111100111100
1111111111101101
111110
1110101
1111001
1111111110101011
1111111010110001
1111111110110011
1001100
