1100101
1111111100001000
10000110
1111111100111111
1111111100111010
1111111111111110
1111111110110010
1000000
1001011
1111111101010101
1111111110000100
1111111100110111
11001111
100001001
1001110
1111111110111001
1111111110010001
1111111110100110
1101100
1010011
1011000
101011
1111111100001110
11000010
11001101
10001
1111111111000011
1111111111001011
1111111110010100
1111111111001101
110010
1001101
1111111111011011
101101
1111111111000011
10000000
11000111
101100011
10011000
110010001
101111101
1001010100
100111011
111101101
1000110100
1111111110100011
1111111111100011
110110
10110000
1101100
1111111101111001
1100111
1001100
1100101
100100
10101100
10001111
1111111110100101
1111111100000000
10010010
101011
110011
10001100
101001110
101111110
111110000
10001010100
10000101000
11100110010
11011001101
10111101000
10101011001
10011001101
1001010110
1000110101
1001100001
10101010
1001
100101100
11000000
1001101010
100010010
1000101
100010
1111111101011100
100000101
11011
1100010
1111010
11010110
101001010
1010011110
10001110010
10010000001
11010010101
100110010011
110000000010
111000101011
101101011110
100001101010
11100111101
11001010001
1100101101
1001011001
1100111010
1111111110100101
10011
110000101
1100001
1111111100110010
1111111011110011
1111111100100101
1111111011101111
10010100
1111111111100010
11001010
1110
10101
11101101
1000111001
10010101110
10011111111
100110000011
100110101110
101001011011
11111000110
110111001100
110111000000
101111101000
101100001010
10111111011
10100100
101011011
1111110110011000
1111110000111010
1111110111010111
1111111101011100
111011111
10110
10001101
1010111
11100010
1111111100101000
1111111111010001
100
101101001
11100
1011111011
1111111110110100
1111110100001010
1111111011101110
1000010011
1111101100
1001110110
11001000010
10101110011
11101010110
10111101110
1111110000
1100111100
1000100111
10001000010
11101111
1111110010111100
1111111011110111
11110000
1101100
10010001
10110010
1111111101100110
1110101
1110101
101100001
1111111010110110
1111111011001010
101000
1111101111100000
1111111010001000
1001111111
1111111100111001
1111111011011111
1111111101
1111111110001011
1111111001110000
1111111011110110
1111111001001110
1010111110
10010001100
111100110
1010000
1011110111
1111111111000110
11100101
1110001100
1111111011000101
1111111110101101
1010001
1111111110101001
1111111110011001
1111111100110011
10000
11010110
10011010
1111111110011000
1111111110000011
1111101011010100
1111101110001100
100111
1111110001000110
1111110010011001
1111111111010000
10001111
1111110000011100
1111110011000010
1111111111111000
100011010
1111101011000001
111100
1111111111010101
101010110
10110111001
10001011010
1111111101101001
1111111111101101
1111111111011010
1111111101110001
1111111011100100
1111111011001001
1111111000010111
1111111110001100
1001001100
1111110011010000
1111111011110100
10000011
100001100
1111111100111101
1111111100000010
1000110011
1111111000000101
1111101100100110
1101000111
1111111110001111
1111110101000000
11011
1111111011011010
1100111001
1001011110
110001011
1111101101
10001111111
1010011000
10010100
1111111111000111
1111111111101010
1111111101110011
1111110110000010
1100000
1100100001
110011001
11000010
110100011
1111110100110010
1111110001010100
1111110101110000
1111100110111001
1111101011011001
1111110010110010
1111111001100000
100110
1111101100000100
1111111100101001
1111111001111001
10011111
10011001010
101111010
11111011101
100000100000
11011011000
1111001111
1111111110011100
1111111111100100
100001
1111111010010100
1111111001110101
10001000
1001001100
1111111011111110
1111111110101001
1111110111010100
1111101000100010
1111110011101111
10101101
1111110101101110
1111101100111100
1100000101
1111111010101111
1101101011
101011010
1111110010001110
1111111001111100
1011011101
1111110010011001
10011011
101100011101
101100100000
100100010100
1010001001
100000000
1111111110010000
1111111101100001
1111111111110101
1111111011111010
1111111101111011
1111111011011110
1111101100011000
1111100110101100
1111101110110101
1111101100101111
1111111011110111
1111101011110101
1111110101111101
11110011111
10001001000
1111011001011100
1111011101011100
1111011000111010
1111100011111101
1111110001010000
1111101100010001
1111101011010101
1111111110101000
10000011010
101010010011
10100111010
1110111
11111100
1111111010101111
1001100
1111111110100001
1111111111001000
1111111001011110
1111111011010011
1111100000101110
1111101101010010
1111011110110001
1111101001010001
1111101011101101
1111110011011111
1111110000111010
11001010101
10111111011
1111100101011001
1111011111100001
1111100111101110
1111010011001001
1111110001011010
1111101111101100
110011100
101100011
11000111111
100101000001
1000010000
11101111
100101110
1111111101011000
1111111101000101
1111111101100110
10101
1111101100100001
1111101000011111
1111100100011011
1111110001101011
1111110100101101
1111111010101110
1111110000001110
1001110
10000010100
110000001110
1111110110011101
1111100010101000
100101000
1111101001011100
1111111111010100
1111111011101110
1111101001101000
1111110011000010
100101101
11011110110
11100100101
101110100
11101010
11000110
100111
1111111111110100
1101010
1111111010111000
1111110001111011
1111110011000100
1111111011110001
1111111111101001
1111111100100101
100101111
1111111000010000
111001011
10010000100
1101000001
100011001
1111100111111110
1111101010111100
1111001110101100
1111100110101000
1111100000111000
1111011001011010
1111101110110101
1111101011011010
110001110
10100000110
1101011
11100101
1111111110110011
10101110
10000010
1011111
1011010
1111111011011100
101101001
1111111001010110
1111111111000000
1110101
1111111101000110
1111110110110101
1000101000
10011010111
11000011101
101111000
1111101010101101
1111101000001011
1111010101110010
1111101110011001
1111110001011011
1111110100001000
1111101110000100
1111101101010100
11111101
1110001001
111101101
0
1111111110001001
101011001
1010000
1111111101000001
1001100011
1101111101
1110101100
1111110110101001
1111101111010100
1111010111000111
10100100
1100110110
1000000011
111000111
101000100
1111111010011001
1111011111111010
1111110110100011
1111011110011000
1111101100100111
1111111111011101
1111110011101110
1111101111001000
1111110100111000
11100011
10010001000
10001000001
101110
100101
1111011
10100
10111111
1110000111
11000011111
10111001101
111000001
1111101100010110
1111100011101111
1010
10110000101
1111111111110111
1111111000101111
1111110000101001
1111101110010000
1111011100100001
1111111011000001
1111101011110010
1111101110011000
10100011110
1001110001
1111110110111001
1111100010
11000011
1101110011
1101111011
1010
1111111110101011
1000111
10010001
1111111110011100
1110110110
1011011110
101110110
11110110010
1000111011
1111111001001100
1111111100111111
111100010
1111101100010000
1111110110110100
1111110100010101
1111110010101010
1111101001000010
10011000
10001010111
1111001010
1011101001
1111111001001001
11000011
110001000010
100111011111
11011100111
1110110011
1111111101110111
1111111101111111
1111111011110100
1111111101100100
1111111100010110
101010101
101101101
1100010111
10011000011
100001001001
101111000001
111111110011
101011001110
11001010001
11010001111
100000100110
1001010110
10010000110
11111101010
100011000000
100110000001
10100001010
10101101100
100010100110
111000100101
110100000100
10001100011
11100010
1111111110110011
1111111110110101
100000
1111111110011111
1000101
100010010
1110011110
10011001100
11101111011
101101111000
110111100110
110001001001
111000000000
111000100111
101010110001
100010011110
100010100001
101000111011
1100011101
11001110001
110101101000
101010110101
101011000001
11010110101
100111110001
100010001110
100011110
1111111111011001
1111111101101100
1111111101011101
11000001
100101
11010001
1001001000
10101000010
11110110011
110010011110
101110010100
11111101110
10000011100
100100101010
101100001000
1000111000
101110001100
100011010101
100111000110
101011100
11111011011
101001111110
11111101001
11011011111
11001111000
11110111110
11000000001
100101110
1111111010110011
1111111101001110
1111111110011101
1101111
10100110
10001111
110100001
10011111011
10111010111
11010111101
11010101111
10000
111100101
1111010101
1101101110
1011100001
11111001010
11001011001
11011100110
10100000001
100000001000
11100111100
10001010011
10110011111
1000011001
10100100100
1001100000
1001000
1111111101100000
10100101
1101000
1111111111011011
1110101
10111100
11110101
1101011101
1011111000
11001010
1111111110100100
100111000
10100100011
1001101100
11001001100
11011100010
1000100111
101001111
11110110001
100010111100
10000100101
1110000000
1100111010
10010110101
111110001
1010011110
1010101101
100100010
10110101
10010
10110110
10010111
1
111001101
1111111111010001
1111111011100111
1111100111000011
1111110001010101
101000111
100110000
11110011011
1111111110111000
11000001011
101110000000
11000100010
101110101100
11000010001
101010001100
10010011111
10000100001
10010001000
111
1111111111100110
110010100
10111101
10101100
10100110
1111111111001111
11101100
100111
11010
1111111111110100
1111111010111010
1111111000011101
1111100111100111
1111111010100011
1111111101011100
1111111110011110
10011010101
11000000000
10101110110
10011110101
10010110010
110101100
1010000
10000110011
1111001001
111101100
101111111
1111110001110101
1111110001111011
1111111001001101
1111111010110101
1111111111011110
11000101
1101
10000
1001010011
11010100
1111111110000111
101010000
1111111111011010
1111111001010110
1111111010011010
1111111011000101
1111111010000100
1111110101000100
1111110100010000
1111110011111010
1111111100111110
1111101101100000
1111100000100101
1111110100100000
101010
1111111110100000
1111111001011001
1111110100101111
1111111010110111
1111111001010000
1111110111111101
11110110
1111111101010011
1110101
1111111111001101
1111111110100011
10000011
11010000
100
1111111101001010
1111111101110010
1111111111010001
1110
1100010
1111111011001111
11111001
1111111100010000
1111111011011101
1111111
1111111111000111
1111111101001000
10010001
110111
1111111100100110
1111111111000110
1111111101101000
1111111110110100
1111111111100111
1111111111011100
110010
11111000
1111111110111110
11110100
1111111011011001
