0000000000100001
0000000000011111
0000000010011101
1111111010111011
0000000000101000
0000000000000000
0000000001010001
0000000000000100
1111111010010101
0000000001010011
0000000000100111
0000000000010101
0000000000110101
0000000011010101
0000000001111111
1111111111101101
0000000000010010
0000000001111000
0000000001000101
1111111111111000
1111111101001111
1111111101111111
1111111101011001
1111111111010000
0000000000000001
0000000000011100
1111111100101000
0000000001010011
0000000011010110
1111111101110111
1111111101001011
1111111111111000
0000000011001011
1111111111111010
0000000000001001
1111111101111100
1111111101011011
1111111100000000
1111111111100011
1111111111100011
0000000000110111
1111111011101010
0000000001111110
1111111110100011
0000000001111001
0000000010000100
1111111101111010
0000000011101011
1111111111100001
1111111110001011
0000000001001100
0000000000101101
0000000000011010
1111111111001100
1111111100000100
0000000000010110
0000000000111011
0000000010010000
0000000000101101
1111111111011100
1111111101111000
0000000001001011
1111111100100100
1111111100110110
1111111100101011
1111111010111101
1111111100011111
1111111101000000
0000000010001110
0000000101011001
0000000010111111
0000000011111111
1111111011010010
1111111000010000
1111111001101101
1111110110011111
1111111110110010
1111111010110110
1111111100011011
1111111100110101
1111111111110010
0000000100000010
0000000000101011
1111111110111101
1111111100100000
0000000001100111
0000000011000001
1111111111001100
0000000000010000
1111111110111101
1111111111000101
0000000000010101
0000000000000101
0000000101100001
0000000011001000
1111111111000101
0000001000000101
0000000101101001
0000000000111011
0000000111001100
0000000101000111
1111111110011100
1111111100110001
1111110001101101
1111110011111101
1111110110001010
1111111001100001
1111111110001110
1111111010111000
0000000000010110
1111111101100010
1111111101001001
1111111110010011
1111111010010100
0000000000010011
1111111111110000
0000000010011101
0000000100111010
0000000001111010
1111111101110110
0000000010010011
0000001001010101
0000000111001001
0000000011010010
0000001100000010
0000001000001000
0000010111110101
0000011001111011
0000001000111001
0000000011011010
1111111110010101
1111111100000001
1111111101001001
1111101101101000
1111110110110000
1111110010101100
0000000100000100
0000000001010100
1111111111111111
0000000010000110
1111111100000010
1111111100101110
1111111101000101
0000000010010101
0000000100000110
0000001000001111
0000000011111000
1111111110101001
1111111011101011
1111111100010010
1111110101001111
0000000011101100
1111111111101001
1111111111101000
0000001110010011
0000001000001001
0000001110110101
0000001011001000
0000000111011011
0000000011000110
0000000000111010
1111111101101110
1111101101011011
1111101001100110
1111111011001011
0000000001111111
1111111011101001
1111111111010101
1111111110100100
1111111011110010
0000000001011011
0000000000010101
0000000100100011
0000001000110011
0000000100000011
1111110100011000
1111110100011000
1111110111001000
1111111110001111
0000000101000000
1111111010111100
1111111111100010
1111111110111001
0000001100001110
0000001110101001
0000001001111000
0000010000000011
0000001000010101
0000000111101001
0000000000010011
1111111000101101
1111101111111101
1111111000101000
0000000000101101
0000000101000110
0000000001010110
1111111110001100
0000000000111101
1111111110011011
0000000110110000
0000001000100001
0000001000110000
1111111110000110
1111111001110111
1111111111110111
1111111111001011
1111111000100111
1111111101101101
1111111010000100
1111111110111000
1111111010000100
1111111111011101
1111111001011001
0000000000100011
0000001011000101
0000001110110110
0000001000010100
0000000000011101
0000000011110110
1111111000011011
1111111101111101
0000000001010001
0000000011111110
1111111110110001
0000000000000000
0000000011010100
0000000001111010
1111111110001110
0000000011011001
0000001100011111
0000000110110011
0000001010110000
1111111111010000
0000000101001100
0000000100111001
0000000001110001
0000001010101111
0000000100001011
1111110011111101
1111110110111111
1111110111000111
0000000111000101
0000010000011000
0000010100111110
0000000110000000
0000001001001011
0000001100100101
0000000011010010
1111111101100001
0000000001011111
0000000001000000
0000000010110111
1111111111000111
0000000100110011
1111111110100001
0000000011000000
0000010000000011
0000010000010001
0000010001110100
0000001010001100
0000000101010010
0000001000100000
0000000110000110
0000000101001011
1111110100000010
1111100000011001
1111101000100000
0000001001011010
0000011001110011
0000011001000100
0000001111001001
0000010000101001
0000001101010011
0000010001110010
0000011000011011
0000010001101000
1111111111001111
1111111011100011
0000000000000101
1111111110011000
1111111111110011
0000000010101100
0000000010001101
0000001001011011
0000001001100101
0000001110000010
0000010110001101
0000001110001000
0000001100110000
0000000110001011
0000000010111010
1111111001000100
1111011011001111
1111011000110010
0000010011111000
0000011110100010
0000001111101010
0000010000011111
0000001011100001
0000010000000010
0000000011001110
0000010010000101
0000010101010111
0000010101001101
0000000111010110
1111111111111001
0000000001001111
0000000000011110
0000000001000111
0000000000000000
0000000100100011
0000000010011100
0000000100110111
0000001000101100
0000000101100111
0000000011111111
1111110001101000
1111110011110110
1111100111000001
1111011010000011
1111010101000011
0000001000010100
0001000000011001
0000011100100101
1111101101011010
1111110001001100
1111111011001001
0000001001011100
0000001000101010
0000001000111111
0000001000101101
0000000110110110
0000010001011100
0000001100110001
0000000110101110
0000000000110100
0000000000010011
0000000000011100
0000000001010000
0000000000110101
1111111001101101
1111111100011111
1111100001111000
1111100010000010
1111010010111101
1111011011010001
1111010101110001
1111100011111101
1111110100010010
0000010110100100
0000101101001011
0000001101011111
1111110000000001
1111110101101110
1111110100001110
0000000010011100
0000000000000100
0000001101000100
1111111101000001
1111111101101000
0000001010111110
0000010001100000
0000001011100101
0000000000011000
1111111011111010
0000000001001001
1111111111011100
1111111011100001
1111101011011000
1111011100100110
1111010001000101
1111011111110101
1111101001010110
1111101101011010
1111101001100101
1111110010111001
0000001100001000
0000011101001001
0000010110011011
0000001010111100
0000001011010110
1111110101010111
1111111101001001
0000000001011010
0000001100000011
0000000011100101
1111101010000011
1111100010001101
1111111110001001
0000010001100011
0000000111011010
0000000011011110
1111111110100001
1111111111000010
1111111111100110
1111111000100111
1111101100001101
1111010101001101
1111010000101010
1111101111101111
1111101110100011
0000000100000110
1111111011001000
0000010010100101
0000001101110001
0000011111010110
0000011111111011
0000000000011100
0000000011100010
1111111001010100
1111110111110110
0000000000010001
1111110110110110
1111111011111000
1111101100010101
1111100001101101
1111110101100111
0000001001000111
0000000111000101
1111111110011111
1111111110111011
1111111111111011
1111111110111100
0000000010110001
1111111010101110
1111101000011100
1111100101000010
1111110010001001
1111110011111010
0000001001101010
1111111111010100
0000001111011010
0000001010010110
0000101100101000
0000100000101110
0000010001000101
0000000111011100
1111101100010000
1111101111100101
1111111111110101
1111110010111101
1111110100000110
1111101110000100
1111101111000001
1111111010000100
0000001010100010
0000000010010001
1111111111100111
1111111110101011
0000000011010000
0000000100000110
0000000000100111
0000001010010000
1111111111100100
1111110100000000
1111110101011100
1111111001101011
1111111000001000
1111101111001000
1111111111111010
0000001011111101
0000100111011100
0000010111101010
0000000101101000
0000000000101000
1111111000011010
1111111101100110
0000000000101110
1111110101001111
1111110111000011
1111110101001110
1111111101101101
0000001011111101
0000010010101111
0000001000011000
1111111111011101
0000000010110101
1111111110111000
1111111110101010
0000000110111011
0000010000011001
0000000010101000
1111111010010110
1111111110001011
0000000101000110
1111111111000010
0000000000011101
0000000010111000
0000011001111010
0000101011010101
0000011000011001
1111111101000001
1111111001100100
1111101001111000
1111101011100100
0000000011000100
1111111110100000
1111110111101000
0000000011110110
0000000110110001
0000010100001001
0000001100010101
0000001000101001
0000000011001110
1111111111001001
0000000001100001
0000000000101111
0000001000111000
0000001111111110
0000011100000111
0000001001011011
0000000001010101
1111110111001110
1111111101000001
0000000011100000
0000010000011010
0000011011011100
0000101100010001
0000000001011000
1111101001011010
1111101001010000
1111111000000101
1111111011011101
1111111000101011
1111111110101111
1111111001101011
0000001011100000
0000010000100010
0000011000010111
0000001011100001
0000000100011101
0000000011101001
1111111100100001
1111111101111111
1111111100011111
0000000011000000
0000000001010011
0000001010110111
0000001000110010
0000000111000111
0000001001100000
0000010111011000
0000010000101000
0000001111011110
0000010101010011
0000000001010011
1111100101000111
1111110100111000
1111111101100001
1111111100011110
1111111001110111
1111110010100110
1111111101001101
1111111101110110
0000000101000000
0000010000011111
0000001000110010
0000001001110001
0000000011111001
0000000010010011
1111111101100010
0000000000101111
1111111100000100
0000000110100111
1111111111111110
0000000010100100
0000001001110000
0000011000000110
0000011011111001
0000011101111000
0000010100010101
0000010100000100
0000000001101101
1111101110111101
1111011110100001
1111110101101010
1111110011000101
0000000000001011
1111111101011000
0000000010100101
1111111011101111
0000000010111001
0000000011100010
0000000100010110
0000000011000111
0000000101000110
0000000011100100
0000000011110111
1111111110110000
0000000001101110
1111111011010010
0000000101011001
0000000101100100
0000000011011000
0000001010110100
0000001011101111
0000001010110101
0000010111110001
0000001000010101
1111111011001001
1111101001010100
1111110010110011
1111110000111110
1111101100111001
1111110100101000
1111111001010001
1111111000010110
1111111000001010
1111110010000111
1111110100111010
0000001000110111
1111111111111110
1111111100101010
1111111111011111
0000000011100010
0000000010100000
1111111101111101
0000000001111000
0000000100110111
0000000101101011
0000001110100111
0000001110000110
0000010111000101
0000011101010101
0000001110110110
0000000011101010
1111111111011011
1111101110001101
1111110001000001
1111110010001001
1111111110101101
1111111111101101
1111110100110000
1111111110000010
1111110111000101
0000000010100100
0000000110101101
0000000100100100
0000000011101011
1111111011001011
0000000011101000
0000000001101000
0000000010000100
0000000011001010
1111111011101011
1111111100100011
0000000100010001
0000000010101101
0000000110111111
0000001010110101
0000001110100111
0000010001111110
0000001001000000
1111111010101101
1111110110100000
1111111011111100
0000000010100111
0000000000001010
1111111001000000
1111111010000001
0000000101010100
1111111111100001
0000000111100101
0000001110010001
0000000001011101
0000000000100001
1111111111000001
0000000001110111
0000000010010000
0000000000011101
0000000000101011
1111111110010101
1111111110000000
1111111100010011
0000000001111010
0000000011011110
0000000100010011
0000000101010010
0000001101011000
0000001111011111
1111111100100001
1111110010000010
1111110101110111
0000000011111001
0000000010111110
0000000010100110
0000000010101101
1111111010110000
1111111010001010
1111110010010011
1111111101001100
1111111101001011
1111110101100011
1111110111010110
1111111011101001
1111111111111101
1111111111001000
0000000010000110
0000000000011001
1111111110101110
0000000001111101
0000000001101100
0000000000100111
0000000001000001
0000000001100001
0000000111001000
0000000110001110
0000000101110000
1111111000100101
1111110110011011
1111111110000101
1111110110100011
1111111111101111
1111111100011011
1111111010000110
1111101111011110
1111110110010001
1111110010100000
1111110010100010
1111110110110011
1111111001110111
1111111100011001
1111111010001111
1111111010111000
1111111110111010
0000000110011010
0000000100000010
1111111110001000
1111111110100110
0000000010011111
1111111101001111
0000000000111010
1111111111000111
0000000000001100
1111111100000001
1111111110001100
0000000000001010
1111111001011001
1111111010001000
1111111011001101
1111111001110000
1111111111010011
1111110110111111
1111110101110100
1111111100111010
1111111101010111
1111111011100101
1111111101110110
1111111010100011
1111110110110100
1111111100000000
0000000001011000
0000000010010100
0000000010110110
0000000000001001
0000000110100000
0000000010001101
1111111101110010
1111111101101111
1111111110101000
1111111111111110
0000000000011011
1111111100011111
1111111110001111
0000000001010101
0000000011001011
0000000011001100
0000000001100110
0000000000110101
1111111110110100
0000000100001001
0000000000101110
0000000001000110
0000000000100001
1111111011000110
1111111110101011
0000000000101010
0000000000001100
0000000000100011
0000000011011010
0000000011000110
0000000000010101
0000000000000100
1111111111000000
