0000000000000100
1111111110101010
1111111100100000
0000000001101100
0000000011011001
0000000011011111
0000000000110111
1111111011010010
1111111111111100
1111111111000101
1111111111011100
1111111111011100
1111111111111010
0000000000101110
0000000001110010
0000000000000110
0000000010001110
1111111111011100
0000000001111011
1111111111011110
1111111100111100
0000000011011001
1111111011011010
1111111101101111
0000000001011010
1111111111100000
0000000000010100
0000000010100001
1111111110110000
0000000000100011
1111111111101111
1111111110111001
1111111101101001
1111111111001001
0000000000111111
1111111101110111
0000000001110001
0000000100100010
1111111111011100
0000000000011110
0000000000010110
1111111111110100
0000000111010010
0000001000010100
1111111010010100
0000000000001001
1111111110011110
0000000000011100
0000000001110111
0000000000101110
1111111110100001
1111111101110111
0000000001111111
0000000000010110
0000000010100111
1111111110010000
0000000101011000
0000000001110110
1111111101100101
1111111110111111
1111111111001000
0000000000100110
0000000000110000
0000000001100001
0000000000001001
0000000100111001
0000000111001001
0000000110000101
0000000110011001
0000001011000000
0000001101001111
0000010010101000
0000001111001001
0000001001010110
0000001000110101
0000000011001100
0000000110010110
0000000101010010
0000000100011101
0000000001000101
1111111111000011
1111111111000001
1111111110001100
1111111111010011
0000000010011010
0000000001100101
1111111110010001
0000000001001111
0000000100101101
0000000000010001
0000000011010001
0000001000101110
0000000010101101
0000001000001000
0000001000000001
0000000111110010
0000000001010101
0000001011001111
0000001111010011
0000001010011110
0000000101100010
0000001101010010
0000000110111001
1111111110101100
0000000000111100
0000000001011100
1111111110001110
1111111110011000
1111110111110001
1111111101100110
0000000000101101
1111111111101110
0000000011010111
0000000011001110
0000000000001011
1111111111100001
1111111111110000
1111111110011001
0000000011111100
1111111101011011
1111111111101110
0000001011001000
0000000111000010
1111110110101111
1111110100100001
1111110000110100
1111111000000011
1111111011110010
1111111110010010
0000000101101110
1111111000110010
1111111010011010
0000001010101110
0000000010010001
0000000001000001
0000000000111111
1111110000111011
1111111000010011
0000000000000010
1111111101010110
1111111110011100
1111111111010010
1111111111001101
1111111100011001
1111111110001011
1111111110111110
0000000001001001
1111110010101110
1111110101101100
1111110101001110
1111101111111111
1111101111001001
1111110111110010
1111110100100110
1111111010010110
1111110110111111
1111011100001110
1111110001111000
1111100101010101
1111111011111100
1111110100010000
1111111101110110
0000000100001111
1111111111000110
1111110111000011
1111111011100000
1111111101100110
1111111100010100
1111111111111100
0000000000110010
1111111100100011
1111111110110110
1111111010111111
1111110111000100
1111110111110100
1111101110010010
1111101011000100
1111101101000001
1111101111110000
1111101111001010
1111110101001110
1111110111100111
0000000000101111
0000001100000011
1111110111001010
1111111101001010
1111101110111100
1111110101000100
1111110000111101
1111111100001111
0000000010111001
1111111101100111
1111110110001100
1111110110001110
1111111011001100
0000000000001100
0000000001000011
1111111110110110
1111111101011011
1111111010001001
1111110111010101
1111101111100111
1111101111101110
1111101111111110
1111100111100001
1111101000001001
1111101011011101
1111110110001101
1111110111100100
1111110001011001
0000000111001000
0000001010110011
1111111011010100
1111110011111110
1111101101000100
1111110101100001
1111110011101110
0000000000000110
1111110100111101
1111110101011111
1111111001001110
1111110000000100
1111111101000110
0000000000011001
1111111111001111
1111111111110110
0000000001100000
1111111110100000
1111110100101111
1111110010101110
1111110010000001
1111110110000011
1111110101001100
1111111101100110
1111111101011010
1111110110110100
0000000001110110
1111111110001110
0000000010001100
1111110111010101
1111110010110101
1111110100001100
1111101100100100
1111110001101000
1111110110001010
0000000101011111
1111110001101000
1111101011111001
1111111001110000
1111110011001001
1111111110111110
0000000000000111
0000000000100101
0000000011101101
1111110111110001
1111110011100111
1111101101001000
1111110011000000
1111101111101011
0000000001100010
0000001101001011
1111110100000100
1111111110010100
0000000000011001
1111111111111010
0000001010110001
1111111110000100
1111111110111110
1111101010010101
1111101101100110
1111110100001100
1111101110110101
1111100110101011
1111101100010111
1111101101010111
1111101101011010
1111011111110101
1111100011010000
1111110110111101
1111111101100110
1111111111011000
1111111100110100
1111111100101110
1111110111110111
1111100110000100
1111100111101011
1111111011010011
0000100000001110
0000010110001010
0000000001011001
0000001001101000
0000000011100001
0000001010000111
1111111101000010
0000000110011010
1111111010111010
1111110110101100
1111101010100101
0000000000010000
1111101111111101
1111100100001101
1111101101000110
1111111011101110
1111100110100001
1111010010010100
1111010110101100
1111110010100011
1111111111011001
0000000001010000
1111111110110100
1111111101011100
1111111001000101
1111101110011011
1111111101000000
0000010010101100
0000101110111100
0000100101000011
0000001111101000
0000001111000100
0000010001010011
1111111110111000
0000000100011010
0000100010011011
0000011000111011
1111110010011111
1111111111011000
1111101110100110
1111111101110001
0000010101000111
0000100001001011
0000100101111110
0000001110110101
1111110110111011
1111101110010011
1111111001011001
1111111101000010
1111111100011001
0000000001010111
1111111111100011
1111111100010111
1111111000011010
0000010011011111
0000011101110010
0000100011010110
0000001000100010
0000010100000101
0000001011010011
1111111111100011
1111111011110001
1111111111101100
0000101011110100
0000011110100111
0000001001000000
0000011000011001
0000001101000001
0000011000000100
0000110010111001
0001001000000110
0001000110101010
0000101110101010
0000010000100001
0000000000100110
0000000000101011
0000000000101100
1111111111110011
0000000100010100
1111111100100111
0000000001011110
0000000010011001
0000000101111100
0000001101010010
0000001111111001
1111111101111100
1111111111100001
1111111001111001
1111101011100010
1111111010101100
0000001011101010
0000100100000010
0000100111110001
0000010000110011
0000001000111110
0000011000100110
0000101010110100
0000110010100010
0000110100110000
0000100001110101
0000010111100011
0000001010110010
0000000000011101
0000000101100000
1111111110011101
1111111101101110
1111111110111010
1111111101101100
1111111110001110
1111111011100110
1111111111001110
1111111101000000
1111111000001110
1111110011100110
1111110110010011
1111110010011000
0000000100111101
0000001110111110
0000011010001001
0000101010101001
0000010101111101
0000000111000111
0000010001111100
0000010011101111
0000010101110010
0000000111001000
0000001100100001
1111111010010010
1111110101000001
1111111101000011
0000000000011100
0000000000111011
0000000000101110
0000000010111001
1111111110010101
0000000001110110
1111111111000100
0000000000101100
0000000010111010
1111110100011011
1111110001011011
1111101011011101
1111101011011010
1111110110100110
0000001100011111
0000001100101110
0000011100001010
0000111000011100
0000010011111001
0000010100011110
0000010011110100
0000000011110001
1111110111100011
1111011111111001
1111100011010110
1111110010110110
1111101100011010
1111111001000011
1111111010100000
1111111100100110
1111111110110010
0000000010001000
0000000000100000
0000000001111001
1111111010110110
0000000000000000
1111111011110001
1111110010011001
1111110101111000
1111110010010000
1111110110110110
0000001011101110
0000011100111111
0000000110101101
0000001101010010
0000110000010010
0000000100111110
0000010001011111
1111111100110101
1111100110101000
1111001110011111
1111011000110101
1111000111100100
1111101000011101
1111101000100100
1111101100111111
1111111000001111
0000000000111000
0000000001110000
0000000010110000
0000000000111000
1111111111001010
1111111110101011
1111110111001101
1111100110101001
1111011010110111
1111101100111001
1111111010110110
0000001001111001
0000001110111110
0000001110101101
0000010110101000
0000001101001011
0000010010111001
1111110100010000
1111101101101011
1111100010000000
1111100000000011
1111110111010101
1111101011001110
1111011000000010
1111100110011010
1111100110110101
1111101011010000
1111110111011001
0000000000100000
0000000010001011
1111111100000100
0000000000100000
0000000000010111
1111110111010011
1111100110101101
1111010110111011
1111000111101011
1111100010010011
0000000111110011
0000011011000001
0000011111110011
0000011010100101
0000010000011111
0000001001001001
0000001101101110
1111111101111100
1111101010010011
1111101001011110
1111111010001001
1111111111001001
1111110010110001
1111100000001010
1111011101100001
1111100111010100
1111101001010110
1111111010110111
1111111110010100
0000000000000110
1111111110111010
0000000011011101
0000000100101110
1111101110111111
1111011101111111
1111010101100001
1111010101111010
1111100110101100
1111101100011010
0000010001001010
0000001110010111
0000000111000111
0000001010001100
1111111111011101
1111110110101101
1111111011000001
0000000000110011
1111111100011110
1111110000001011
1111111010101110
0000000111100110
1111101000011010
1111011110111110
1111101001001010
1111110001010010
1111111000000111
1111111110100110
0000000010111010
1111111110100000
1111111101010000
1111111110101101
1111110011110011
1111100101111110
1111101001011100
1111101011000011
1111110011011110
1111101100110111
1111110010001111
1111110101011001
1111110100101001
0000000000111101
0000000001000000
0000001001010000
0000000110000001
1111111111110101
0000000001010000
1111111111100001
0000000100100101
0000000111001011
1111110110001110
1111101010111011
1111110000011101
1111110100111101
1111111111000010
1111111111111011
0000000000001010
1111111111011000
0000000001100111
1111111101100101
1111111001000000
1111100111001101
1111111000011110
0000000000010111
1111110110100101
1111101101100100
0000000101011000
0000001101111000
1111101101101001
1111111101011010
1111111101000111
1111111010111111
1111111101000110
1111110100000001
1111101010100111
1111111100001011
1111111001010010
1111101101100011
1111110011011010
1111101111011010
1111101111011110
1111110110111000
1111111100101001
0000000000111011
1111111101100101
0000000001011110
1111111111111010
1111111111000110
1111111000110100
1111101011000000
1111111111010000
0000000011100010
0000000001001100
1111111001011101
1111101100001110
1111110111000001
1111110011101110
1111110011100001
1111111001010101
0000000001001000
0000000110100111
0000001110011010
0000001101101111
1111111100011000
1111100111100111
1111110010111000
1111110011100100
1111110111001010
1111111101010011
1111111110110000
1111111100111010
0000000000110111
0000000001011100
1111111111111101
1111111111101001
1111111110110000
1111111110110000
1111110000111010
1111110100010001
1111110011010110
1111110101011100
0000001000110011
1111111110000010
1111111011011110
1111111010101110
0000010110110110
0000000100101101
1111111010100010
1111110100001101
0000001001101100
0000010001010010
0000000101001001
0000000000000110
1111110100110001
1111111001000000
1111111111010110
0000000011001100
1111111101100111
1111111101011100
0000000000111110
1111111101110110
0000000001100110
0000000000101000
0000000010100111
1111111010001001
1111110111110001
1111110011010001
1111110001110111
1111101111110111
1111111000010000
1111110110011001
1111111000010011
0000000100010101
0000000011011110
1111110011001000
1111110001101110
1111111011110111
0000010001010110
0000001110001011
0000010000101100
0000011000111100
0000001100011001
0000000111000010
0000000011100110
0000000001111001
0000000000101101
1111111111010100
1111111111010101
0000000011000100
0000000001011001
1111111111010011
1111111110110100
1111111111010110
1111111101000111
1111111011011011
1111111100010101
0000000001100010
1111111110101001
1111110010101101
1111101110110101
1111110010010010
1111110110110011
1111111001011110
1111111100111011
1111110100011111
1111111101001111
1111111110111011
0000000100011000
0000000011000101
0000001011001011
0000000101010111
0000000001111100
0000000000110001
1111111111101010
0000000010111101
0000000010000111
0000000010100110
0000000000001001
1111111110010001
1111111100010011
1111111110110011
0000000001110101
1111111101110011
0000000010110110
0000000000010001
0000000001100111
0000000001000000
1111111110111000
1111111001111000
0000000000111011
0000001101011101
0000010110100001
0000000000010101
1111111111110100
0000000000001011
0000000010100101
0000000001000001
0000000101010111
0000000001111000
0000000000101111
0000000001010001
0000000000111111
1111111110010101
1111111110110101
0000000000100101
1111111111101010
0000000000101010
1111111110101011
0000000000001010
1111111111101001
0000000000110111
0000000000011000
1111111110110010
1111111100101001
1111111111100111
0000000000100001
0000000110110011
0000000000101110
1111111110010000
0000000000000111
1111111101011100
1111111101011011
1111111111011010
0000000011101001
0000000010001111
0000000001100001
0000000010000110
1111111110110001
1111111101010111
0000000011011110
0000000011101000
1111111011010010
0000000010011010
