1111111101101011
1111111111101100
0000000000001001
1111111110001000
1111111101111110
0000000000101101
0000000000111111
1111111110110110
0000000010100010
1111111110011101
1111111111101100
1111111111111011
1111111111101110
0000000010101011
0000000010010010
0000000010111011
0000000010101011
0000000001100001
0000000110111011
1111111101110000
1111111110001011
1111111100010100
0000000011001011
0000000000111011
0000000001001110
1111111101000000
1111111111110000
0000000001001111
1111111010010100
0000000011010011
1111111111011110
0000000001010011
0000000000011001
1111111101100000
0000000000001110
1111111110100011
1111111100101101
0000000000111011
0000000001001100
0000000010000010
1111111111100010
0000000001011100
0000000001101110
0000000011001101
0000000110000101
0000000000011101
0000000001111000
0000000100101010
1111111111001100
1111111111100100
0000000010011111
0000000010001001
0000000000100101
0000000000011011
0000000000000100
1111111110111000
0000000001000111
0000000010011110
0000000100000001
0000000000010001
1111111110000110
0000000011010010
1111111111001111
0000000000001101
0000000011011000
1111111111101001
0000000011001110
0000000100001001
0000000101110010
0000000110100000
0000000010001001
0000000100110111
0000000110100101
0000000110100101
1111111110111011
0000000010001110
0000000010100110
0000000001001100
0000000000000000
1111111110010100
0000000011111010
1111111100110001
1111111111011111
1111111101111000
1111111011010100
0000000010111010
1111111111111110
0000000010101100
1111111110111000
1111111110110111
0000000111100010
1111111110010100
0000000010111001
0000000001100101
0000000010110010
1111111110000011
0000000111011000
0000001001111111
0000001010011001
0000000111101000
0000000110111110
1111111111101111
0000000001110001
0000000000110011
0000000010000010
0000000000011010
0000000001110010
1111111111111010
0000000000011011
1111111111000000
0000000000000001
1111111101001011
0000000010000000
1111111101001100
1111111010111111
0000000001101101
0000000000000010
1111111100000011
0000000011100011
1111111110100011
1111111110110110
1111111010101001
1111111010001011
1111111011010110
1111110101111100
1111110000001101
1111110010011111
1111101111000011
1111101010010010
1111101010101100
1111110101110011
1111111010000111
1111111001011110
1111111111100000
1111111101000101
1111111111011110
1111111111010001
1111111010001011
0000000001001111
1111111101010010
1111111100110101
0000000110001111
1111111110011110
1111111111000111
1111111110001110
1111111110000111
1111111101100110
1111111000001101
1111110010111010
1111110001111110
1111101111110011
1111110010000111
1111101010100001
1111101110011110
1111011001011110
1111011100100110
1111001010111110
1111000110100101
1111100111011110
1111101110100101
1111101111101001
1111110110000000
1111110100111000
1111111101001100
0000000001111100
1111111111011100
1111111100111111
1111111101010110
1111111100100001
0000000001001001
1111111111001000
1111111111100101
1111111111110111
1111110111011100
1111101111101100
1111101011111011
1111110000000110
1111110000001010
0000001000010111
0000010100100001
0000001001111001
0000000101011100
0000010101101011
0000000110111001
0000001110111100
0000001111111011
0000010010100101
0000000000101101
1111111100010110
0000000001011111
1111101100111000
1111100100000000
1111111001001111
0000000011110011
0000000001011001
0000000100011100
0000000000000101
1111111100000100
1111111111101010
1111111110101101
1111111010001100
1111110000010001
1111111011000110
1111110111110010
1111110111110010
0000001010110111
0000010110001100
0000001100110110
0000100001100011
0000011110111110
0000100111001100
0000011111110101
0000011111101101
0000001100010001
0000001011011011
0000000101001000
0000010000101011
0000000110000110
1111110101110000
1111110010110100
1111110011001000
1111111001100110
1111111101000101
0000000010001101
0000000000001011
0000000011001000
1111111110010000
1111111111001001
1111111100100100
1111111100101110
0000000010110010
0000000100001101
0000001001110100
0000001010101000
0000000010101011
1111111111111010
0000001110011001
0000001100001001
0000010100110001
0000000101010000
0000011011101111
0000011000001111
0000000001111000
0000000011010101
0000001010001000
0000000111110110
0000000001100111
0000000100101001
1111111001100011
1111110100010110
1111111100011100
0000000011001010
1111111111110101
1111111111000000
0000000001110100
0000000000111110
0000000011110011
0000001000110100
0000010100100110
0000001100000011
0000000000000111
0000001000011010
0000001110110100
0000001101011111
0000001111010000
0000001101111001
0000100001100101
0000011000001011
0000001001110010
0000010010010011
0000000110100000
0000000111001000
0000000011111110
0000000011000101
1111111110001110
1111110110111010
1111111111010011
1111111111000101
1111111101101111
1111111111110011
0000000010101000
0000000000101011
0000000010011110
0000001000101000
1111111110111000
0000000111111001
0000011010000011
0000000011010100
1111111001101010
0000000100000011
0000011001001010
0000010101111011
0000001001100111
0000101001001000
0000110110111110
0000010000110011
0000010011111100
1111111100111101
0000010001010000
0000000001101111
0000000111011110
0000010001100111
0000000011101101
1111111111001011
1111111111011110
0000000010000110
0000000010000100
1111111110110111
1111111101101100
0000000100001011
0000000111110011
0000001011000101
0000001100100100
0000010010000101
0000010111000101
0000001100001101
0000000111000100
0000001000111011
1111111111111000
0000010101111110
0000000110011101
0000101100110111
0000101101110000
0000010010100011
0000001010000110
0000001110001010
0000011001110101
0000001111011100
0000010101110111
0000010011101111
0000000101101111
0000001001110101
0000000100000101
0000000100111100
0000000000011011
1111111010100110
0000000000011010
0000000000000010
0000000010011001
0000000100011101
0000011000000010
0000100001010010
0000000101000100
0000000101001111
0000001000001101
0000001000100110
1111110010100000
1111101000110011
1111100001100111
1111110111110110
0000001101001110
0000000011100000
0000000111001100
0000011101110000
0000001101110101
0000000011101000
0000000111010101
1111110101000101
0000000101100011
1111111111100111
1111110110000101
1111111101100011
0000000010001000
0000000010101010
0000000000011000
1111111111110000
0000000010011101
0000001001101000
0000011000101010
0000001010011111
1111111100111000
1111110010010000
1111110111011110
1111101001010010
1111101110010111
1111100100010000
1111011100110100
0000000000100001
0000010001010000
1111110110010110
0000001010101011
1111111100001010
0000000001010110
0000000110000010
1111111100000110
1111111110011011
1111111011101111
1111110001101010
1111101100010111
0000000001001111
0000000001101011
0000000110100011
1111111111111011
1111111111011010
0000000010100010
0000000011011111
1111111111101100
1111101100000111
1111111100111111
1111101011000100
0000000000100111
1111111011111110
1111110100010000
1111011001111001
1111101110000111
0000000001010100
1111111101000101
1111111111110001
1111111101001010
1111101111001001
0000001100101101
0000000010001101
0000001011001010
0000000100111101
1111111011101011
1111110100100110
1111110010001001
1111111100001000
0000000011101011
0000000010000101
0000000100000110
1111111111010011
1111111101011000
1111111100111011
1111110111100011
1111111010101110
1111111101000000
1111110001011011
1111111000011001
1111110011000010
1111110110001111
1111110110010010
1111111010000000
1111111000001000
1111101111110111
1111111010001001
1111101111100100
0000010001101010
0000011000111100
0000000010010100
0000000011010100
0000000000001000
1111111001001010
1111101110011011
1111110101011011
1111111100111110
1111111111000011
1111111101100010
1111111100111001
0000000000111110
0000000000101110
1111110110100000
0000000010000100
0000000011100101
1111111101111111
1111111010010000
1111111011101100
1111100011110100
1111110110111100
1111111110001100
1111111011011110
1111101111100000
1111100010100011
1111100100000110
0000000110110001
0000000010111000
0000000010000011
1111111010010010
1111110010100100
1111110111111010
1111111010101011
1111101101101001
1111110010011011
0000000000000000
1111111110000110
0000000000111110
1111111011100100
0000000000111000
1111111011100101
1111110110100100
1111110110111010
1111111001000000
1111111100010010
0000000101011110
0000000111000100
0000000110111011
1111110110000101
1111111110111000
0000001111001100
0000000100100111
1111101110100001
0000000000110100
1111110111011100
1111111011111000
0000000110010101
0000000001110011
0000000001100010
1111110111101110
1111110101100101
1111110011010110
1111101111111111
1111111110001100
1111111111011100
0000000000111010
0000000010011001
0000000001100011
1111111101000111
1111111101011011
1111110101010110
1111101101110111
1111110001111011
1111110111000010
1111111100010101
0000000101010101
0000001011000000
0000001011111100
1111111001110111
0000000101000111
1111111011100100
0000000111111000
1111110000011100
1111111110110011
1111111110010001
0000001010000100
1111111100010011
1111101000101001
1111100010111000
1111100101011101
1111101111111010
1111111101001100
0000000001101101
0000000000010011
1111111101000111
1111111111110001
0000000011011000
1111111100010010
1111110110100100
1111101000101110
1111011001101100
1111100010110100
1111101101001111
1111101011110101
1111110111011000
1111110000001101
1111111011011011
1111111111001001
1111101011010001
1111100001111010
1111101110001100
1111111011011100
1111110010000100
0000000011110010
1111110101111111
1111100111011000
1111100111101000
1111110000000111
1111111001010010
1111111010011010
1111111110100100
1111111111110111
1111111111000011
0000000000001100
0000000000010110
1111111111100000
1111110010011111
1111100011110101
1111010111011111
1111000111001101
1111000100100100
1111001001110011
1111001101110000
1111010011111010
1111100010011101
1111111100100111
1111110010010011
1111100000010111
1111101011001000
1111110000010101
1111100100101001
1111111101000010
1111101101001010
1111100011101001
1111101111001101
1111111010110010
1111111110100001
0000000000110110
1111111110001100
1111111110010100
0000000111110100
1111111111111001
1111111100001100
1111110110000101
1111101111100110
1111101010100000
1111011000101000
1111010100001110
1111011010110110
1111011101000001
1111010110011111
1111010110100100
1111100010001010
1111011111010101
1111100111010010
1111110011000110
1111110111111001
1111101111111101
1111011010000110
1111100100100110
1111110100110010
1111101010001100
1111101101110001
1111111011110001
0000000010011110
0000000000010010
0000000011011100
0000000001101101
1111111110101001
1111111111101100
1111111101100001
1111111100111111
1111111100001101
1111110000010110
1111100111010111
1111100110111001
0000000000010010
1111110001010010
1111101010011100
1111100001000000
1111101101100001
1111100100111001
1111110110011001
1111110100101001
1111110010001110
1111101011011100
1111011101110111
1111100010010010
1111101011101010
1111110010010110
1111111101111101
0000000100111110
1111111111111111
0000000010011100
0000000001110101
1111111101100110
0000000000110011
1111111100011001
1111111101110001
1111111111101101
1111111110100001
0000000101101000
0000001011001111
0000001011011000
0000001010011111
1111110101000000
0000000000000000
1111101111001001
1111110100011000
1111111000000010
1111101111000110
1111110010000001
1111100010100010
1111101110011111
1111100101100101
1111101111000111
1111101011011010
1111110101111110
0000001010000000
0000000001111110
0000000010101000
1111111110100101
0000000001001110
0000000000110001
0000000000111000
0000000001100000
1111111111101011
0000000010001110
0000001100011100
0000010110001100
0000100001000101
0000011111110000
0000011110010000
0000000001101010
0000000110000001
1111111100110110
1111111010001011
1111110101101010
1111111010011111
1111110011111000
1111100001110001
1111111111101110
1111111101000001
1111111010010000
0000000000111111
0000000001010011
0000000111000011
1111111100111101
1111111011111000
1111111101011010
0000000110001000
0000000001101010
0000000001010010
1111111111101101
0000000001000000
1111111100111011
0000001101001011
0000010011000101
0000010111001111
0000100001110110
0000101001010101
0000011110001110
0000011010101110
0000010110100010
0000011000000011
0000001010111110
0000000111011011
1111111110111111
0000001110101100
0000001101010011
0000010011100000
0000001101101001
0000001101110000
0000001100000101
0000000100100100
0000000000001101
0000000001010100
1111111111101100
1111111100100101
0000000001101101
1111111111101101
0000000001110010
1111111111111101
0000000000011111
1111111110011111
0000000111000110
0000001000111100
0000010000011110
0000001111011111
0000011000111101
0000011011000111
0000010010101011
0000010110011110
0000100011100011
0000101001011100
0000011111111111
0000011010001100
0000010110101001
0000011001111110
0000001111001110
0000001001000100
0000000101110101
0000000100000101
1111111111101001
1111111111110000
1111111011011001
0000000001111000
1111111111000111
1111111100000101
1111111111100000
0000000000110101
1111111110111101
1111111111111010
0000000000011101
1111111111000100
0000000011011001
0000000110001101
1111111111001011
0000000100010110
1111111111001011
0000000011011100
0000000100010000
0000000100110100
0000000000001110
0000000111100011
0000000100011010
0000000100111011
1111111110010011
0000000000110110
1111111101110110
1111111011110100
1111111110011100
1111111111101111
1111111110111101
0000000010011111
1111111100000110
