11011
10101011
1000010
1111111111010101
1111111100110110
1111111011111010
1111111110011111
1111111111100000
1111111110101101
1111111111011110
1111111101010110
1110
1111111110010110
10111110
1111111111001111
1101011
1111111110011010
1111111111011100
10011101
1111111110111101
1011000
1111111101100110
1111111110001111
10110010
1111111111101010
1111111111101100
1111111111010001
1111111100100011
1111111111110000
1111111110110100
10000011
1111111111010101
1111111110000011
1001001
1111111110111001
110101
100001110
111000
11100
11001110
1111111110100011
100001
1011110
11000000
1111111111001101
1101010
1111111011111110
1111001
10111110
1111111110001010
1111111110100101
1111111101011011
10010010
10000
1011010
1111111101110001
1111111110000111
1111111110111001
1111111111000110
11011011
1111111111100110
1111111110011001
110011
1111111101010111
10110101
1111111110000011
100010101
11101010
10010
110100
100111001
111101111
1000110100
111100100
11011011
100111
11100100
11100001
1111111111011001
110101
1010
10010101
0
1111111111001101
1111111110111100
111101
11000010
1111111110010111
100001111
1101101
1111111111101110
1111111110001101
10000001
1111111010001111
1111101111000111
1111100101010000
1111100100111011
1111100111000110
1111111000010110
1111111101010011
1111111000100010
1111110101111000
1111111100011001
101000100
1101101
1100101001
1010010010
1011100
1110111
10000
1111111100101001
110110
1111111111001111
1111111110111011
1111111110010111
1111111111010011
1111111011100010
1111110100100000
1111110110011001
1111111010001000
1111100101000011
1111100010111111
1111100001010000
1111100000111111
1111100101011000
1111100100011111
1111100111101010
1111011111011111
1111101001011001
1111100110011111
1111100111000010
1111110000011001
1111110110011011
1010000110
11100110010
10110010101
1010010
1111111101111000
100001001
1111111110010100
10010101
1111111101000110
1100110
11110
1111110110000010
1111101001111010
1111100110010000
1111101001101110
1111101001111101
1111101001101100
1111110001001010
1111101110000000
1111110111011000
1111101111000101
100001111
1111101000110110
1111101011011011
1111111100010001
1111110001001101
1111111110011000
1111111100101001
1111111011101001
10010100011
11101100100
1100001001
10010
1111111110001111
100000110
10111010
1111111010011110
1111111110010110
1111111000100011
1111101101011001
1111011101011010
1111011011000110
1111101100101111
1111100101110111
1111101010110001
1111101101011011
1111011110001110
1111100010110001
1111011010101110
1111111
11000111
1111101100001011
101110011
1111110001001101
1010010100
1111111010100110
1111110101010011
1010000111
11101100101
11011001010
1110001101
100011110
1111111111110000
11110001
1111111101000100
1111111100011001
1111110110010100
1111100000010001
1111010110000110
1111011000001111
1111101100111010
1111110110111111
1111101000010100
1111111011010010
1111110001010011
1111100101000110
1111101100000001
1111110101101001
11111000
1111110100101111
1111110100000011
1111111011101001
1111111100010100
1111110100010110
1111111010001100
1111111101010100
11101011110
101111100100
10100101110
101010010
1111111011011110
100101
101101
1111111001011111
1111110001001000
1111001111000110
1111001110111101
1111100101010001
1111101010100101
1111110100011011
100
1111110100000010
1111101100010100
1111101110110011
1111110101100100
1111101100011001
1111100111101110
11001111
1111110110110110
1111101011101110
1111110001110100
100100010
1001101101
1111110011001111
11110011111
110011100101
11010010101
101101100
10011111
1111111101011100
101110
1111111100010111
1111101000100010
1111001001000011
1111011011100001
1111110101001011
1111110110001100
1111111010101010
1111110001001101
1111111110000110
11001010
1111101111010001
1111110110010010
1111001010110010
1111010111001100
1111011001110111
1111101100001001
1111111001011010
1111101101101011
1111111101100100
1111110110110101
1111111000001010
10001110110
100111111111
11011101100
1100011100
1000100
101001101
101
1111111010100111
1111101100010001
1111100111101101
10001100
100010010
11110000101
11101011111
10110000000
10001110111
100010101100
11000001110
1111101101101101
1111010111000111
1111010101101111
1110111110101100
1110111011000111
1111011111111110
1111011000100101
1111101010001111
1111100100111110
1111110100001100
101000111
10101110111
10111110000
100011110
1111111111111001
1111111110110111
111010
1111110100110011
1111110110011001
110101110
101010100101
101011110111
110111100010
1001110011000
11110110100
110000110000
11010101011
100000000100
111101010010
101110100111
1111111001100011
1111110101000011
1111110111111111
1111101011001010
1111110101110101
1111100110100101
1111111001111111
1111111001111011
10010101
111111100
1011110000
11100110
1111111111110001
1111111110011010
1111111100010001
1111111000000100
110010
10010100110
111011101100
111101010011
101001110101
11111111000
100001110111
100001011000
1111111101
11001111000
1000001000000
110111100011
100001100111
101101100
111101000
10010110000
10101111000
10111110010
10110100111
111100
101110110
1111111011001010
1111111110110001
1100011
10000001
10101000
1111111101110011
1111111001111111
1000000101
10110010111
110011000000
11011100100
1100110011
11000011100
10001001111
110010011
1100100011
1011101110
10110100000
101111010011
101001110110
1111111000100000
1101010100
1111111110
10011101101
1001010001
1110100100
10000101101
101011
1111111011101100
1111111011111111
1111111101011011
11000111
101
1111111110100010
1111111100111100
110100110
10100011
100101000
1101000100
1111110101101001
10001111111
10010010011
1110010001
10011100110
10011001001
111011101
100101000001
11100011100
1100011
1100111111
1111110011000001
1111110011011011
1111110110110100
1111111100111101
1111111100010111
1111110111110000
1011001
1111111000111110
1111110111001010
1111111111100101
1111111111100101
1111111100100100
1111111011111101
1111011
1111110000001100
1111111011100101
1110000
1111111111101000
10101100100
10010110100
110101000
1110001100
1111110001
100100111001
110010000100
1110110111
1111111000011010
1111110000101000
1111110000000001
1111111010111101
1111101111111000
1111101101010011
1111110001001010
1111110011010010
100000000
1111111010101001
1111111001101100
1111111100011011
100110
1100011
1111111111110001
1111111110000110
1111100111111110
1111101011011101
1111101111100011
1111110100111100
10011101001
1111111010111011
10011111
10000101011
10011111
1100010101
100111100110
11000110011
1011111000
100001011
1111111101001000
1111111100110011
1111100011101001
1111101101011000
1111111011111111
1111111101010001
101100
1111111000001110
1111111011100101
1111111101001000
101101010
11001111
101111
1111110100001001
1111100101011011
1111100111001100
1111110110010000
10111010
1010110101
10001110000
11111101110
11011100111
11001000111
1101011101
11001001101
1010101111
1111111010010000
1111101011010100
1111111101001110
1111111100110011
1111111011100001
1111111111000111
1111111101010010
1000011010
110101111
1111110101111000
1111111100101000
1111111110001011
1111111101111010
1111111110011111
100110
1111110011100000
1111101111010101
1111100111110100
1111111111111110
1010111111
10001100001
10001110110
11110001111
100011011001
11011001001
11101000010
10110010011
100011111
1111110100101111
1111111000011000
1111101100000001
1111010
101011011
1111100010001011
1111101101100110
1111111101110111
1111111110110111
1111110101111000
1111111011100001
0
1011101
10
1111111110011100
1111110101001101
1111110001011011
1111101111000100
1111111101110100
1111111001101111
10000000000
10110100011
1001101011
10110000011
1111111101110110
10000000
1111110010100010
1111111111110001
1111111011110101
1111100000011010
1111100011011000
1111110100100100
1111110011001111
1111101011100010
1111111000110001
1111111001001010
1111111101111010
1111101111011011
1111111100101000
1111111011111110
11111010
11111011
1111111001111000
1111110000100011
1111101000100011
1111101101101110
1111111100110100
1111101100010011
1111101100110011
1111110100111010
1111110011010010
1111111011110011
1111101010011101
1111101100111111
1111111011010010
101001101
10111001000
1110100010
1111111111100001
1000001000
1111110001111101
1111110011100010
10011100
1111111101001101
11001
1111110111000111
1111111111000001
1111111111110101
100010110
11110111
1111111110110010
1111111000100110
1111101110000011
1111110010011100
101000110
110100
1111101010100011
1111110110001100
11110110
1111111100010011
1111110000111100
101010100
1011001000
1000101000
10101001
110101111
100101
1111111110010101
1111111101110010
1000111011
1010110011
1111111101101100
1000101
1111111000101110
1011011
10101101
1111111111001011
1111111111111000
1
1111110111000010
1111110100010101
1111101111100111
1111110110111000
1111110101000000
1111110011100000
1111110101000101
1111110110110001
1111111100011000
1111111010000001
1111111100001010
1111111110100101
1111110100100101
1111111111001001
1000110100
10011100010
100101100
101101110
1000110101
10101110
1001100010
1000000
1111111100111000
1111111101001000
1111111110110110
11010100
11110
1111111100100010
1111111100010011
1111110010010100
1111110101001001
1111101100101001
1111100100001001
101110010
1111110110101101
1111111111101001
1111111001111110
1111011110
1111110110011010
1111111111100001
1111110001100010
10100111000
1111111110
1111111000010111
10001111111
11000011111
111010111
111100011
1100101101
1100110
1111111001111001
1111111100100001
1111111111101101
1111111100100010
111001
10101001
1111111001101000
1111110000000010
1111100001100111
1111100111011110
1111101010111001
1111110110110101
1001110101
1111110101010010
1111111010011010
1111000
1111100110110010
1111100011100111
1111110000111101
1111110111010111
10001111
10110111110
110010111101
100001011000
10100111010
1010101101
1010101101
111001
1111111111000011
10001110
1111011
1111111111001011
1111111111010011
1111111100001001
1111111111101101
1111110000100110
1111110111100001
1111110101101001
1111101100101011
1111010101101010
1111010101001101
1111100100111110
1111011110010000
1111010111101101
1111101011001111
1111110001101011
1111101101111000
1111111101100010
1001100111
0
10010001111
11001111000
10010110011
10000001
1000000011
1111111101110011
1011001
1111111110011110
1111111101100111
101100000
1111111111000100
1111111101111111
10101111
10100001
1111111110111000
1111111100110001
1111110000110011
1111101100110010
1111101101111100
1111111000001100
1011010
1110101001
1101010011
1001100101
1111111101010101
1111111001010011
1111110100001111
1111101111100100
1111110010110001
1000001001
11110
1111111010111000
11000110
1011001
1111111111011100
1111111110010110
1111111110000111
1101111
1111111111010101
101111
1111111110000000
10110001
1000
1111111110101011
10001000
1111111111001100
1010101
1111111001111101
1111111111101111
1011010
1111111000100100
1111111010011100
1111111101101100
1111111001011001
1111111110001001
1111111101110100
1111111011110011
1111111111010100
1111111011100000
1111111011011000
1111111111001101
11011110
100111110
1111111110101011
1111111101111001
