1111111110010101
1111111110010101
1111101
1111111110011000
111011100
1111111101100100
1111111101100100
1111111101111011
1111111110001111
1111111111000111
11000001
1111111110111101
1111111010011010
1111111111000111
100101000
10110000
101001
1111111111011100
1111111100100001
1111111101010011
1111111111110110
101101
11000100
11011110
11110011
101
10101001
101111011
1111111110110010
11111101
100110101
11000001
1111111110000010
1111111110100100
1111111101011001
1111111111000000
1111111111010000
1111111110001010
10010101
1111111100001000
1111111111110100
1111111111001111
1111111011100111
1111010
110110100
11100100
1111111110011100
1110101
1111111111110001
1111111111010101
100000
1111011
1111111110101111
110101
100000
1111111111111011
1111111100011111
101001
111111
1111111010011001
10010010
1111111111011101
110000
1111111010101110
1111110100101011
1111101111101100
1111101011101011
1111100110110101
1111101011010010
1111101010000001
1111110010011011
1111101010110010
1111110110011000
1111111011011010
1111110100001000
1111100110101110
1111101111001110
1111111000110100
1111111010111100
1111111000111011
1111111001011111
10101001
10000101
1111111110110110
100001
1111111111010111
1111111101011100
1111111110001010
1111111111000100
1111111101101001
1111111000111010
1111110000100111
1111110010110100
100010
11011000010
101000100111
11110001001
110111101110
101011100001
1111111010010111
100110001101
10000011101
1110101011001110
1110101000101000
1110111000100011
1111000101111110
1111000110010000
1111101001100111
1001011
110001100
11100000
10111100
1111111101111011
1000
11101101
1011010
11001100
110101010
10111100
110101011
11000101011
110100001001
1010011111010
11100111001
111010110
101010011101
111111101
111010100011
111000011000
110001011001
110111110
1111011010011111
11000111
1111101001100100
1111100000000010
1111010001101011
1111110100111111
1111111110100001
1111111111110101
1111111111101001
1111111101000101
11000101
1011110
101000010
1100100010
1100101000
11001110011
11101001010
10111010011
100101011001
1000011100010
1111011100010101
1111101010110000
110011101000
110010110110
110100100011
100111010100
111100101110
11111110100
1111101111
1111110101000001
111111101
1111100110001101
1111001000011001
1111011011100000
1111110010100010
111011
1111111110010111
1111111111101000
11110111
1100
1000000000
10101111111
11000011011
1000010
1111010010010010
1111100001100010
1111101110010000
10110011111
1111110101110100
1111111010100111
111001100110
1100001011011
111100100010
1001011000101
1010010001111
1101111110000
1111101111001101
11010011000
101111001110
1111110000110100
1111001100000111
1111000001000110
1111101111001100
1111111111111100
1111111110000010
100
1111111110110100
1111111111000010
100010100
1011100111
100110011001
1100100001
1111111001101000
1111000000100001
1111110100011001
1111111100010011
1010110000
11010001011
100100101101
101011100101
1001110111110
1101000001111
101010110001
101001111111
1001011100111
10101011001
101111010011
1101001011
1111001100000000
1110010111000000
1111110101000101
1111111000100101
1111111101101101
10100100
111000
1110011
110000111
11000111001
101110111101
100110101110
11101011111
1111110101100000
1111111101110010
100111
1111100001010000
1110101011
1111010000001011
1111110000010111
1000110101010
10010010000101
1001110000100
111110000110
1010010100010
110011010110
1111110001100000
100101110
1110011010010100
1101101011110010
1111001001001101
1111110001001001
1111111111010000
11101
1000
1111110111001010
100011000
11110000001
100011111000
10100111011
1111111001010010
1111111010011010
1111100101100000
1111101000100111
1110101111011100
1110100011001110
1110010100001001
1110101001000110
10000110000110
11000110100101
1100110011001
1111100011101
1010110101011
10000001001
10011000110
1111101100111101
1110001101111001
1110001000001101
1111000010101001
1111110010001001
1111111101111100
1100000
1111111110100011
100100
1111010011
11001011001
1100111101
1111010100101110
1110000101011010
1110010001000101
1101100000100000
1101000010000010
1110010000001011
1101111011000111
1101000001101110
1110010101001111
111001011101
10011101110001
10001001110111
1000110111001
1110001001000
1000100001001
100000111011
1111111001
111100101
1111101001111110
1111011101011010
1111111000100011
1111111110011111
10111110
1111111110100110
1111111011111101
11100111
1111111100001101
1110110100010101
1101111110100000
1100110101100111
1101101010001101
1101111000011110
1101111011010111
1110010011101110
1110111010111110
1101110011011101
1110011100001111
1111010101000000
1111110100111100
111000001000
111110110111
1011000000011
1011011100011
110111101001
100101011110
1001110101000
101111110110
1111110010101101
1111111010010000
1111111011110010
1111111110011011
1111111111010000
11010100
100111100
1111101011100110
1110001011100111
1101101000011101
1101001011000101
1110011110000111
1110101111001101
100010111111
1111010000000111
1111011001001111
1110111101001010
1111010111010110
1110100001111110
1111110011010000
1010100011
1100001
100001111110
101110000111
11000101010
11101111111
11001001111
100001010011
1001010111
10000011
11010
1111111110010000
11100011
1111111110100111
100001100
1111110011100111
1111001101000010
1110101100000101
1110110101000110
1110111000110011
1111101111000100
110001110
1111000100111000
1111001001011010
1111010001011010
1110110000101110
1101110111000101
1110011101100101
1111011100110001
11010101001
101011101
101110111
101101100101
1100111000
1111110110000111
1110011100
111110
100111
1111010
11001010
1111111100101001
1111111110000001
11000110
101001000
101110001000
11101000010
11011010010
100010101
11010000011
1111100000000011
1110110111111101
1111011000100011
1111100101100100
1111100110111010
1110100101111101
1111000010101000
1111110101000000
10001100011
1100110100
1111111011100110
110111111000
10100101110
1111101000110000
1111111010110100
1111111010011110
110001110
101011
1111111111100110
1111111111100001
1111111110111001
1111111000000010
100101011110
10010001000011
1001111011010
110111101111
10011011011
1111100100100011
1011001010
1111011001000111
1111101110000111
1111110010110100
1111001010100011
1110111011001100
1111010011001111
1111100001101000
110101010
1111110110000111
1111110011001100
1000110111
100001001
1010001101
1111001111101111
1111111100000010
1000110000
10110011
1111111111011010
1111111110110110
1111111111100011
1111110000100000
110000110111
10001001101101
1001110001110
100000001110
111110001
1111110100100011
1111101101111000
1111111000010111
11011111
1011101
1110111001100011
1110010000110110
1111011001001111
101000010111
1000101100000
1111111111000100
100010110101
1110000101
10010100110
1010110001
1111011010100000
100001010
1111111101110001
1111111101001100
100001101
1111111111001010
1111111111110111
10001110
111011011110
1001010100101
1111111100
10000010011
1111101110001010
1111001111000000
1111100011001101
1110011010000100
1110101101010010
1111010101000010
1111011101011001
1111100001101010
111001100
1000110101001
1000000011100
110100000010
1111110000011011
1110011110
100010111000
1111101000110010
1111101101010100
11111000100
110100
1111111111101100
1111111
1111111111000101
1111111110111101
1111010010
11110001010
111010101101
1111100101110111
1111111110101000
10011110101
1111111010111001
10101101011
1111101110110111
101110001010
1111101100110001
1110111110101111
101001010110
100111111100
1000001100
110111000000
1000011110010
100011010010
110000100101
11011110111
1111110111010001
10011010000
100110000101
110010
100010000
1111111101100111
10000011
1111111101110100
11000111000
110001001011
1111111001000111
1111001010001011
1111101000010100
1010111001
1111111000111010
1111110001001110
100110001001
1100110000101
1111010110110001
1111100000110011
101100011000
1111111100
1001110111
1001010011
10111110111
110011100010
100110111100
1111100111100001
1111111100010101
10111000101
10110110000
110010000
1111111111111111
100011011
1111111110000000
1011100001
101110010001
1000111110100
1001001111
111111100001
100100100000
11100011011
100100011000
10010011100
1011101011
10111000101
1111100001101110
1111100100111000
1111110011100000
11110100110
10000010001
11101010
10001110000
1100000111
10010011
1111101001011000
1111101110111000
1111111110111111
1100100111
100010
110110
10010111
1111111111011101
1000000110
101010110100
10110111011
100011000100
111000010101
11001001111
1111100010001101
1111100010010100
1111101100000111
100001011
1111100001011111
1111001101010010
1111001111011111
1111101000100000
1101101011
11110111110
100000010000
110011100110
1111111100110110
1111100011111010
1111111000100100
1111110100110110
101010001
100001000
10001
1111111111000101
1111111111100001
1111111011111111
110001001
100001101000
10011000001
101000110110
1001111010
1100000100
1000111
110001001101
1111110000010111
11011001010
1111011010100100
1111101010110000
1111101011110111
10000011101
10010011010
1111111111001100
1011111010
100111001001
11001010101
10100010011
10110111001
1010111000
100100000
11010000
1111111101110010
1111111101000110
100000101
1111111101110110
101000
10011101101
11000010110
10000101101
100001001101
10011010111
1111100101010001
101101010000
1101000001
110100110
1111001111111111
1111010111111101
1111100100000000
1111011001100101
1110111101010010
1111101011011100
101111101110
11110111110
11101110110
101100011110
10101000110
1001100
1000110110
1101001
1111111101100001
11001
1111111110100100
101011
1111111111101010
10100011010
11101100111
100100110011
111110000011
1001100010
1111100001010110
1111111100101001
10001101111
1111111001111001
10100000110
1101100010
1111111111101010
1111011000010001
1111101101110100
1100110
1111100110111010
1111001101000000
1111101100111011
101101100
1100101
1111111111101111
1111111110101100
11110000
1111111011101111
1111111101011000
1111111111011010
1111111110110011
110000
110
11000010
10100100
1010101110
100001
111000
11010100111
100001110001
11011110100
1011010111
1111111001011001
1111100110100110
1111100010111101
1111101001001110
1111110111000000
1111100110001000
1111100111010100
1111101100011001
1111110111110011
1111111100110100
1111110111111101
1111111100110100
10100101
1111111101101010
11111010
1111111101010010
1111111110010110
1111111111110001
1100101
10100011
1111111111000111
1111111011111000
100001000
1111111110000110
1111110110011000
1111101110101101
1111101010111001
1111101001001100
1111110010011001
1111110000001100
1111101100111000
1111110100011001
1111101111101010
1111110110101100
1111111101110011
1111111100111100
1111111110100010
1110011
100100
1111111100101101
10010110
1111111111011100
1111111011111000
1001111
1111111111110111
11100
10110001
1011000
111101
10000100
11010110
10101100
111011
1111111011100100
1111111100100001
1111111101110111
1111111110110100
1111111111000000
1111111110001001
1111111111000000
1000
10011101
1111111110010100
1010100
11110110
1001100
1111111101111110
1111111100000010
1111111111111010
11010011
1111111100010011
