110101
1010010
11111010
110000
100101000
1111111101001100
1111111101101001
1111111101100001
10000
111111
1111111111001001
11100110
1000010
10010011
1111111110001110
10010001
11000111
1010011
1111111111011000
1101000
11
1111111111011101
101100101
100110010
11001011
11011111
111001
1111111110000111
10000111
1111111110100011
1111111110010010
10110
1111111101011011
1111111100110001
1111111100001011
1111111110000010
1101001
11000111
10110111
1111111100101111
1111111100010000
110010
1111111110101100
10101
1011100
111001
1001
1111111111101111
1110100
101001
1011111
100111101
1111111111011110
1111111101010011
1111111101010011
1111111100001111
1111000
1111111011100110
100
1111111111110011
1111111111101000
1111111001000111
1111111101010000
10000110
1111111110010000
11001111
1111111111101011
11100010
11100111
1001111110
11010010
110110101
100011
1101111
101000010
10010010
11100011
110101101
11100100
1111111110000010
1111111100011100
1111111110101111
1111111110111101
10001011
1111111111000001
100000001
1111111110010111
101011
1111111101010010
1111111111000110
10110101
1011101
1110001
11111001
1111111100
11000110111
100001100111
100110100001
100111100011
11110010101
11110010110
11100010001
100000000011
10100111000
1110111101
1100110000
1010
11000011
1011111
1011101
1111111011111010
1111111111101011
1111111100111000
1100011
1000
101001
101000100
1010111100
1101100001
1100101101
11001100000
11000001100
10110110101
10100000011
10111110000
101001110100
11101010100
111101110
11100001
111100100
11001011000
1010110111
1001001010
1111111111100101
1111110000010101
1111110000100011
10
1111111011000011
1011111
10001
1001011
1111111101101111
11001101
100101010
1010101100
11000010110
11100011100
10011011100
1101101010
1111110101
10011010000
1111111000010110
1111111101110001
10010010
1111100000000010
1111111001101000
1111110110010001
1111001101100001
1111100111101100
1111110110110010
1111100111101001
1111111011101110
1111110101011001
1111111110101001
1000101000
11001
1111111111100000
1111111111111110
1111111111100111
1111111000000001
10011110
100000100
1010011111
1100111011
11000010110
1110100011
10011010011
10100100010
10101010000
10010100
1111111001010011
1101100000
1111111000001000
111000
1011001011
1111110101100001
10100100110
1111101011101001
1111111110000111
1111110001101110
1111101000000001
1111101010101100
1111111010010011
1111111011011000
10101101
101
100010000
1111111111010111
1111111111100111
101001011
1100000110
1010100101
1011001010
1000101
1111111000101011
1111110110001111
1111110000010101
1
1100011100
1000100110
10010101101
11011111010
1111111011001101
1111101110001000
1111110110000000
1111111100001101
101110000
1111110001000110
1111101101101111
1111011101000101
1111011111110100
1111110100111110
1111111111010011
1111111110010011
111000
1111111010010011
1111111010010001
1111111001000111
1011010100
1111111111010110
1111111
1111110101100100
1111101010011001
1111110111011101
11100010
1111110110111100
1111111100111000
1000100
111000101
1111111110101011
1111111000100010
1100010011
1111111010111101
1111111001100101
1111110010100101
1111111110100010
1111111110100100
1111000111001111
1111001000111010
1111100110100011
1111111001100000
1111111101111101
1111111110000011
1111111011100001
1111111100011010
1111111001110101
111111
1111110010010001
1111110101001001
1111110001010000
1111110011110100
1111100000000101
1111110011110111
1111011111100101
1111101101000000
101100110
1010011111
10101100111
1111111101111111
1111110010000100
1111101010101001
1111111010100000
1001101
1111101110100010
1111110001111010
1111000101100101
1111000011110111
1111011100101000
1111110111011111
10010000
1111111011100011
1111111101101010
1111111000110101
1111111000000000
1111110100100001
1111100100011010
1111110011011000
1111100100000110
1111101110110101
1111010111100001
1111010111001110
1111011001101010
1111011011001001
1111000110101101
1111110101000110
100001110100
10000100000
1111111100111111
1010011001
1111110
1111111110111001
1111110001011110
1111100110101011
1111001110100111
1111010010110000
1111100010111010
1111110100101110
1111111100110100
1111111111000111
1111111110001010
1111111000011010
1111111100010011
1111110001110110
1111100111001111
1111011111011111
1111010011100100
1111101110000110
1111101101010110
1111100110000010
1111111001101111
1111111000001101
1111001000010110
1111110011110001
101001100001
10001000
1101011000
100000
110111100
1000001011
1111111110111100
1111101101110000
1111101011011001
1111100111011010
1111101101000000
1111111000110110
1111000
1010011
1111111110011001
1111111000101100
1111110111110110
1111111101010011
1111111011100100
1111101001101100
1111100100010100
1111100111010000
1111111011011100
101100111
1111110101111111
1111110100101011
1111101100000110
1010010011
10011000101
101110101011
1010011
1100011101
1100010101
1111111110111110
1111110011000111
1111101000001011
1111111110111100
1111111100101100
1111110011111110
1111111011100000
101011
1111111111001000
1111111110110101
1111111001010001
1111111110111111
100010100
1111111110111000
1111111001011101
101010100
11100
110000101
101000011
1111011101101110
1111110010101011
10101111001
1100110000
100100110
11110010001
1111010001
11000110101
11100100010
10000010
100111010
1111011101111101
1111110001110100
100101
1111110111010110
1111111100000001
11000
10100
1111111100001001
1111111100001011
11001101
11010111110
1000110
101000100
10100000011
101001100
1011100100
1111111001000010
1111110011101101
1001111011
101111101
10011001011
10100000001
100010100
1111111110001111
11111010110
10010101101
10110001
1100110010
1111111001111111
1111101010101100
1111111011001010
100100010
100100
1111111111110000
11100100
1001000
1111111001000111
1000010111
10100000001
11100110001
100111110100
1111111111110001
100001111
1111101110110001
1111101110001000
1101011001
1111011111011100
10100000001
10101011101
11100101000
101010111101
11011101111
1000111000
10111001101
1011100111
111101001
1100111000
1111101010101111
1010011
1010000000
11000101
1111111101110000
11000000
1111111101100000
10000001
110101111
10100000101
100110110111
101001011111
11110101110
1110110011
11000000
1110010101
10010111111
1111110010001011
101001101011
11000001101
100011001
11001101010
10001010001
100100001110
1011001000
1000110111
1011101
1110101101
1111110011100101
1000110001
1100100110
11111110
110110
1111111110111110
1111111101101001
11111001
1001011010
1100111111
1111110010001110
1111110101000001
10000010100
1111111101
1111111000001100
1011001
1111111100001011
1000000111
10110111110
100100111
10010010110
110011001
1000001
1111111111101110
1101100100
101011010
101001111
100011110
110010
1100001
1001111010
1111111111101101
1110
100
10110011
101011010
10011010011
10011001
1111110101011110
1111110000100001
1111110000100001
11010100
1111110111100011
1111111100101110
1111111101011111
1010111010
111011100
11100000111
10111110001
1010110100
1111110100101100
1111111111100111
1100111001
110111111
10001011001
111100
111111101
101001001
1001011000
1011011
1100111
1111111101111110
1111111100110000
1111111111011100
11101001101
1111111101100011
1111110011101110
1111111101110110
1111111100010110
1111100111101000
1111011110100111
1111100101000001
1111110000010000
1111111001110001
111101
1111000110
1100000011
1110001000
11001101111
10101101101
11001011000
10010101111
11011110110
1111111100100011
100001
101001100
101001110
100000111
1111111110011010
10000
100000011
1101110
10001011000
1101011111
1111111000111110
110010000
110111000
1111110011010010
1001000111
1111110010011000
1111110100000111
1111111000100010
1111111100111101
11001011111
1011001011
11100101110
1101101010
1111100110
10100111011
11101001110
1111110011
1111110111100101
11011010
1011101111
111001000
101010
1111111110000001
1111111111111011
1110100
101101110
100110000
110000110
111010
1111110001100110
1111110111010001
1111111100111010
1111110010111101
1011101000
1111101000111110
1111110110100001
1111100011111100
1111111111010100
1000011010
10111000100
1111111111100111
1111111010000110
10111110
1
1111111001000001
1111110011000000
1111111101101000
1101011101
101101110
100011
100010110
10001010
1110101
11011000
1100101010
10110100010
100011101
1111111111111101
1111111010001010
1111111001000010
10011111
1111111011011100
1111111000011100
1111100010101001
1111100101011001
1111100101101111
1111101011100111
1111111001111010
100001001
1111110111000100
1111111010101101
1011110110
10000011
1111111010110001
1111111111111001
101100010
1110111
1111111110011010
11001011
1111111111010010
1111111111100100
1111111110011010
1000101010
111101011
1011001100
10000011110
10001000011
1111111100001010
1111111011001000
1111110111100111
1111110010111000
1111110111001011
1111101111111001
1111011100100010
1111011110011100
1111100010000010
1111110010000001
111001011
111001001
1111111010110101
11111011
110101001
1111111111011100
11110000
10101100
10110100
1111111111011100
1001111
110111
1111111101111101
111111001
10000001111
1010000100
1110010000
10011101001
1000100
1110000
100100110
1010010100
1111111111111100
1111111000100011
1111111100101001
1111101111111100
1111110110001010
1111110101110011
1111101011011001
1111011111110100
1111111100110010
1001011110
110011001
1101111
10011100
1111111111010111
1111111111011011
100001111
101000111
1111111010110100
11011100
1111111010101001
100011001
1100111001
10010001101
10100010000
100011001110
10010001010
10001100010
10000010111
10001001001
1001011110
111110010
1111101111001100
100101010
1111110111101001
1111101100011100
1111101101011111
110000010
1111111110101000
1111111110010110
1111111110111001
11010
1111111111101110
10001111
100001010
1111111101001011
101110101
101
1111111101111010
110100101
1111111111111011
10001101
100010000
11001001
100111111
1111011001
1111111111100010
1111111110100110
11000100
1011101010
111000101
1111010
1111111110010111
1111111000000001
1111111010011100
11001010
1111111101001110
1111111111100000
1111111110101000
11101110
1111111111011111
1111111100010111
1111111111111101
1101010
101010
1111111100010101
100011
1111111101101010
1110100
1111111101011001
1111111110111000
1001000
1111111110000101
1011
1111111111101010
100010110
1111111111010011
100000
1000011
11100011
11100101
111000101
11011000
1111111101000001
1111111110111011
1001101
10100010
1111111101010101
1111111100111000
1111111110101110
1111111110110110
