1111111110011000
1011001
1111111110100000
1111100
10111010
1111011
1111111101110111
1000011
11000000
100101
10011110
1010101
100001101
1111111110111110
1010001
1111111001010111
11010100
10001011
1111111100101000
1111111110001101
1111111111110100
1111111110011000
10101110
10011011
1111111111100111
1100100
100110
10110001
111101
100011
101010
110100000
1111111111111010
1111111110111111
1111111110000001
1111111110010011
1111111101010000
1111111101111100
1111111111100100
1111111101001000
11110000
1111111101110001
10010100
1001001100
101001011
101011
1111111111101011
1111111110101001
1111111101011010
100110
100000
1111111111100111
1111111101011101
111001
101011
1111111110011000
1111111101001101
1111111111001111
1111111110001000
1111111011111001
10
10110010
1111111111011100
10101110
1110001
1011001101
100110001
1110010110
1101010100
1111100010
1111111111100100
1011011011
10101011011
1101001000
110100011
1111110000101111
1111111000010111
1111111010001100
1111101111001110
1111111011100110
1100000001
1101111
1111111110111100
1111111111011111
101101
1111111010111101
1111111101000101
111000
1111111111101111
1111111110110010
1111111101000001
1111111111111100
1111000
1111011
101111110
1111111010001000
10111011111
11010011100
1111110000011000
1111110001100101
10010001000
1010100000
10001111
1111100011011001
1111010100101111
1111011010010100
1111100000010101
1111110011100111
11010001
101010111
10111
10011000
11110101
111
1111111110111110
11100100
1111111111111010
1111110001000111
1111111001100000
1111110010011000
1111101001110111
1111110100111100
1110111100
1111111011001010
10001000010
11110011
1111110101011100
1111100010000001
1111000110001000
1111010011011110
1111111101001000
1111011100110101
1110101111111110
1110101010100110
1111010011001011
1111010001111011
1111011100100100
1111110111110001
1111111111101100
1111111111010010
100111011
1111111011001100
101000101
11101001
1111111100010111
1111110100111111
1111110010110011
1111010010101010
1111001100010010
1111110100100010
1111110111001011
1111111100000000
11100001110
11100100100
10000000000
1100011010101
10000010000
1111000111101100
1111110011010111
1111010111111001
1110101000110000
1111110111100011
1111011100111011
1111000111010001
1111100110101110
1111100001100011
1111111010110001
10001101
1111111101101100
100011000
10010110
1111110110010101
1111100110011100
1111011100101011
1111100011001000
1111010010001110
1111010010111100
111111011
11011011110
111010001100
11101011001
1111110101100001
1111111011010011
1110111011111101
1111110101111001
1111010011111000
1111101111011110
1111100000100100
100000010001
1111110110001001
1111011101101000
1111100000100111
1111100001100001
1111010011111011
1011100
1111111111111110
1111111111011100
1110011
10000
1111101101100111
1111100101010001
1111100010001001
1111100001011000
1111001001111000
1111101110000110
1111011001001010
1111001110111100
110111111
110100101110
10010110110
1111111100110110
1110100110101101
1111001011110111
1111100111011001
1111101001000001
10010000111
1011001101
1111111111010010
101000111101
1111110011100101
1111000011111111
1111100001011110
1111111100010101
10011101
1111111100111110
1111111010010110
1111111100100011
1111101101001010
1111100110001101
1111100111001111
1111101101111101
1111011100011000
1111100011010000
1111111100000000
1111101010000100
1111111011110100
11000101100
1100010000
101110001100
1000111100
1111100101011111
10
1100101010
11111
1111101010110001
1100111000
1111111110001011
1110110100001001
1110001111001101
1111011101100100
1111111110001010
1111111100110110
1111111100111110
1111111111010000
1111111111011101
1111110000011101
1111100110110101
1111110001100010
1111111110011000
10100100111
1111111010011100
1100011110
1111011010111010
1111110000000101
1101111
10111100011
101011100111
111000111100
101101001101
1111000111001100
1001101011
1111000001001111
1110111101101010
1111110001111101
1110110110001110
1110010001110011
1110101110111100
1111100001101101
10101100
1011001
1111111111101111
10011110
1010011
1111101011110110
1111101101111000
10000001000
10100010
100010010
1010100001
1001111010
1111100001111111
1111000011000100
1110110111100110
1111100101
101001110010
1111000111111
110000011110
1111111010000111
1111100010001000
1111000010010010
1110111010111011
1111001110101010
1110011001100101
1110111101011101
1111100111111000
10101001
100010111
110
10
1111111100111100
1111111110111110
1111110110101101
10110010
1101111100
1111100111010101
1111010111001101
1111001001101101
1111000101100011
1110011010000001
1110010000000001
1110001100110111
1110100110011001
1111011011011010
101111101100
111010101100
1111101110100110
1111010010111000
1111001010000100
1111010000111000
1111000000100101
1111000000101000
1111001111111111
1111101101001100
100110000
1111111110011111
101011001
10101
10110011
1111111111100000
1111111001011010
1010001011
1010001111
1111001100100000
1110100100110000
1110010110101000
1110101000000001
1101100111110100
1101101101110110
1111001001000110
1111010110111001
1111011100000110
1111110001111000
100000110001
1111010000010111
1110111101011010
1111011100101100
1110110010111001
1110111111101101
1110111000011000
1111001001101100
1111111111100010
1000011110
1111111111111100
10100100
10101001
100100
1111111111011101
1010001
1100000
1111101100101101
1110011100011110
1110001000110111
1110001001100111
1110001100111010
1110011000001011
1110111101101110
1111111011010110
1111101101001010
1001100110
1111100000011110
1010111000
10001001
1111111011101101
1110111111100011
1110001100101010
1110100100100100
1111000001000101
1111010001111011
1111101000001001
1011010
1111111101010001
1111111110111000
1111111110110100
101011
101100000
1110100
1110001
1111011100011001
1110011011100111
1110001010100111
1110100001010010
1110111001111110
1111110110010010
1111101100001011
10001000000
1111000101010100
1011100101
110010000
111011100
1111011001110011
1111001000100011
1110011010000010
1110001011100100
1110101111110010
1111011101101011
1111100100011010
1111100110100010
1111111001100111
110011000
101000
101000100
1100100
1111111110100011
10101000
1111111111000100
1111100010111010
1111000000101100
1110100011110001
1111100101110111
1001101110
100010101000
1100110110
1111100010110110
10100010110
1011000110
1111011010110010
10000101011010
1110101010011111
1101010101110110
1101101010101001
1110010101011000
1111000000110111
1111010110101000
1111101001100001
1111110100001010
0
1100011010
111000011
11011100
1111111111010011
1000100
1101001
1111111010010010
1111101111000110
1111111010111001
1111111111111000
111010100
110111010001
1110000011
1111110010000101
1111011000011011
10100100100
11110000
1111110001100101
10000011110
1100100101110100
1100110100101000
1110000011011001
1110110100101011
1111010011111101
1111100110001011
1111110111111110
11010001
1010000000
1011011011
11010000
1100
1111111111110000
1111111111011100
1111111010000110
1111110101000101
1111101100110111
1111100111011110
10110111001
111100001
111001001
111101100011
10010101011
101101100101
1010110101111
1001000010100
1111111010011110
1110000100000110
1100100000111010
1101100100010001
1111010110000111
1111011110010011
1111011101001101
1111101101101000
10001000
1001100010
11110100011
1011001111
110010001
0
11001
1111111001111011
1111110011110000
1111111100100010
1111010001111011
1111010110110110
101111100
1101110101
110101101001
111101000111
1000011110111
10010011010110
1110100010111
11010011011
1110111000111101
1101011111011001
1110111100110110
1111010110101110
101100001000
101110111000
100010111001
101111011010
111101100101
1000000001010
100100100111
1011100100
1011000010
101011
1011000
1111111101100001
1111110010000101
1111111110011001
1111010110011010
1111100101111100
1111110100000101
100110000
110100101100
101010010
101110010010
1001001001000
1100010111110
11010110100
1111100100011000
1111111011010001
1101001
11001111001
100001111000
100111101011
100110000000
100100100110
110010011000
110100000010
101010001111
1110100011
1111111111011000
1111111111111001
1111111110001110
1111111110101011
1100010110
1101011001
1111111101100011
1001001010
1111111111100001
101100000011
100100001010
100111100110
100110101111
100010111011
1111110010011001
1111011010101001
1111101100101001
100101100011
10010100111
111000100
1000110000
1111110110001101
10111000000
101011011110
110000111111
100000110010
1101111010
10101011
100110101
1111111101100010
10000111
1111111101010111
10110000011
11000111010
100111001001
1100100
1111011111
101010100011
1111111100
111011001000
1111110101010110
1101011100
1111000010111010
11011000
1001011111110
10110100001
11001010101
100111100110
100010001001
100011110
111000110
1000010101101
1000001101101
10010000011
101101010
11100
1111111110100111
111111
1111111111011001
1111111000111001
1000101111
100100011101
1011001001110
100011100011
1011110
1111110110001111
11100001111
1111110010000110
1111101100100100
1111000111100001
1110111001001110
101101101000
100001111011
100010100000
110101101111
111011101001
110110100000
101010110111
111011110101
1010011010111
110001001101
110101001
1000110110
111001
10011001
1111111011011010
100000001
1111111101110011
1111111001110010
1000001000
101011111011
100111110010
1000000011
1111000111110100
1111111110100101
1111110010100100
1001000011
1100000101
1111011100010001
1111001110100100
1111011010001110
11110110011
111000011100
101001010000
110000111
10110000000
111011010100
110001010101
1010001111
10000111
110100110
1111111111110011
1111111111001011
1111111100100010
11001100
1111111110111110
1111111000010101
1111101111011010
1110000110
10001001
11010100
1111110010111110
1111010011011001
1111000100101111
1111011101010110
1110111000100010
1111100001001100
1111101011101011
1111010101010110
1111100100100110
1010001110
1111110101000010
1111101010011101
1111110101010010
10000100011
10010101011
10110
1001011
100001100
111001
1111111111111001
1111111111001101
1111111111110110
100010
1111111011010011
1111111010001100
1111110101100010
1111101110011001
1111100001101110
1111100010110000
1111100110111100
1111011001100101
1111000000110100
1110101100010100
1110100100001101
1111001111010110
1110110011111000
1111001100001111
1111100001001000
1111011111011111
1111100011101110
1111110111101001
11010100
1111111110010010
1111111111101001
1111111111101110
101111
10101011
101000000
1111111101000111
1111111110110111
1111111100010111
1111111101010110
100010
1111000
10010101
1111111010010110
1111111101011001
1111111011111001
1111111011000011
1111110001111010
1111101111111001
1111110001011100
1111101111110001
1111100001010010
1111101001111011
1111110110100010
1111111001010101
1111111001001010
1111111110011101
1111111101110100
1111111111001110
10001100
1100011
1111111110011110
101111
1111111101100010
1111111111101111
1011
1111111101010001
1111111111101001
1010011
100000
10110101
1111111111001111
1111111111111010
111001
1010
1100110
111000
1000
10111001
101110001
1111111100110011
1111000
1100010
1111111110111101
1111111110000010
1111111100011001
1111111111010111
10111111
1111111111001111
1001111
1111111110101110
1000101
