10010011
1111111111011110
1111111101010010
10011010
1111111101101011
1111111001010111
1111111111101010
1111111011110100
111011
1011110
10110
1111111110010110
1111111101011010
1111111111001010
1111111101000100
1010011
1111111111100011
11000
1111111101010010
1111111110011100
111101
1011100
1111111110111001
1111111100001101
1010
1110001
1111111110101001
1111111101101110
11101001
10011110
1111111110111111
1111111101101110
1100111
1111111101110100
1010000
1111111111111100
1010100
1010110
101001
1111111111011000
100110110
110111
1111111101101000
1111111111111011
100010111
111110
1111111110000111
1111111110000110
1111111111101010
11
111011
1111111110010011
1111111010101100
1111111111000000
1110
1111111111000010
1111111101110111
1100011
1111111101110001
1111111110110001
11101100
1111111101110010
1111111110111000
10110
10001011
110010
110100000
101110100
1000101101
1000100001
1010011
110010100
101001010
11010
1111111001011100
1111111100110001
1111111111001001
1111111011011110
101111
1111111111111000
1111111111100011
1111111100110110
1011001
1100001
1111111111101110
11110
1111111110111000
1111111110001101
1111111110010100
1111111101110001
11110111
101010101
1111011000
10111010001
10111010000
10010110011
1000010001
1111111000110001
1111011101111011
1111011000001010
1111010101111101
1111011100011011
1111101111111010
111110100
11111010
1001111101
1001111111
1010101101
100110100
1111111100001101
1001010
1111111111001011
1111111111011011
101000110
1110111
1111111101111010
10011100
100101101
110100011
10011001110
1011010111
10010000111
11101110011
111111000
10001100001
1001110000
1111111000001010
1111100010010100
1011100011
111100000
1000100100
1111111111001011
10010000110
1011010001
101111010
101110010
1111111101110000
1111111010010111
101111
1010010
1111111100111100
1111111110011101
1111111110001101
100101
1111111100111110
110100001
1001001010
1011111000
1011000
11011110001
11000101001
1111111110011111
1111111101101110
1111011010111101
1111011100011101
10010
100111101
11011100
1111110000010111
1111010001011111
1111100011111100
11100011
1001111001
1111101
101101011
1111111000101011
1111111100100110
1111111101110101
1111111
1110
1111111101010111
1111110111000000
1100000011
10001101110
1101111111
100000101000
11101000110
1110101101
1111111100000101
1100011100
1111111000000100
1111100011011000
1111100001011010
1111011110110111
1111011001111100
1111100010011010
1111101011110001
110100001
1111100101101010
1111100010010111
1111100010100001
1111100110110001
1111010101101110
1111100001101100
1111110000111000
1100011
10110111
1111111101011100
110000111
11000010
1010110011
1001011110
1110000011
11101101
110111001000
110100111110
110001010
1111100110111110
1111011000011111
1111100101101110
1111000110110110
1110101011010001
1111110101111010
1111101110001010
1111010000111000
1111101010110110
1111101010101110
1111100010100101
1111010111010110
1111001000100100
1110111111101011
1111000011111101
1111110001101110
11010
101000
111
1110001111
110101001
1111111101111110
1111111101011000
1111100110011000
10101001110
100011010001
11001111
1001100001
1111100011110101
1111100111101011
1111000110010111
1111110001111001
1111011011101100
1110101010011000
1001011001
1111110010011110
10100010
11011010
1111101011101000
1111011000010101
1111011101101010
1110101100010010
1111001001101110
1111100111110110
1111111110001110
1111111111000011
1111111111001001
1011110010
1111101001
10010101
11010001111
1010101110
110001100
1111110111001001
11000110101
1111110101101110
1101100110
1111110011001100
1110100111101010
1000010011
1111110011101011
1111011011011110
110111011001
101000000111
1111101011001111
110100001
1111101111001000
1111011101010100
1111000100010000
1110101001101011
1111001100001001
1111101001001100
1111111000110101
11010010
1000101
100011001
100101011
10101110100
111101100111
101001001111
1011000000
1111010111101001
10110011110
1111110110011100
1111101100000010
1110111010111111
1111011111010001
1111001110111001
1111010000100000
1111111000011011
100101011111
1000100111
1111111001100000
1111111011011010
1000001011
1111111001111111
1111001001111110
1110111010100001
1111010110110010
1111101110110101
1111111101010100
1111111101100101
1111111101010111
110110000
11011011001
111010000101
110011011011
1000101
1111101010100100
1110111101110010
100111010010
100000011000
1111111111110001
1111001001010101
1110001000010011
1110100010101101
1111001011011001
1111111011101011
1111111010001001
1111110100010111
100111001101
111111010
11000011111
100101001000
1111001001110010
1111001010011011
1111101111001110
1111111001110101
1111111111111000
1111111111010101
101001011
10000010
11110100010
1000011001001
100100010011
1111111001001011
1111101111010010
1111110001001011
11011111100
1111101111001010
1111101010010101
1111001000011001
1101011000111001
1101111001001110
1111011101100011
100001010101
10100010010
1010001001
110101110110
10010010011
10110110001
1101010011
1111010011111110
1111101101101111
101011000
10111110
1111000
1010111
1111111110100001
11010000
1110100101
101011000100
10100010011
1111111101100110
1111010111001011
1111011010100010
1111111010010010
11111100
1111100000100011
1110100010100101
1101101011011000
1111101101000010
1111111000010100
1111010010010100
110000011101
100011010110
110111011001
1010001101111
11101110111
1010011110
1111111100110000
1111111010010101
1101101101
10011010
1111111111100101
1110110
1111111101101000
100010011
1000111010
100111110101
1100001111
10011010010
100001010011
100000010011
1011010111
101011110110
1111011011101101
1101111011010011
1110010111001010
1101000011
1111101000101101
100010010000
1001001110010
1011010011011
1111110011010
1100111001011
10000011100
10010010010
1111111110111100
1111100001000111
1111011001
10000100010
1111111100011010
1111111111110010
1111111011111111
1111111100111100
1110100111
11001011101
1111111101100110
11111111100
110110101100
11010000000
1111110010001010
1111111000110011
1110100111100001
1101011011110010
10110101
1101001010001
1100010110000
1001111001100
1001000000101
110010100100
101100001100
10101010101
100101101
1111110110101010
1111100111010010
1111101110100010
101000110001
10011100011
100111000
10111111
1111111101001110
1111110111100001
1111111001001111
1111110111001011
1111101000001101
11000111101
1000101100000
1111111100101000
10001001110
1111010000001001
1110101110001110
1111111101110100
10001111110011
10111011010001
10001100100100
1110101010000
1100000000111
101011100111
10101011010
101101101000
101110000100
101101
1111110100010100
1101101111
110111010101
10011000010
1001001
10110
1100
1111111001011110
1111101100111111
1111110010001010
1111011101001110
1111100110001001
11001011100
11100001101
1000101
1111001111110101
10110110011
10011010100111
11000100100001
10011110001101
1010010101010
110101000111
101010000110
1000010101111
1111110010110000
11111110011
11011110011
1111101110111100
1001001111
100010100100
110011110100
1100001011
1111111011101111
1111011
1010110
1111110011111110
1111101100011000
1101011010
1010011001
1111011100100100
1111110001011001
1111110000010010
1110101100100101
1111000100001010
1001111001000
10000011011001
1110000111001
100101000000
1111001011001100
1010110100
1111111000001001
10000011111
110000011
1000001110
1111101010010111
1111111001101010
10110001111
100100111000
11110111001
110101001
11011011
1111111110000001
1111111101001100
1111111100010101
1111100100100010
1111111101001010
1111100010001000
1111110010100111
1111111001010000
1111000011111101
1110001011001011
1111000000111001
1111101011110011
1111111010110111
101101001
110000101111
10010010
10111110100
1110011001
10100101001
1111101000111011
1111001010011100
1111001001010111
1111001110001100
1110001011
100101101001
10101100111
101010111
1110001
111110
1001101
1111111100000110
1111101100011011
1111111011000001
1111010111010000
1111101001000101
1111110100001001
1111011001011000
1111011011100110
1111001101000001
1110110101101110
1111011101001101
1111101111010100
1111001001
1110010000
1011110010
1111110110101110
1111111010111011
1111101010110101
1110110111010001
1111011000011001
1111100101000101
1011100100
10000110000
1010011100
1111010
1011101
111110
1111111101000000
11101000
1111110001110111
1111110100000010
1111011101101111
1111100110011001
1111011000110111
1111101101101101
1111110010110100
1111111110000111
1111100000000111
1111011100000101
1111010010111011
1111111111001011
1000100000
10010111001
1111101111001110
1111011000111000
1111111001001111
1111011011010001
11111111000
10111010110
100110111100
1100110111
111101110
1111111
1111111111000010
110111
1111111110100100
11111101
1010111
10000111001
1001011000
1111100101000100
1111111101111001
1111110100010001
101111101
1111110001101110
1111011110101100
1111110011000001
1111001101111000
1111101011001100
1001100001
1111010100110010
1111100110001110
101101110011
1101100100
11011101
10010000101
101101011000
101000111000
11101000110
1010111101
1111111111110010
10100100
110011
1111111111011100
1111111100011101
1111110110111100
1111111101100110
1011100
1111111000110001
1111110010100000
1111010000110011
1111101010111001
110001010
110010010
1111111011010100
1111111001010111
10001011011
1111110110001101
1111101110101111
10111001000
100100101111
100000001000
10101111001
10000111110
11110010010
11001101010
10010101011
1010101101
11101
111011
100011
10010101
1111111101101001
1111110111110110
1111110101101000
1111111001010110
1111100111010110
1111101100011001
1111010001110101
1110111011000101
1110111001011111
1111011101011010
1111110000000000
1110000000
1000101010
10111011
1111101100011111
101000011
0
10100011001
110111001
1111110011001011
1111111010010011
1101101
1001110101
1011011100
10000
100011000
11001101
1111111011010111
1111111110111010
101110000
111111
111100
1111110110101110
1111111101101001
101010
111011110
1111110011000000
11100100
10111101100
100110001111
110000000010
101100111000
1110101110
1111110100101110
10001011011
1111111111100110
1111100100011000
1111110011100100
1111111001100000
1111111001010101
1011010
100100000
10100100
10100001
1111111111111001
10011100
1111111111100001
1111111110001101
1111111011011010
1111111111101011
1111111100111001
1111110001011100
100000011
1010010101
1111111000100011
1111111011110111
1111100100011111
1111111010010011
1111100110110000
1111100111010001
1111101101011100
1111111100001010
111100101
1111111001101001
1111100100110100
1111110001000010
110010110
10001100
10110100
111001
1001110
100111
1110001
1111111111110011
1111111011010001
1100011
10100111
1111111111111101
1111111101001111
10110001
11010001
1111111111101010
11011100
1001000001
11000001
1100110100
11010011
1111101111111000
1111110111110111
1111111111101111
110101
1000100
11110101
11101010
101001010
11010011
1000011
1100111
10001111
1111001
