1111111101111011
1000001
101110
1111111100011101
1111111
1111111111100101
1010
1110000
1101111
10011010
10011000
110101
1111110
1111111110001000
1001100
11100111
1111111110001110
1010110
10101011
1111111100000000
1111111111110110
1111111111011100
1111111111000110
11011110
1111111100011000
1111111110001111
1111111011101000
1111111110010101
1111111010111100
100000
1111111111111001
1111111110000011
1111111111001001
1111111010111000
110011
1111111101100000
1111111111110100
1100001
1010110
1000100101
110
11100010
1111111011110110
1111111100100110
1111111011010000
1111101
10101000
1111111111011000
1111111011110010
10110
1111111001110010
11111011
10011
10000011
1111111111000001
10011001
10
1111111110101100
1111111111001100
1111111100010100
1111111100001111
1111111001011100
1111111001101100
1011110
1111011
0
1111111100001011
1111111101001101
11111000
1000011110
100101101
1111101010110011
1111110000001100
1111110110110010
1111110110111001
1111111101101111
1111111001110101
1111111110110001
10001
1101000
1111111111010001
1111111111100001
1111111110011000
10011111
1011110
1011100
1111111111001111
1111111110000111
1111111111101100
1111111111001011
1111111111001001
1111111000110101
1111101111101010
1111011100011100
1111010110110000
1111001001111101
1111010011011111
1111010000111010
1111011010011100
1111101101011000
1111100001111100
1111001100001101
1111010011100111
1111101110001010
1111111011100001
1110101100
1111111010
10000110000
110010111
11100
1111111101111011
1111111111101000
1111111110100000
1111111100011111
1001011
11000
1111111110010100
1111101110001111
1111100110101101
1111100011000111
1110101111100011
1110100100000101
1110110100111110
1110111111011001
1111001101010101
1110100001110111
1111000000001011
1111110110010000
1111010001
1111101111101111
1111011010000010
1111100001101010
1111111001011111
100100010001
1011101010100
1100000111011
110010001000
110010101
1111110101101101
1111111111111100
1011001
1111111111010101
1111111110101011
1111111001111101
1111100100101010
1111001011110010
1111001110101111
1111001110101011
1111011110001111
1111110010100001
1101001100
1111100111000101
1111010110101011
1110011000001010
1111010111001111
1111000111001010
1000100101010
10001011110
1011111000
1111111001111100
101000100001
101101110001
1010000010110
1100101011101
110001101001
1111111110100100
1000010
1100001
11010001
100
10110
1111101100010100
1111010111000110
1111011010010001
1111011111010100
1111101000
1111110011110000
10100101101
110010011111
1111101011011011
1111111000100001
1110110011111101
1111000100110000
1111010111111100
1111010010110111
1101100011
1111100000111011
1000010100001
100100011101
110110
111111011000
1001100010110
100011111010
1000011100
1000011100
101101
1111111110100010
1111111111001100
1111110100010100
1111101010101010
1110111000100010
1111000101000001
1111011110000010
1000101001
1000001100
10011100000
1111111100010000
1111111100010101
110000011001
1111111110111101
1111001000110101
1110110110111010
11011010110
10110001
1111110000110100
11011110001
11000100001
110010010
111110100000
1011000100001
1000111110001
111100110110
10011000110
1111111111001101
1111111110111111
10100111
1111110001011011
1111101000000011
1110100111010010
1111000011001101
1111001111111000
1111110011101100
111000000
100110101
10100000010
1000010100000
1111111100101010
1111110101010010
1110101111010110
1111100011010110
110110111
11111100
100101111001
10010011100
11111000101
1111100101111000
10100111101
1110010001001
1100011100110
1000000000111
1011001100
1100010
100010111
111110
1111111100011101
1111100011000101
1110011111100101
1111000001001101
1111001011111101
1111101001110101
10111001110
10001110111
1111111011100010
11010001100
11010111000
1111111001110011
1110000011100110
1110010001001110
1111010000011010
1110110100000110
1111010000011111
1111011010111110
1111110011101100
110011010010
110100110010
1100001001101
10011000111011
1100111001001
110110000
1001010
1001110
1111111110011000
1111110100101110
1111011101001100
1111000001110010
1111011000001010
1111011000011010
110011110
100001010011
1000101011000
101010101110
100001001111
1100001001001
111011110100
1110001010001010
1111001000011101
1110011010111011
1101010110001111
1101110100111010
1101101101101100
1110001001011110
1110011111111000
1110110011001111
10000001111
1011001110110
1001100111000
10000111001
10110
1111111101101011
1111111110101001
1111101110001101
1111100111100011
1111100011000001
1111100101001010
10011100001
10101101011
110101000000
11100011101
1010000010
1111111010100111
101110001001
1111100101100011
1110000000000111
1111001111111011
1110101101
1111010111100010
1111001011011000
1101110011000001
1100101100011101
1100100000010110
1101001111010001
1110101000111010
1111011100010001
1111111011001100
1111111111111110
11101001
10001001
1111111111010110
1111110111010110
1111101000011010
1111100110001010
1111101101011100
1000010100100
1110000001
1011000010
1111101011011011
111101001010
101010001001
110010110100
1111011101000110
1101111000011011
1111101001001000
1111110010000000
1110101100011110
10011011
1111111001000000
1111010101100101
1110001110011100
1110010011001111
1110110110011001
1111011010100100
1111101010011100
1111110010111001
1111111100110110
1111111101010101
1111111101010010
1111111100010110
1111100111100001
1111110000100001
101000001010
1000000100011
1111111010011000
101010000
111010101
100100000000
1010110110010
11110001001
1110011011010101
1110011100001001
1111011111001111
1110110101111101
1111010110110100
1111110111100011
1001000000
101110100
11101111010
11101001110
100000100000
1111110111000110
1111101000011101
1111101110011101
1111110111010001
100001110
10010
1111111011111000
1111110110000111
1100011011
111001010001
1000010100000
11100100010
1000000100101
10101010010
1001100011100
1111110000000010
1111100011001111
1110001010110110
1111000010000101
1111110001111001
1111111111010110
1111100100111110
1111011111010001
1111100111001011
11110010110
111000000110
1010100111110
101100010000
100111111
1111100010010000
1111100111101111
1111111110111101
100110
1111111111111110
110001110
11000001
1111110100010101
1101010011
1000010011011
1011111111011
1010110111010
1000011101000
11001010011
10101000001
1001111111
1101101011001111
1111010100011010
1111110100010010
100011010
1111010001101110
1111101010111100
1111100011101100
110001000100
101001011110
110110011101
100011011010
1111111010100010
1111010011000101
1111100100011100
1111111011000000
100000100
111100
1111111111001111
1111111000101010
1111010101000000
1111111011111001
111101011101
11000110000
1111111011100100
1011010000
1111011101110011
1111011000101110
1111010011110101
1110000101100011
1111110010000001
11010011101
1111101000101011
10111101111
11011001101
101011100100
111111001000
11000101100
1111110000111011
1111110010110010
1111011101101101
1111000110110101
1111110001011101
11111
1111111110100111
101100
1111111001001000
1111101110100011
1111101101111010
101110001001
111111101100
10001110011
1111001000110110
1111100111000111
110011101
1111010111001001
1110101110101111
1110100000011101
1011110111
101110100100
1111100001010110
110110111001
1001000110010
100010001110
111010111111
11101001011
1111011101010000
1111011000101101
1111110101000010
1111001011101010
1111101111001110
1111111010000111
10001101
1111111101000100
1111111001111000
1111101110010011
10011101
100000110111
100111101010
1111101111010010
1111100010000110
1111001110100101
1111100110001001
1110101101101100
1110011101100001
1110101010001111
10111110100
1000010001010
111001111000
101101000000
1111101110011011
1111110010110100
1111111001101111
11001101
1111100100001101
1111010000001111
1111101001010000
1111011001100011
1111110001001101
1111111011001000
11001111
10110101
1111111111011101
1111011101110010
1111111100110011
111001100110
110000011000
1111101100000111
11100001
1111001010000110
1111100001001111
1111100111011111
1110111110010110
1111101001010011
1001001010010
1010110000000
1111110100000111
1111110101001001
1111100001110011
1111101001111001
1111010010111011
1111111011001100
1111111000100101
1111001101111000
1111111001010111
1111100100110100
1111110100110001
1111111010111010
1111111110010010
1111111110011110
1111111111111100
1111011011101111
1111100101011011
111000000
1111100100110000
1111011111001111
1111111010110110
1111101100010010
11000001000
101100110001
1111111000101011
100111001
1111110000011001
101000010000
110110011101
111101000011
111001101001
1111110010111011
1111111100001001
10101110111
10010010011
111011011
1010111011
1111111111111010
1001010
1111111111010000
1111111100110100
1111111011110011
1111111110100101
1111101001110111
10011101000
1111101110110110
1111000010101110
1111110100001001
1111110011000100
1111100001100000
11101000100
111000111000
10111000000
11001111010
1001100110
110110011110
101011000010
10010001001
11000010011
10010011000
101111111000
111100001110
10101001111
11100101010
1000100001
10111101
1111111101001010
1111111101100000
1111111110010000
1011000
1111110111010000
1111100110010100
1111111110100111
1001001
1111110100101010
1111100100000100
1110011111
111100000
11011010
1111011011
1000011100010
11110110100
1001011
100100000110
10011011010
100000000001
111000000011
101110000000
11001110001
1010000000
110011001
11111100100
11010001
1010000101
101101
1111111110000100
10010110
1111111101101001
1111111111100010
1111101110100100
1111101000110101
1111111100001110
1111100011110010
1111001100110111
10010010000
1111101010101110
1111111111011110
1101100010
1111101011111011
1111011100000101
1011010
1111110110010001
1111110000110110
11110111011
1111011000001001
1111110110011000
10010010010
1111110100011111
1111111111101111
101010110
100100110
11011100
10001101
110
100000101
1111111110100101
100100110
100101001
1111110010000001
1111100100010011
1111100010100010
1111011000011110
1111101010010100
1011111111
1111111001011101
1111011110101101
1111101000011010
1010111010
1111110010100101
1111111111110100
1111101100011001
1010010
1101110011
1011111000
1111111000110000
1111100010010010
1111110101110101
1111111010010111
1111111011001110
1100110
1111111111101010
11010011
1101110
10001010
10110
1010110000
1000001101
1111110100010010
1111110011011101
1111101100010110
1111111101110101
1111101011
1011100010
1010111101
1111111011111101
1111111111101100
1111100010011000
1111111100100001
1110111111100001
1110110110101100
1110101100100110
1110101100100001
1111000100001011
1111011101000000
1111110100101010
100111110
10001
1111111101001001
1111111111011001
1111111101010111
11001000
1111111110100111
1111111111100000
1111011
1111111101111010
1111111001101001
1111110100001001
1111101100111110
1111100111110111
1111100010001010
1111011000101100
1111011001000000
1111001010110101
1110111101100110
1110111001101111
1111011101011001
1111000101001100
1111001011111011
1111001111110010
1111100111011101
1111100110001011
1111101011010000
1111110110111011
1111111101101011
11001010
1100
1111111110000100
1011001
1111111110011001
1111111110011100
1111111101110011
10011111
1111111110101011
1010111
11000
1111111101001000
1111111010110100
1111111010111111
1111111101111011
1111111100110010
1111111111001110
10011
1111101101000001
1111111000000101
1111111010000100
1111111011110110
1111111001110010
1111111101110100
1111111110100110
11011111
1111111111101111
1111111101101100
1111111111101110
1111111111000110
1111111111110101
111011
