1111111110101111
1111010
1111111100111111
1111111111001100
1111111111111011
10000000
1010000
10000101
1111111111000100
10111011
1111111111001100
1111111101110011
1111111111011000
1000001
1000100
10101101
1111111110111111
10110110
1001101
10100
11110
11110
1100110
10010
1111111111011100
1111111100101011
111110
1111111111100011
1000011
1001010
1111111111000001
10010011
1111111110100101
10010101
1111111111100100
0
1111111110101000
10110110
1111111110110011
1110101
1111111100111010
11001010
10001001
10110100
11001110
10000010
10000101
11111111
1111111111101010
1111111100111100
10110100
1111111011011001
1111111101101110
1111111101100001
1111111100101011
1110
10101000
1111111110011101
1111111101000111
10101001
100101
1001000
10100010
1001110
1111111111100011
110111
1111111111010111
10110101
101000100
111010011
100111110
100000110
101000110
10011101
10011100
1111111110110101
10110
1111111111010001
1000110
1000010
10000
1111111110001101
1111111111011001
1111111111110111
1111111111111000
1111111111011011
1111111111101000
1011101
10101
1010101
1111111111110101
1111111111110000
1111111110110010
1111111110011100
10011
1110011
11100110
100000001
100111100
11101010
101111
1111111001100100
1111111100111010
1111111110011101
10000
11001100
11101000
111111110
1110111
1111111011111110
1110111
1100011
1111111110110011
1111111110110110
1111111111000010
1001111
100100100
10000000
1111111100011001
100101000
1000110111
1111111111111001
1111110011011011
1111110101110010
1111110000111101
1111101111111000
1111101101011101
1111101000101010
1111101010111011
1111110000000100
1111111110011000
1111111011000111
1111111101100001
1111111110101101
1111111010011100
1111111111110111
1100100
1111111110010100
1000101
1111111111000110
10011000
1111111111101111
1111111011101011
1111111100111111
10100011
1010001001
1010100000
1001000111
1111111001010110
1111110100011000
1111110001101101
1111110010001111
1111101011101100
1111111000001100
1111111101001100
1000000100
1101011
1111111011110110
1111111001000010
1111111011010001
1111101100100100
1111111001110111
1111110001001011
1100110
1111111110000001
11100
11101000
1011101
1100100
10110011
1111111111100100
100011111
1001011110
10000111
10100110
1111111001101001
1111110110000111
10110010
10110001
1110010
1111111000101010
1111110111011001
1111110001110111
1111111011001100
110001
11011001
101101111
1111110000001100
1111101010111011
1111110011011101
1111110000110110
1111110101111000
1111111000011100
1111111001100101
1111111011110001
11001101
1111111110110010
11110110
1111111110110111
100000
100111100
10011110
1111111001111010
1111111011001000
1111110101100111
1111111001100110
1111110100111111
1111111100001000
1111111111111101
1
1111110111111100
1111101111110101
1111110011101110
1111110010010111
1111011110110000
1111100000011100
1111011100111001
1111100001111001
1111110110000001
1111111110011010
1111110111111000
1111111010000110
10011
100110001
10010000
1111111111010010
1111111111010100
11010000
10011100
1111111001110000
1111111010000011
11111
101011000
1111111111110001
1111111001110100
1111111011100110
110011
101110100
111011
1111111000001101
1111100110000001
1111101100100101
1111101110100100
1111110011000010
101111010
101000100
10001011011
1101011100
11001010
1111111011101100
1111111101011111
110010
1111111111000111
1111111100000111
101111
1000000
11100101
1111111110000001
1001110
110010111
1011010100
111001101
1111111101000000
1111111110000110
1111110111100111
1110001010
100001101011
11010011110
10010000011
11100000111
101011011110
101010000110
101001010101
100100110001
100001011000
10111010010
100011001
1111111100100011
10101010
1111111111111101
1111111111001110
1111111101111111
10001
10110011
1000111
1111111100100000
1101110
100100100
1010110111
1111110110110111
10100111
10101110
1111111111010010
10011010100
11111111010
101011111010
100111000100
110010010001
101110000001
101010011111
101101001011
101001011100
11111110010
11000100010
1111010111
1011001
1111111111101011
1111111110110111
101010010
1111111101110111
10011101
1010
1100
101010111
10010011
1111111010
1000100110
110000101
1001110001
10101110000
11001101100
1011000011
100111000
11010100110
1110101011
1001111100
101011
1011010010
100001110011
100010010000
100100110001
10101100101
1110101110
1000000010
1111111010101100
100001111
1111111100000010
100011
110010
1111111011011101
10010101
11010001
110100011
10000100110
10001010011
111111011
1001001000
1111110110
1100011101
1111111111100000
1011110001
10110001010
1010111011
1111111110000010
1111111001011101
1111110011100101
101111
1101010100
11000001111
11011101101
1001101011
110001000
1111111110011110
1
1111111111000011
1111111111101011
1111111111100111
1001100
1111111111000111
11010001
111100111
1011011001
1100100111
10011100111
110101000
1111111101100111
1111101100100101
1111111100101010
1000000010
1010111000
11010110011
1010010
1111111000010011
1111110100010010
1111111001011110
10110110
10001000100
10011011101
1100101100
11010100
1000000
1111111111001111
1111111111101110
110100
1111111110011001
10011100
11101
1011000
1111111111111011
1111111000110101
1111111110001010
111001000
1011001100
101011101
1111110100101001
1111110010101001
10000110
11011010100
110100101
101011
1101111
1111111001110010
1111101011110111
101001001
1011110110
110110001
111001110
1111111111111011
1011
1110110
1111111111010011
10101101
1111111111010111
1111111100100110
111101111
100111011
1111111101110010
1111110110010101
1111110010000101
1111110101111001
1011100110
11101110
1111111101101110
10
1101001010
11111001010
1001000100
1111111101011111
1111111011001010
1111111000011111
1111111010110000
1010010000
1011110011
110111100
1111111110101100
1111111011111111
111000011
1111111110100101
1100110
1111111101100011
10110100
101100
11001011
1111111110010101
111100101
1001000
1111111010010010
1111110111101101
1111110000100110
1111110100011010
1111110110110100
1101001001
10101010111
101100110
10001000
1111111011101101
110101001
1111111001010100
1111111101011011
1011111001
1001010010
110000110
1100111
1111111111011100
1111111111011100
0
1100000
1111111101110011
1111111111110010
1010001
1111111111011111
1101110
101010
1001101100
11000011
1111111001101001
1111110111111100
1111111101010010
1111111111011111
10101001101
11000000000
1010100101
11110000
1111111000110011
1111111010011001
101101010
110111111
1100001
111001111
1111111011110100
1111111001010110
10100111
100010011
1111111111101011
1111111110110001
1111111111101010
1111111111101111
101001100
1111111001111001
10101000
1110101110
0
1001001010
1110011101
1100100001
10100110000
10110100
1111111111001011
110001101
11001001
1001011
1111111001101010
1111111110101100
11001000
1111111110000010
1111111010101100
1111111101011011
1111111001001001
1111110010011000
1111111011111010
1111111011100100
1000101
1111111110011001
1111111110100010
1111111100111000
101001010
1111111010000101
111001010
10101000
1011110101
1000000101
1010000111
1110101100
1111100000
1110010101
1001101101
1111111000100101
1111111000001000
1111110101111000
1111110111011010
1111110110110010
1111111100111111
1111110110011101
1111110010011001
1111110000010001
1111110110000010
1111111001011001
1111111111101111
1111111010101111
1011
0
1111111111110000
11101
1111111110011101
1111111110011110
11010000
1001010011
110001101
1010110000
1110110010
1001000101
100101010
1100000010
1111111111101101
1111111110001100
1111111110101111
1111101000101000
1111111001001110
1111111011111100
1111110111011010
1111111010010100
1111110100100110
1111110001101101
1111110110000110
1111111111011011
1111111111010100
1111111110110000
1111111111010010
1100
1111111100100110
1111111110001110
1111111100111010
1111111010100001
101001110
1000100010
10110011
1111111100001011
1111111011111001
1111101011111111
1111101100001101
1111110100001010
1111111001000011
1011
1111110111010001
1111111001011011
1111111000111111
1111111111111110
1111111011101001
1111110010000000
1111110101111000
1111111010000001
1111110111110001
1010011
1111111111001010
1111111011111110
10101111
1111111110011000
11110111
10110010
1111111101101001
1111111100101010
100001000
1010010110
100110101
1111111111011110
1111110011000101
1111101111111100
1111101000001010
1111110010011010
10110
1111111101011111
110110
1111111101101100
1011100100
1111111100110110
1111111011110100
1111111101001000
1111111101101110
1111111000100011
1111111010110010
10011010
11010001
1010000
1111111111101010
11111010
1010110
10000111
111011
1011010
1111111111001111
1111111111010111
101001
1111110101100001
1111111111110111
101001100
1111111001010010
1111111010000000
100010010
1111111011111101
1111111000010001
1101000
1001111011
101010001
1001010
1111111100000110
1111111111000011
1111110110101110
1011011
11110001
100010
1111111111001010
1111111111100100
110011100
1111111100111111
1111111110100100
1111111100001101
11010010
10
1111111100101110
111011
1111111111001011
1111111001111111
111001001
11101
1111110011001111
1111111100010000
1111110010101011
1111110100101110
1111110110011001
11110
1111111100101100
1111111101001000
1111110111110100
1111111011000011
1111110111000000
11
1111100
10110110
1111010
1111111011001110
101101000
100000000
11000101
1111111101101101
11000111
110110
1011101
11111111
1111111110010110
1111111110111000
1111111101110111
1111110111000111
1111110110000001
1111110111011000
1111110111101100
1111110110100101
1111111110101100
1111110111001000
1111111111001101
1111111010111111
1111111101001111
1111111101101100
1111110111100010
0
1111111110110010
100000100
1111111100011100
1111111110010011
1111111111111011
1111111100110001
100010
1111010
1111111110001111
1111111111001011
1011110
1101011
1101100
111001
1111111011111001
10001010
1111111101010000
1111111101010011
1101111
110010
11001111
1111111110110001
1111111110110100
1111111111110010
1111111101111011
1111111101111011
10011110
1111111100101101
1011000
101
0
11101000
101000
1111111110000000
111101
1001100
1111111100110011
11100
1111111111001110
1111000
1111111101111010
11001110
11010010
1111111111111011
1111111111110010
1111111100100110
1111111101110010
1111111101111000
1101110
100011
11011100
1111111011011101
1111111111001110
11001000
11010010
1111111100110011
1111111101010001
1111111111011100
10010011
1111111100101011
