1111111
1000
1111111111111000
111101
1111111110111011
1111111111001111
1111111110000100
1111111110110011
1111111111100101
110
1111111111001110
10000101
1101100
100111
1111111110101000
101000
10000010
10110110
110101
10111111
11001111
101001011
1111111101101100
1111111010110000
11100110
10111011
1111111100101010
100010011
1010011
1111111101110000
10001111
1111111101010100
1111111010111011
10100101
1110000
1111111111110011
101001101
11000011
1111111
1111111101111011
10001010
1010001
1111000
111010011
10000101
101001
110100
100
10001100
10010111
1111111111101001
101101111
1111111101111001
100111100
11001111
1111111110011101
101011
10101100
1010
1011
1111111100001000
101100
1111111010111111
1111111110100010
100011100
100100110
101010100
1011101101
1111000001
1000011110
1101111101
1001100101
1111111011111111
10001110
1111101100101101
1111110011010100
1111110001110110
1111111011011001
1111110111000111
1111111100010111
1111111100101111
1111111110111001
111011
1111111111010100
101000
11100011
1111111111011110
10010001
111100
1111111110000010
1111111101111100
1010
10101111
10000011
1111111011100011
1111110111010110
1111100011101001
1111100010010111
1111100111000111
1111111001110101
1111111011001100
1010000100
1011100010
1111111100110001
1000011011
1000100001
1001000010
110101011
1111110111111100
11010010
11000
10101101
10001
1011
1111111110101011
111000
1111111001000010
1111101101001001
1111110011001110
1111011111011101
1111011111110101
1111111011011110
1111111100000011
1111011010111000
1111010101101101
1111110111110111
1011111001
1111011100100011
1111111100011010
101000001
1111001111111101
1111110000011110
110000001011
1111100110010010
1111100111100010
1111101100011100
1111001101101110
1111110011000100
100001
100001001
1111111011101111
1111111101011110
10000111
1111111010010011
1111101101110100
1111100110011111
1111011100110101
1111010100001000
1111011111101000
1111111010010010
1111011001111101
1111100001111100
1111101011100100
1111100000011001
1111110100110011
100010000
1111011111111010
1111101110001000
1111100010000011
1111110010001110
1111011011011000
1111100100011101
1111100111100011
1110111100001100
1111001110010101
1111110011010000
11100100
1111
1111111111110011
1111111110001111
11000111
1111110100100000
1111101011100110
1111010011001101
1111011010000100
1111100010001111
100000
1111101101111000
1111011111000111
1111111111001101
1111111101010101
1111101101111001
1111101010101001
10000100110
1111101011000101
1111101000011100
1111100111100001
1111011001010010
1110111000010001
1111100000100101
1111111011111110
1111001001010011
1110010110101000
1111011011100001
1111101101100000
1111111111000011
1111111110000111
1111111110111010
1111
1111101000111011
1111101001111111
1111011111000010
1111101110101110
1111100110110000
101101011
1011100111
1110111101001110
1110101111110001
1110110001111001
1111010110100101
1111001101001100
10001001
1111010010000000
1111100011110010
1111101110010111
1111000110010011
1110011100001111
1110111101110000
1111110100111000
1111101011011000
1111010101101011
1111001100010010
1111110010101010
1111111101101101
1111111110000110
1111111100001001
100001101
1111110000110000
1111101010100100
1111110011011010
1110100110
11011011
1111111010010000
11010000000
1111110101000110
1111110001100000
1010010001
1111110110111110
1110100101011001
1111100100011100
10101010000
1111011000111101
1111001000111011
1111101110010100
1111100101000001
1111101000101010
1000111001
101010010100
1111100000101100
1111010001101101
1111110001101111
1111111110111101
101
1100100
1111111111100101
1111101000001010
1111100110001110
11010011011
1001100011
101001101
1111111000000111
1011100000
11100001111
1111101111010010
10101000101
11011100110
1111110111100011
101011011110
110001010111
101010110101
101001010101
101111010100
111110010000
101011011010
111010110111
1100110100110
100111100011
1111101111110110
1111110110010101
1111111101011101
1111111100010110
1111111110111100
1111111001100110
1111100000001000
1111101110110000
110110100
1101101110
101111110100
1000101100
1110010111
110011100110
101011000000
111000100011
1000000101000
1000111110001
111101000100
1001011011101
10001000111100
1110100010000
10000010011001
1011000001010
1101000001000
1110110011110
10001001001111
1001010000010
1111111111001110
1111111011100001
1111111110100101
10010010
1111111111011100
1111111100101010
1111101100111000
1111111010110101
101000000000
11100001110
1010011001000
1010101001110
1001011011100
101100010001
111011011001
101011110000
10010010010
10000111100
1111111000000101
11101110001
10110010001
11000010001
101011011011
111110110101
10000011001100
10011011111101
10010010001000
1100010101111
1101001110
1111111110000101
1111111101100100
1111111110101101
1111111101101110
100100
1111110101001110
1111111111111111
100001100101
1000011001100
1000100001001
100111001001
110000001010
11100100
1111111110111000
1111110101101000
11110000101
1111111110101010
11100011000
1100011110
1111111010110001
1111111100001110
10110100100
1111100010000111
110010100100
1100001010001
10001010111011
1011100100011
10001001001
1100100
1111111111000011
1111111111101010
1111111100110000
1111111100001011
1111111101011001
1111110000010000
1111101110010001
101100001
100000100100
1111101010101101
1111101000001110
1111110101000010
1111011001010000
11110011
1111101001111011
1111110101101111
110010111010
11001011000
101110
1111101011111000
1111111111110110
1111111101000111
11100101
101101010001
1011011000110
1011011100100
10100100000
10100
1010101
1111111110111101
11011110
11110
1111111010101000
1111100100111101
1111101010101010
10010101
10100100110
1111100101010010
101010010010
11011101110
111100101100
110110011100
101010111011
1110101010
1111111111111001
111001010010
1000000100100
1111111000111001
10010000010
1111111000010111
1111111100000000
1111111010110000
1110000111
110101100111
1100100010
1111111101010111
101110000
1111111100010000
1111111110110111
1111111011110111
1111101101101011
1111110001111001
11111010111
1001011010001
1011000001000
110010001110
1101111000
11000001
1111100011010010
11111111011
1001000101001
101101100110
101000101011
1010000001010
1000001010101
1111011100110101
1111000001100101
1111011010100000
1000010111
101111000
1111101111010101
10010010
11001100
1111111110000010
1111111110001001
11000011
1111111100101111
1111111110110111
1111101001010001
1111111100101000
110101001001
10001101010111
10101000100100
11000110101001
1110010101110
10100101
1111011101010110
1110111100011001
1111001110101000
1001101
11110111111
111011011101
100110101
1111001000111100
1110111110101110
1101101
111000001
1111110100100111
1111110011101110
1111011001001001
1111111001100001
1111111100111100
110011
10100
1100001
1111111101011101
1111101000100111
1111100010011111
1000000001001
1101010101011
1110001001111
10111101000011
100000001010110
11011111111111
11000010101100
1000010000010
100100001110
1100010000010
100100111001
101111011111
1111100100100100
1110101001100000
1111101111001011
1111110011010110
1111100100101000
1001111001
1111100011111110
1111001111110101
1111111000101001
11011001
1111111011010101
1111111110010001
10111010
1111111001101000
1111011101111000
1111001011101011
100000011001
111010000001
100001000011
110101110100
10100100011100
11111110011010
101010000111101
100110010010000
11110010110110
10011110000001
1111111001100000
1110110111011001
1111101001000101
1111000001110101
1111000011010101
1111011100101001
1110110001110110
1111010111000110
1111001100101011
1111101111010100
1011010
101011111
1111111110110110
10001011
10110001
1111111001111100
1111011011010111
1111010111100110
1111101111101110
10001101001
1111111110001100
10010111011
100100101000
1111111110111001
101110011
1001010000110
1010011100000
110001111001
1110111001110011
1111000111111111
11010010
1111001111011001
1111010110011011
1111101111111101
1111000111000100
1111011011011011
1111110001011101
1111111110010011
111100000
11101000
10101101
1111111110011000
111001
1111111100011011
1111100111000001
1111011101001000
1111111110010000
1111110111110010
10001001101
1100110101
111001101101
11010011101
1111010111001110
1111001111000111
1111000111011101
1111011010011101
1111011111101111
1111100010011000
1111000110010001
1111100111111101
1111110001011000
1111001110010001
1111110001110110
1111110100100000
1111111100100001
111110100
111101000
10101111
10110
1111111111101000
10100100
10011
1111100111100101
1111011011101110
1010111111
1111111000010000
1111100110101001
1111010111010110
11010010100
1111110011001111
1111111010011000
1111011011101101
1111100010100011
1110111111110100
1111001100100010
11000100
10110001000
1111010101110010
1111110100011111
1111010001100100
101011010
111001111
1111101001110101
11101001
1001001011
1111111111101110
1101000
1001001
1000011
1111111111110010
1111110100111100
1111101110110001
1111100111110010
110110000
101111100
1111011011101110
1111100000100101
1111010001100111
1111000011111111
1111010100111010
1111101000011000
101010001
1111100101001100
1111111001000010
1111110000010010
1111111001100010
1111001010111100
1111010110010000
10100010010
1111111001100001
1111101110000010
1111010001
111101100
110100100
1111111101001011
1111111100101111
1100011
1111111110110100
1111110101011100
1111011110001111
1111000110100100
1110101111100011
1110110011110110
1111011110110000
1111100110010010
1111001
1111100001100000
1111100110100101
1111110001000001
1111101110011011
1111010011011010
1110110010
1000111001
100110101100
11010001010
1111110000
1011100111
1111101110011111
1111110111110110
1001110101
1000101000
1111111110011111
1011111
10011110
1111111110111101
1110000
1111110111011101
1111100100001110
1111001100000000
1110101101010101
1110000111111111
1110101011111001
1110101000100000
1110101111001000
1110111011111011
1111100111100011
1111101110010100
1111001110000011
1111111001000111
10001111100
1111111001000100
100111110111
101110010111
1111110011001001
1111100101001001
1111101000111100
1111111010100011
10000110
10101100
101010
110
110101
1111111101000101
110100
1111111111010000
1110
1111111100111000
1111101110001101
1111010111010111
1110110101001001
1110010111101110
1110101010111001
1110011110111001
1110001100010110
1111000100001101
111010110
11001000101
110001111
11100100000
1110101000
1111110110101010
1111111010010110
1111111011101001
1111110001010000
1111111100110000
1111111100100110
1110110
10100
1011101
101111
101010
1111111101101101
1111111110101000
1111111110111010
11111100
1000101
1111111000111111
1111111000000001
1111110000011101
1111110100110000
1111111110110001
1111111101111001
1111111011010111
1111111101011010
1111101100011111
1111110001101111
101111
1111110001001111
1111110010111010
1111110101101101
1111110100001001
1111110111111101
1111111101001111
11001
1111111101100000
10000100
11000100
1111111111001111
100101010
1111111101111011
1111111101101010
1111111111110100
10110011
1111111101100011
1111111101000100
100001
1111111111000110
1111111101110100
1111111110000101
100011110
1111111110011101
1111111110011110
10011
1111111100110000
1111111111100100
1111111110100110
111101
1111111100001010
1011110
1101111
1111111110000001
1111111100001000
1110110
1111111101011100
1100000
