1111111110111001
10001
1111111110011000
10110100
1011000
1111111110000110
1111111110111111
100111
11011001
1111111111101001
1111111
1111111111001010
10
1111111101010111
0
10100
110001
1100110
1111111111001001
1111111101001001
110100
1111111110100000
1111111111101010
1111111100100000
1111111011100000
111010
11000011
10011
1111001
1111111111010101
1111111110001111
1111111110111011
10111101
1010000
1111111010111100
1111111100110110
1111110111001110
1111111010110111
1111111000010011
1111111000011100
1111111110000100
1111111001100001
1111111011000111
1111111001110001
1111111110110101
1111111011111000
1111111011010111
1111110110101010
1111111100000100
1
1111111110100000
0
1111111110000101
1111111011011111
1111010
1111111111010000
1111111110011111
1010100
100001
11001010
1111111111111011
111011
1111111100100010
1111110110110011
1111101101011111
1111111000111000
1111111001000010
1111111101011001
1111111011111101
1111111000111000
1111111010101111
1111110000001011
1111111000010011
1111111010100101
1111101101001100
1111101000010010
1111110011111110
1111101101101111
1111110100110000
1111110111100100
1111111101110010
1111111110100011
110010
10011011
110
1111111111100100
10011110
1111111111100011
1001110
1111111101001100
1111111000011001
1111110011001100
1111110110110011
11001100
11101001
1111110100110001
1111111100001111
1111110100111001
1111110100000110
1111110001101101
1111110101011100
1111101100011000
1111100101111011
1111100101001100
1111011000001001
1111100001111010
1111110111101110
1111111110110001
110011101
1111111101010010
1111111110010101
1010101
1111111111001101
101111
1111111111010100
1111111110101100
1111111101111010
100110101
1111111011100000
1111111110100000
100000011
1010010011
1111110101110100
1111110111000011
10111111
101100001
1111110110000111
10000
1001110
110000001
10100000
1111110011100101
1111101001010101
1111111000011100
1111111101101010
111111101
1001000110
100001001
110101
1111111110110011
1101110
10010011
1111111111001011
1111111011110010
1111111000110101
11001101
1100111
1001000000
10000101011
1110100100
1111111111101011
10110011000
10010011110
10111100110
11101101101
100111101000
11100110010
1101100000
101110110
1111111001111110
1111111011100001
10000011000
11000011000
1101011010
1101100110
10111001
110111
1001000
0
10101101
101010
1111111100101100
1111111110001011
11010111
1111111010111110
1000100100
101111110
10010010
1000101
1111110000110000
1111110001010000
1111101110111010
1111101110110000
1111101101011001
1111011000100010
1111011100100011
1111011100111011
110111
11000100100
11010111111
100011111101
100101111110
10110010010
101011011
100001000
11110101
10001001
1111111110010001
1100101
1111111011110110
11100010
1100100010
1010010111
101001100
11101010
1111110111110110
1111101000000001
1111110110000000
1111101000011100
1111110010110110
1111011000011010
1111010000001000
1111100010101011
1111111100010101
1010101101
101011110001
100110100110
101100010011
110101000011
110001011100
11011100000
1101010110
100010100
100000101
1010001
1111111111111010
11011100
110000101
1111111011000101
10011001101
1110001010
1010000001
1111111111000000
1111100111010011
1010010
1111110011100101
1111110111111011
1111110000001000
1111111111100010
1011111010
1110100000
101101101101
1000010110011
111001101101
110000111101
100100010110
101000010011
110110111011
101010001000
10110111111
1000110111
100000111
1111111101000010
10111
110010101
1111111011100000
1111111001010011
1011011001
1111110111010101
1111101
1111101011000101
1111111010100001
1111110101010011
1111111101101001
1111111011111111
1010001110
1111111110100000
10101000010
111010101111
1001000101110
11111011011
10010101010
1101001011
1111110001
100000001110
101011000001
11100111111
10010010101
110010110
1111111110100111
1111111101011010
1011
1111111111001100
1111111011010101
1111111001001101
1111111101100011
1111110111110010
10000100000
1111111010110011
101001010
11011011
1010001100
10110110101
10101010
10011010110
110001000001
10011100010
1110000001
1111101110110100
1111111011001111
1111111111100001
1011111000
1100000000
10001110000
1110001111
1111101011
111100111
1111111110001001
10000110
1111111110101110
1111111100000001
1111111010011011
1111110110011001
1111110110001000
1111111010101111
1110010111
100001011
10100111100
10001001111
110010011
1111010110
1111110010010100
111000010
11011011101
1111110110011000
1111101110010011
1111110000110011
1111101100100010
1111110001111100
1111111001010110
1111111100010010
1111110001010000
1010010
111111001
1001011110
11011101
100110000
1111111110111101
100010
1111111110011010
1111101011010001
1111110000011101
1111111111111001
10011011
110010101
1110100
1001111100
101101110
10111000111
100100011
1111111110101111
11110111
1111110001001101
1111100111011000
1111111101100000
1000110100
1111111110011010
1111110110111100
1111110010101010
1111100100110001
100001
1110111100
101101101
1111111111111000
111101
1111111011001111
1111111111111011
1100000
1111110010011111
1111111011011111
1111111011001100
1111110101000111
1110001111
1111111011101001
1111110101011000
1111111110110011
111110101
1111110101100000
1111110100111111
1111110100011001
1111101110111101
1000001110
1111111111101000
1111111010110101
110101
1111101001111110
1111111111001110
1111110100010100
110001000
10011111000
100101101
1000011
1111111101111110
1111111101001001
1111111101011111
1111111100001010
101111011
1110010100
1111100111111110
1111110011110010
1111111010000000
1111110110000101
1111110100100110
1111110101011000
1111111100011011
110001
1111110111010111
11110100
1111111100101100
11011
1111111100111101
1000010001
1111101011100000
1111101110101101
1111111011111111
1111111011110111
1110111101
1011001000
1011110100
1111111110001100
1111111110101111
11110111
11
10001001
1111001110
11001111001
1111101000111001
1111110100100101
1111110101111001
100101
10101010
1111100111101011
101110000
1011111111
1111101011101100
101110
1101000000
1111110001110001
1111110111001101
1111111111100001
1111101000100010
1111110000100011
101000010
1111110101
1010010000
10010100
10010111101
1111111111101110
1111111110001110
100011010
10010110
1111111111100000
100100010
1110001100
1111110110001011
1000
1100010000
1100
1100010
1111100010110110
100010001
1110011101
1111110011001110
1100110110
10000111010
1111111111110110
1111111111010110
11100101
110010010
1111111111001111
111111111
10000011100
1101011010
101000100
1010101011
100
1111111011011101
1111111101100101
1111111100101000
1111111010011111
110111
1100001000
1111110010101111
100111101
1001110011
10101010101
1111110100101110
1111110001110011
1111101110000011
1111101010110010
1001010111
111100010
110010110
1111111111011101
1111110110101110
110100
11011010
1111101100100110
10111110
101101110
1110111010
111110000
100001011
1011
1111111100111101
1111
1111111111111100
1111111011111101
10001101
111110011
11111011
1111111000101101
1111111000010001
10100011011
1111111100100101
1111111001100000
1111110111111001
1111111000000010
111001
1111110010111101
1111111000101001
1111110011110110
1111111000001100
1111111111101111
1111100101
1111110111110010
1011010
1010011100
11100110010
111101100
111000101
10010000
110110
1111111101110111
1111111100111110
1111111011001000
1111111110110011
1111111111001010
110101001
110100010
1111101111110101
110101110
1111111
1111111110000001
1111101111010101
1111110000111100
1111111101111010
1100001100
1111110110110010
1111111010010010
111100001
1111111100111100
1001101111
110100101
1000100001
1101001001
100001011010
1100011111
11101011
1111111110001001
110010101
10101001
110110
1011
1111111111111001
111101001
1001001100
100010101
1110000100
1000011000
1011101110
10110001110
1101110
1111111110000000
1111110101001111
1111110101111000
1010011001
100010011
1111111111110010
1111101101111001
1111111101111100
110110010
1100010111
1110111110
1101110001
1100001
101010010
1011110
1111111110000111
1111111110111011
100101000
11000011
101101010
1011010001
10001011100
1000011110
110110111
1100001010
100000000
1000111101
1111101101110011
1111111100011100
1111101101110110
1111101000010101
1111111101010111
10111100
1111111011111111
1111111010000000
10010000
10100100011
1110010111
10010011001
1111111110001001
1111111010010010
1111111111000101
1111111111010010
11010001
101001011
1100100
10010101
10
100011010
1111010111
10001110100
1101110011
110101001
1111111110001001
11010100100
10101010
101101100
1001111100
1000011010
1000011111
1111110000
10111010111
10100101011
1100100110
10010010011
100110010
101001110
10111
100110000
1111111110011001
11010110
1100001
11000000
1111111110010111
1111111111001001
1111111110100011
10000010
10110000
1100010011
1101001110
10110111100
10110000010
100111001011
101010011000
101011011001
100011010001
11111011111
101000011110
10111001111
10001011110
11011101
1000111111
1111111111101111
1111110110110000
1111110110001111
1111111001111000
1000010
1110010
1111111110000000
1111111111100001
11101011
11110111
1111111110101111
1111111111000110
1101000
1111111010111110
1111111001110100
1111101001001100
1111111000001010
1111110111111011
11100
100000101
10101100
1111110110111010
1111111100111111
1111111001111111
1111101101011111
1111111011001001
1111111000110111
1111111001110101
1111101100010000
1111101100111110
1111110101110010
110001100
100101
1100011
1111111101011010
100010110
1111111111011110
1100101
1110010
10100111
1111111100110011
1111111111010000
1111110011011100
1111101111001011
1111101110110001
1111101101001011
1111101010110010
1111101000010010
1111101010010001
1111100001101011
1111101110001110
1111101010110101
1111101011100100
1111100110110111
1111100000111100
1111100011011001
1111011101010011
1111101101111000
1111111000000001
1111111101101111
10101111
1111111111101101
1000101
1000101
100101000
1111111101111010
1111111101101100
10000100
1111111111101000
1111111100101111
1111110110011000
1111110111001010
1111110101001001
1111110001110010
1111110101101101
1111110101111001
1111110100110001
1111101010101101
1111111111010001
1111111010101100
1111110010101011
1111100111111111
1111101001110011
1111110000000010
1111110110101111
1111111011000011
1000010
1111111111110001
1111111111111001
1111111110000111
1011111
1111111111010000
1111111101000000
1111111110101010
1111111110001001
1111111110110011
11010
1111111110100110
11001101
1111111110011111
1111111100111010
1111111111011000
11100111
10010
1111111010011000
1111111010110010
1111111111010011
1111111110010111
1111111100111110
1111111100011101
111101
1110111
1111111100100000
1111111100101011
1111111110010100
100110
101001
1111111111001000
1111111110111100
