100110001
10111001
1111111111111110
1111111111101001
1111111101110001
10011101
1000
100110101
1111111111110111
1111111110101010
100011
111100
1111111101111101
1111111111000000
10010110
1111111110000100
1000011
1100110
1111111110100000
1111111100111111
111001
101000011
1111111101110001
1111010
1010100
1111111110101101
1000101
10000010
11100101
1111111101100011
1111111110101011
1111111111000111
1111111111010110
1111111101000001
110010
1010
1011011
1111111111101000
1111111110010111
1001
10111001
1111111110000101
101110
11101101
1111111100001011
1111111111011010
111101
1111111111010110
11010010
1111111101001000
1111111110011100
1111111110110111
1111111110101101
1111111101011111
1101011
10010010
10011010
1111111011101101
1111111110010111
11001001
11010111
10010
1111111110010110
1111111111010000
1111111111001001
11111
1111111101011111
1111110111111101
110111
1111111100111001
1111111111001100
1111111110100110
1111111010111001
1111110011111100
1111111011000001
1111111101001010
1111111100110010
1111111011101000
101011110
1111111100110101
110010
11001000
1111111110001101
10011001
1111111110111101
10110011
100110011
11
1111111110101100
1111111110111011
1111111111010110
1111111100010000
1111111010100101
1111111001000001
1111110101001100
1111101001010000
1111101100001010
1111101001000000
1111100001011110
1111101101111001
1111110011101110
1111111100110000
110111110
1111111001111111
1111111011011100
1111111000001011
1111111010110111
1111111010100000
10010000
101100
1010011
1111111110101101
111111
1111111111010001
1111111101110001
1111111100010100
11010010
1111111100100110
1111111110101101
1111111100110000
1111110011101100
1111101101000011
1111101011111100
1111101101111110
1111101001111001
1111100101100101
1111111100011110
1000110000
1010011110
11100011
111001010
10110101000
10110010100
1001011100
10000011001
1001101010
1111110110010001
1111111010010010
1111111110111010
1111111110111100
1111111110000001
11010
1111111111000010
100100100
1111111101110010
10010001
1111111110110110
1111111000000100
1111110010111110
1111101111111001
1111010011111011
1111011010001000
1111101101100110
1111110110000110
1111101111111110
1111110100010000
1111011100111000
1111000111101100
1111100100000011
1111100101101001
1111101000001101
101001100
10110100001
1011101101
1000100011
1111111001111001
10
1111111110011010
10011111
1100001
1111111110100111
1011111
1111111010101000
1111111110101100
101010001
1111111000000100
1111110110000001
1111101110011111
1111111001000101
1001110110
11001
1111111111001010
1111110110010001
1111101001011001
1111110111101101
1111111110101100
1001101000
1111111010000001
100010010
11011101
100010110
1111110110010101
1111111000001001
1111110011101000
1111111011000011
1111111110100101
1010000
1111111100110111
1111111110111011
10101100
11001111
1111111101111011
1111111101101111
1111111110011001
1111101010001011
1111101111110101
1010
1111110101001011
1000111110
1010001011
110011011
10101011
100000001000
10100000010
100110010
1000000011
10000001111
1111111010011111
1111111011010111
101001
1111100101001010
1111101100101100
1111111010110101
1111111110000000
1111111100011111
10000
110110
110010010
10100010101
1100000001
111010010
11000010110
1101111000
100111010
1111111000111101
1111110101100110
10000111110
10000111111
1111110101
10111011010
1110011011
10101101110
11000110111
100001011
11101000
1111110011011111
1111111011110100
1111110000110011
1111010010111000
1111101011010010
1111111011000011
110111
100100
100001000
11001110
1111110101
10100100110
100000001
1111111100100110
1100111
1111110001100011
1111110111001011
1111111111011101
1111100110001000
1101100010
1111110101111010
11101011101
1110100001
11000011010
11100101000
10111110101
1111100111
10010101111
1100000
1111111100010110
1111100001110001
1111010111110100
1111100110011010
1111110111101110
1111111111110001
1111111110101111
11100111
101111011
1111111101
1000001101
110100111
1111110000000110
1111110011000000
1111111000100010
1111111100111110
110001111
11010101
11001000
1110111110
10000111101
100011110100
101110010101
1000111110
1001010111
1100010000
111010101
10011010001
11100111111
1111101111010010
1111100011111101
1111110001010101
1111110110101000
1111111111000110
1111111101001010
1111111101010101
110000010
1100001110
101001001
1111111010101010
1111111010000100
1010100101
1111111110101100
1111110111000111
1111110011
11101011
1000011
101001010101
101111111100
1000100000110
10011100110
10011011
11100001010
10001110101
10110100111
100011001111
100010011011
100111001
1111110011111111
1111111011001011
1111111110000000
1111111110110010
1111111101110000
110000010
110100001
1101000101
10111011011
110011101
10011000111
100001100010
1111111011001001
1111111001001100
1111101111100001
1111011001010010
1111110100110001
1111110110000110
10111011000
10011011001
10100010100
11010100110
10101100001
10010101100
10010000110
1101011010
10111111111
1111111110011010
1111100010000000
1111110101000101
1111111111110000
1111111110000000
10100001
11011110
1000101101
1011100000
11011010000
1110100011
110011000
111101111
1111110101110001
1111100100110010
1111100011110011
1111010111101000
1111101010101001
1111101100100010
1110100001
111100001
110011110
1111111110010110
1111111000111101
1111111111100001
101010110
11011011
100110
1111100100110001
1111100100111100
1111110010111010
1111111010111001
1111111111101100
110
1000111
100010111
100001001
110000111
1111111111011101
1011111100
1111110100101010
10010101
1111111011011010
1111101111101100
1111100101000110
1111110011110011
1111101000000000
11010101
1111111000011011
1111111011000011
1111101101011110
1000011100
10001000000
110001111
101001100
11011011
1111111101111111
1111110011100111
1111111010111100
1111111100010101
1111111111011110
10010110
1100001
110111
1111111111000011
1111111111010100
1111111011001110
1110100
1111110000001101
1111110011001010
1111100110001101
1111110011100101
1111110111001010
1111111001101111
1111110101101001
10010110101
1111111001001000
101100011
10000001110
1010101001
1000011100
1111111101011011
110011000
10010101
1111110011111110
1111110000100110
1111101101011101
1111110110010110
1111111100000001
1111111110011000
1111111110010001
1111111110001001
1111110110111100
111001010
1000011000
1111111111000011
10100010
1111110101011101
1111111100100001
1111111011100010
1111101111011110
1111101000100110
1111110101001001
1111111010100100
1111101111100101
110111101
11100
1000000
11010100
100100
1001101110
1111111000101111
1111100000111011
1111011010111110
1111101011101110
1111111000000111
11010
11010
1111111011100000
1111111110100001
1111110100010110
1111110111011010
1111110101001011
1111100101111001
1111111110000000
1111111010110100
1111111010111011
11
1111110111010011
10011
100101
1111111011000000
1111110110101000
1111110001100111
1111110100111011
101111011
1111111111101010
111010100
1111111111111100
1111101011100111
1111011000100110
1111010111100111
1111110000111000
1111111000000000
1111111100101111
1111111101111001
1111111110100010
1111111101000010
1111101111110001
1111100011010010
1111011011110010
1111001111100111
1111100110010010
1111111111000111
1111110110011101
1111111001001111
1001000101
1111111110011010
1000100110
111011101
1111110101110101
1111101000011001
1010001
1111110001010111
1111111011010010
1111111001000110
1111110000110111
1111010000000001
1111001011010101
1111010100010000
1111110101001101
1011110
1111111111011101
1111111101110010
101000
11000010
1111111000100000
1111100101000101
1111001101001000
1111010010110010
1111101111000111
1111101011111000
1111110010100011
1111101101110100
1111110110001110
100101101
111000011
11011100
1111110011000110
1111110110101011
1111110011001101
1111011101101110
1111111011011011
1111101101111010
1111010110001101
1111011011100111
1111100001011111
1111101010100101
1111110110111111
1111111111011100
110000
1111111100110111
11
1111111001010110
1111110011001100
1111100100010011
1111001110100101
1111011110111111
1111010101100110
1111101010101111
1111110010110100
1111100011010001
1111110001101001
1111110101011100
101000001
1101100000
1111111010111010
1111111000101101
1111110000000100
1111011101101001
1111100011010100
1111011110011000
1111011100100111
1111011000011111
1111100101010110
1111110100011110
1111111010011001
1111111101111010
1111111101100101
1111111111001010
100011
1001011
1111111000000011
1111101011101111
1111101111010000
1111110010100001
1111101001101001
1111100100100100
1111100000010110
1111111010111001
1111110111101000
1111110110101100
1111110011001111
10110101
10011001
1111110101100110
1111101000011111
1111101100111001
1111100000000011
1111101000101001
1111101011101100
1111101101100101
1111101010101101
1111111001100110
1111111100011110
1111111111001110
10010000
1111111110010110
1111111111000011
1000100
1111111010011011
1111111001110000
1101111001
1010110011
1000101111
11001101
1111111110101111
1111110000110001
1111011110010000
1111100010011110
1111101110110110
1111111100010011
1111111011101111
111110001
10011101001
1111110100001100
1111100100010110
1111011011100110
1111011100010101
1111101011000011
1111101111011111
1111111101101001
1111111110101100
11000110
11111
1111111101001011
1100001
1111111101001010
1111110100001100
1111111001101001
10110110110
10110101100
10000011110
1111111011110001
1111111011110010
1111111001000100
1111110000000101
100101001
1111110000011110
1111100010011100
1100011110
1011000110
11111000
1111100100010100
1111010011010100
1111010110111101
1111100000101101
1111111000011000
1111110111101011
1111111111010101
1111111101100000
10100101
100000
1111111011111000
101110
1111111010001100
1111111000010100
1111111101000001
1111010110
1011100110
1110
10101011
1111110110000100
1111111011001110
1111011100101011
1111110001111110
1111100110100001
1111101000001000
1111100011000001
1111011011011100
1111101001101010
1111110001001110
1111101010000111
1111101111010100
1111110110011001
1111110101100011
1111111101110011
1000111
1111111110101111
1111111110110000
1111111111110101
1111111111000011
1111111111001101
1111111111010011
1111111100011001
11101111
1100011100
100111010
1111010101
10111010000
10111010011
1010111111
1011111001
11110011101
101011011
1111111011101011
110000
10000110000
11001001100
11001011001
10111100100
1011111101
1101010000
101000111
1101000
1111111110001000
1111111111101010
1111111101101010
11111000
10100100
1111111011011110
1000110
1111111100111110
1000010
101000100
111100111
1100011011
10100000010
10101111111
10010001101
10000010100
10101100100
1101001011
11011001110
11001101000
1111100100
10000101101
10111111110
10010000011
1111110101
1011101001
101111001
10100001
1111111101000101
111011
1111111111001101
1111111000110011
1111111
1111111111010100
1110001
1000011
1111111111000111
1011100
1111111110101100
1111111111111000
111010
11110100
100010111
1000010
10101100
100011101
11010011
11001110
10101100
101001100
1001011100
1000100
11100001
10011110
10011101
1011001
1111111111000000
1111111100011001
1111111111110000
10011000
