1111111110110000
1110
1111111110101011
1111111101000110
1111111111101111
1111111110000101
1110
1111111101111001
1111111100101111
1000000
111
1111011
1111111101101010
11111
11100
1000001
1111111110010010
1111111110100010
10111010
11110
1111111100101010
1111111111101011
1000
10011110
1111111010111100
1111111110011011
10010000
1111111111100110
1111111111010010
111011
10111111
1010100
1010010
1111111011110110
10111101
1111111111011110
1111111110111111
100000
10001001
1111111110000000
1111111111100111
1111000
1111111101001101
1111111010011111
1111111110111010
1011001
1101111
1111111110101010
1111111101000111
11001
1111111111110111
1111111101111000
110011011
1111111111110100
110010
1111111100110010
11110010
1110110
1001101
1111111110111001
1111111111110011
1111111111100010
101000
100000
100110100
1000101000
1010010010
11111000
1010111001
1110011011
1011001011
10010000
10111
111100100
10000111
1000010001
101001100
10111001
1100
1101000
11110
111100
10111100
10100111
1111111110100001
1011011
10101000
1111111111101011
1000100
1100110
1000001
10101010
101101010
10000000001
11010111011
11101110000
110101111
100010110
11010010
1111111011111001
1111110111001001
1111111100010101
101000101
1001001111
111110100
1100101010
1100100010
1111110010
111001011
1110100
1111111111111011
1111111101110110
100110111
1111111111111111
1010111
10011000
1111111110111010
1111111110000111
1111101
1111111010110111
1111110110101110
101101110
100100101
1111111001011011
1111111000011111
1111110111101001
1111111100111010
1111111001100000
1100011100
1001000100
1111110111111001
1010110001
10110111001
11110
1111111110111110
11000
1111111000010101
100100
1111111011100001
1111111111111001
1101011
1111111110110011
1111100
10000011
1111111000110100
1111111100010000
100010
10011
101000000
111001101
1111111000110011
1111111101011100
1001100001
1111111111111011
100100010
1111111101000101
1111100100010010
1111111111110111
1111101110110101
1010001
1010011
1001111111
100111011
111
1111110011101010
11011101
1111111100110011
10000001
1111111011001001
1111111111011100
101001
1111110010010110
1111110101001110
1111111001000100
1111111111010011
111100011
1000110001
1000101001
1111111001101111
1111111010100000
111011111
1111110100011110
1111110010001101
1111001110
1111110011101110
11011010
0
11110011101
1101101
1000100011
10011100
1111111111101111
1111110001001001
1111111001100011
1110
1111111100111001
1111111101000110
1111111110010110
1111111111001001
1111111111100100
1111111111000100
1111111010101111
110111001
100111111
10101010001
1110010001
1101001101
11001000
1111110000100010
0
1111100001110100
1001100110
0
11101111
111110000
100010010
1111111010100110
11000111
1111111110101000
1010100011
1111110111001001
1111101111001000
1111110111110100
1111111101001101
11010101
1111111110100011
1101
10101101
1111111111110011
1001010
11101110
1010001101
1111111110110011
110110100
1110101
1111111011001001
1111111000110010
111101011
1111101111100101
1111110100010110
100111000
1111110011011111
1111101011111000
1111110100100110
1111101111010110
1111111000101111
1111111000011111
1111111110100000
1111101100111001
1111011100101111
1111110010100010
1111111110101100
1111111101000001
10101010
1111111111100111
101010010
11110
1111011110
1111111101101111
110011
1111110111110100
111110010
1111111010010111
110001111
1111111111111110
1111110101010000
1111101010011010
1111110011001110
1111111101100010
1001001111
10111011
10010001001
1111001101
1111111100001100
1111110000111001
1111110100110110
1111001101110001
1111000011001111
1111101000100011
1111111000100011
1111
1111111111101100
100100011
11001
10001111
1111110000
100111010
1111111111001111
1111101011010000
1011101100
1111111111000110
1001001010
100010011
1111110000101111
1111110100011000
1111111110101010
1111111110110101
10011111011
1000010011
100101110
1001011001
1111101111110100
1111110111100111
1111110111100110
1111010000001110
1111000111001100
1111101101101011
1111111111011001
0
1001001
1111111111001100
1111111111111111
1011100110
10111110000
1011110110
1110010
1111111010111111
11000011111
10010010110
1110001001
1111111010001011
1111100110011100
1111100000011111
1111110111101110
1111111101001100
111100000
1111110100011000
1001000010
10000000000
10001000000
11011110110
1100000011
1111110011010111
1111100110110011
1111111010000000
100001011
1111111111011010
11011100
100100001
101000
10111001
1000110011
1100100010
11011010
10000101110
10010001001
1111101100110110
1111110101101101
1111101111001101
1111110111100101
1111101111001111
1111111100110000
1111111001111001
11000000101
1001010111
11000111010
10010010001
101010001001
110110000010
110001111000
11100001110
1111111111000100
1111111100010100
10000000
11110110
1111111101110100
110110000
1000
110101
1111110110101101
100010
10101010
1010110011
1111111011010001
1111110111011010
1111111001010001
1111110001010010
1111111100001011
1111111001100000
1010111110
1111111011001111
10100101000
1111111010011011
1011100110
10110011011
10010010100
10101000111
10111101011
1110100000
100110010
1111111111111010
1111111011101110
1111111001110101
1000011
111101011
1111111111110001
1111111010000110
1111110001010010
1111111100000100
111100100
1111111111000000
1111101111001000
1111010
111000000
1111101111110110
1101000111
1111111001100101
1111111011011011
110011000
1001111001
10001110000
100000111010
11011100010
1111111110011101
1111111000000100
1111110111001011
10001101
1100000001
11000001
1111111100001100
1111111110100010
1111111111110111
1111111100100110
101010111
1011010
1010010
1111110101
10011010110
1111100001
1111100110011001
1111101100100111
1111011111111000
1111110010110011
1111110101111100
1111110111010101
11110110
1000110001
11100110000
1111111110000111
101010011
1101010110
1111110000100101
1111110101011010
1111011110000101
1111110111000111
1110100000
1111111111101000
10000100
1101010
1111111110111000
1111110110010100
1111111100010011
10101110
1101001100
101000010011
1000011011000
1010000010110
110111011011
10101011011
1111101100001011
1111101000010111
1111110101111100
1100111000
10110111101
1010100100
1010001110
100111000
1111110111010010
1111111111001011
1111111011101111
1111101110111011
1111101010011001
1111101111000011
1101010101
11111101
1111111111100011
1010110
11011000
1111111011011101
1111101101011100
10111101
100101111
1100111
101100111000
1100110100101
10101010000110
10101100001011
10000110000001
1010000100011
111110000111
100100000111
10101110111
1010111011
110011100
111100101
1000011
1000010010
1111111101011110
1111110111000111
1111101110110001
1111111101010011
1010001011
1111111110011000
11011101
10100
111111
1111111101100010
1111100100000001
1111110011011100
1111110111001101
1111101100110000
1111101010101111
1111110011001011
100001010001
1001110111100
1100001100000
1001010101101
100001100011
10100001010
1111110110110111
10110010
1111111010010000
1100010100
1111110000001111
100010001
1111111100011000
1111111011001011
1111111110011100
1101010111
1100110110
1000111
11010001
1011100
10101110
1111111011010010
1111100010110001
1111110101000010
1111101111100001
1111110110011101
1111100100011000
1111000101111100
1111010101001001
1111010000100110
1111101011111110
1100011111
1111110010110110
101111100
1111111010000010
10000100011
10111101000
111111100
1111111110010110
1111111111001001
101011111
1111111011000010
1111111101101011
1111110110
11100011
11111
11001111
1111111111111001
10001101
1111111110110100
1111100111010000
1111101111001111
1111110011011000
1111110110000001
1100110101
1111101101110001
1111101011110011
1111110000110101
1111100111011111
1111111111011111
11000001
1111111101110011
10001011010
110100
1111111101101001
1111110001011110
101010001
1111111011010111
1011110110
1111101110110101
1001001001
1011001111
10100001
1111111111110111
11010
1111111101011110
10010111
1111111110110010
1111110010111001
1111011111000001
1111101011111011
1111110001000111
1111111001110101
1111111000111011
111010000
10101010
11110010
1111111101100011
1111111011100110
1111111011011001
1101110
1100011101
111000000
1111111111110000
100011011
1011111
1111111100110010
1111111011001010
111111101
1110110000
11011100
1111111111000100
100010111
1111111011100010
10100111
1111111010000101
1111111110000011
1111101100011011
1111101110000000
1111111011101011
1010000110
1111111110100110
1111110100110100
1111111010000100
1001011
1111110001000011
1001010001
1111111111000011
1111111101100100
100111100
110110110
110011010
1111101111110001
10110001
111011011
1111111101110000
1111111110100101
1101110111
100010010
1111111101001010
1111111111001100
10001101
1111111111111011
1111111100010000
1111111010011010
1111110000000011
1111101001001100
1111110111010100
100001100
1111111010110100
1111110010100001
1111110010000001
1111111110111110
1100100
100011000
1100100001
1111111001001101
10101110
1111111111001000
100101000
1110101110
1011110110
1111010
11000111
1111111011100011
1110101
110111
1111111110110111
1111111111101110
1111111101010101
1111111111100111
1111111100111010
1111111110010100
1111110011010110
1111110011010010
1111101010110110
1111110000010101
1111111101100001
1111110011101111
1111101111110111
100101000
1111110111001101
1111110111111000
1111111011010011
1001011
1000100011
11000
11101010010
11100001111
10001000
1111111000110101
1111111010011010
1111111001111011
1000010
1111111110110011
1111111101001010
10001001
1111111111001100
1111111111000000
1111111111011000
11100101
1111111101100111
1111110100011101
1111111000101010
1111111000100010
1111111000001000
1111111111000010
1111111110010101
101000100
110
1110111
1010000110
1001110
1111111000000010
1111111110000001
1001001111
1010001
1111111100011111
1111110111110001
1111111001101010
1111111010111101
1111111110110111
10101101
1111
1111111101001111
1111111110111100
1110101
1111111100001100
1111111111111110
1111111110111001
1000000
110110110
10000100
1010111101
10101010
1111111111100010
1111111111110000
11101111
101010100
110111110
1111111100111011
10001111
1100010101
1110000011
110100011
1111111000111100
1111111011011110
1111111101000011
1100110
0
10001001
1111111111110011
10011010
1111111101000010
10111111
1101011
100100
1111111110010010
1111111111010101
1111111100001101
10111101
100010011
100010010
111011
10010110
101000011
1101101
11010
1011000
1111111110011111
110000011
1111111110111000
100100111
1111111111110101
1111111110000011
100111
1111111110001000
10010000
111000
100001
1111111110000101
