1111111111101011
1111111111100110
1111111101001101
1111111111100111
0000000011001110
1111111111001100
1111111110011101
1111111110001001
0000000100001100
1111111111011101
0000000010110000
0000000010001000
0000000001000010
0000000100100000
0000000000000011
0000000010100011
0000000000011010
1111111111110010
1111111111100000
1111111111110111
0000000001001001
0000000000111010
1111111100111110
1111111110011100
1111111111100110
1111111111000100
1111111100010000
0000000001110011
1111111111111101
0000000001010010
0000000010000111
1111111111001111
1111111111111101
0000000001000110
0000000010001101
0000000111000011
1111111111011000
0000000101101110
0000000100001011
0000000101100010
0000001000000001
0000001001101000
0000000010111110
0000000000000000
1111111110111110
0000000000011010
1111111111010110
0000000011100101
0000000010111000
1111111110010011
0000000001100111
1111111101010111
1111111100100101
1111111101101011
0000000011001000
0000000010110000
0000000000111001
1111111101101100
0000000010001000
1111111010101111
0000000001111011
1111111111111011
0000000000001011
0000001010101000
0000001100011001
0000001011010001
0000001011001111
0000010000011110
0000010001001101
0000010100110101
0000001110011101
0000001000001001
0000001001110110
0000001110111100
0000001100010111
0000001011010100
0000001010110010
0000000011011100
0000000000010110
1111111111111001
0000000001001110
1111111100000110
1111111101110111
1111111111011101
0000000000011000
0000000100000100
0000000000001100
0000000001001111
1111111111010011
1111111110111001
0000000010111111
0000001001010010
0000001010010110
0000001010111010
0000001001010001
0000000100100101
0000001000001100
0000001010111011
0000001100010111
0000010001011000
0000001000011001
0000000111111000
0000010011010101
0000010000111000
0000001011100000
0000001010101100
1111111111001011
0000001011000000
0000000110011111
0000000101000100
0000000001000110
0000000000111000
0000000011010110
1111111101100111
1111111101000000
0000000011100111
0000000010110010
1111111010001010
1111110110111110
0000000011100100
1111110111110101
1111110010001101
1111110010100010
1111110110000010
1111110000101101
1111110001110111
1111110011101011
0000000100100000
0000000101011001
0000000011111011
1111111001011111
1111111011011000
1111110000001111
1111111101001011
0000010000011000
0000010010101111
0000001100110010
0000000101101100
0000000000001010
1111111111111111
0000000001101110
0000000001110101
0000000010011110
1111111100001111
1111110111010100
1111100010011111
1111100100100001
1111101011101011
0000000000010101
1111111001110100
0000000001001010
1111101010000010
1111100101001010
1111101110001111
1111100111000001
1111101100100111
0000001011101011
0000010100100010
0000001010101010
1111110110100001
0000000101100010
1111111111001011
0000001000000111
0000001110010110
0000000011110110
0000000010010000
0000000000100110
0000000100010000
1111111110001011
0000000000101101
0000000000010111
1111111001110101
1111110000010110
1111101000010100
1111100111110000
1111111011101010
1111111111110000
0000000011000000
1111110100110000
1111101010001001
1111110011101010
1111111000011010
0000001101001111
0000000110101101
1111111011010000
0000001011111100
0000001010000001
0000010010000010
0000000000100111
1111110001100011
0000000100100001
1111111110001110
0000000010000100
0000000000000111
0000000011101010
1111111110111111
1111111111110000
1111111110000001
1111111010100000
1111110101100000
1111100100111001
1111100011011111
1111101010101000
1111111110001110
1111111100011101
1111111100001001
1111111101001111
1111111001010000
0000000110000011
1111111101110110
0000000101101100
1111111100010011
1111110111101010
0000000101111110
0000000101000110
1111111100000111
0000000000000010
0000001000010001
0000000100000000
0000010011110010
0000010111100100
0000001010000011
0000000001000010
0000000001110110
1111111111000101
0000000000001001
0000000001110010
1111110111011011
1111011111001101
1111100101010100
1111101110011010
1111110010011000
0000000000001101
0000000100010000
1111111100010010
0000000011011000
1111110100111000
1111101001110011
1111101011111011
1111110011110011
0000000000011011
0000000000001110
1111110111100101
1111110110100111
0000001100100011
1111110011101101
1111111010001110
0000011101000101
0000100100010010
0000001111110110
0000000010010000
1111111111110001
0000000001011000
0000000100011110
0000000000111101
1111110101001111
1111011101011000
1111101100010011
1111110101110010
0000000010011111
0000010011011011
0000000111101011
0000000001101111
0000001001001000
0000000001011011
1111101111101101
1111101010011110
1111011000110000
1111100011101101
1111101011011111
1111101111111110
1111101011010001
1111110000110111
1111110000011010
0000000010111001
0000110000000011
0001000110001101
0000100000111110
0000000001010110
1111111110111110
0000000001110000
0000000000000101
0000000000001010
1111111000000010
1111101110100000
1111111111110100
0000001011101101
0000010111000000
0000011100111010
0000010111011101
0000010000000101
0000001011001001
0000000100101101
1111111100010011
1111111110000001
1111110010100011
1111100011101011
1111011011001000
1111011010010100
1111100001111010
1111100001110010
1111100100110001
0000000111000110
0001000111000000
0001001111000101
0000100101111010
0000000111001100
1111111111011110
0000000100010011
1111111100101101
1111111111111100
1111110110010011
0000000010101110
0000000111001110
0000010111110010
0000001111101010
0000010110100101
0000001101001110
0000000100011100
1111111110001110
1111111001110111
0000010110000111
0000001100110100
1111011011011011
1111011110001101
1111011101010111
1111011011010110
1111011000101101
1111001001100000
1111101011011101
0000000100111110
0000101101011111
0000101010110000
0000010010111001
0000000100101111
1111111111101110
0000000100101110
0000000001100001
1111111101111011
1111111100111001
0000000011101010
0000000100001000
0000010111101000
0000010000000000
0000000000010101
1111111100011000
0000001001011100
0000010011100001
0000000111110100
0000011001000010
1111101111100100
1111011110010111
1111010011100000
1111010100000010
1111011111000110
1111010100111011
1111101001101110
1111111111010111
0000011011101111
0000011110011101
0000010101110000
0000000010010011
1111111101001010
0000000010000101
0000000000011100
0000000101010100
1111111111110010
1111111110001011
1111111111001010
0000000111101111
0000010000100010
0000000011111111
1111110010110000
1111111010111100
0000001101010101
0000011001100110
0000010100110101
0000001001000011
1111011101100100
1111100001000110
1111100110110100
1111100100101100
1111100100001100
1111100010101000
1111111110011011
0000101000100100
0000110000000111
0000101000111010
0000011000110110
1111111100111010
1111111101001010
0000000000010001
0000000100111110
1111111110011011
1111111111110100
1111111100011000
1111111001010110
0000001001111000
0000001110010011
0000001001111100
0000010001101011
0000011010100011
0000011110000110
0000001100000110
0000001110110000
1111101101101000
1111101001000101
1111110111011110
1111110001100000
1111100010000011
1111011010011101
1111011000010001
0000100110111110
0000100010010111
0000101000011000
0000100000000111
0000001100101100
1111111100000111
1111111111001100
0000000011100101
0000000001011010
1111111110110111
1111111111010100
1111110110001100
1111110001011000
1111111111011011
0000000110111010
1111111111011111
0000001110011101
0000010001011010
0000100110001001
0000001111110110
1111111101101110
1111011001010110
1111110000111101
1111110110010010
1111010111110000
1111011001101111
1111111110001101
1111111000100110
0000100100111000
0000011010001100
1111111100101001
0000001110111110
0000000111111001
1111110111000111
1111111101011000
1111111101111011
1111111110101110
1111111110000101
1111111101000101
1111111011001010
1111101111100101
0000000000000101
0000001000000000
1111101101011111
1111111110010111
0000000111100001
0000001100110101
0000001001010000
1111110010001100
1111100010111001
1111111001011101
1111100110100110
1111100010000100
1111111000000101
1111110100011010
0000010001110110
0000010110110000
1111111001111110
1111101111110111
1111111010111110
1111111011011001
1111110111001111
1111110110001011
1111111010101110
0000000001110101
1111111100100100
0000000000111001
1111110010111100
1111110110000011
0000010100001101
0000011100010000
0000000000011100
0000000000101110
0000000011110111
0000010100000001
0000001101110010
1111101010111010
1111011111110011
1111100011100000
1111110100101001
0000000010100100
0000010110000000
0000001011101111
0000001100110010
0000010101110100
1111111111000101
1111111110011101
1111111010110100
1111111010000000
1111110101011110
1111111101000110
0000000010110011
0000000000110101
1111111111101101
0000000001100000
1111110111000101
1111111110010010
0000001010110101
0000010100111000
0000001101000111
0000000001000010
1111110111000011
0000000110110010
0000000011101101
0000000110001101
1111110000010110
1111110000101101
0000000011001100
0000010000001010
0000011001110010
0000001001010000
0000000010110100
0000000010010110
0000000001110110
1111111110110101
1111111101000010
1111111010100011
1111111000010110
0000000011000000
1111111111011110
0000000000000000
0000000011000011
0000000100001001
1111111010100000
0000000001100000
0000000111111011
0000000100011101
0000001011110100
0000011011010001
0000010110100100
0000011100100000
0000101101110010
0000100101001001
0000001100111001
0000010000100100
0000001010101100
1111111100110101
1111111010111100
0000000110110000
1111111111010000
1111111111100110
1111111110101110
0000000100001011
1111111110001100
0000000010001011
1111111011101100
1111111111010000
0000000000011010
0000000001001101
1111111101001100
0000000010010011
1111111101101001
0000000110001010
0000001000100101
1111111011111010
0000000001111111
0000000110010010
0000010001011100
0000010110100011
0000100101000110
0000011010111001
0000000110000100
0000000100100100
0000000001011100
1111111111011100
0000000011010100
0000000101011110
0000000000010000
1111111110000011
0000000001000010
0000010011100110
0000000010101000
1111111111111111
1111111101001101
1111111101010000
0000000000000001
0000000000110100
1111111111100110
1111111110100011
1111111111001011
0000000101001111
0000000000110010
0000000000010000
0000001101101100
0000001110000001
0000000110100010
0000010000001011
0000001100111101
0000001000111001
0000010111101111
0000000110001101
0000001010010001
1111111000001101
1111111011100110
1111111101001010
0000000110001111
0000000011010110
0000001001110111
0000001000000000
0000000100010101
1111111101010011
1111111101111011
0000000100001001
1111111100100000
1111111111100010
1111111110000111
1111111110001010
1111111110100011
0000000100101010
0000000011011100
0000000110110001
1111111111000001
0000000110001011
0000000110100101
0000001000011000
0000001011010111
0000011011000000
0000001001110001
0000000100100010
0000001110001011
0000000010010000
1111111010011100
0000000001011111
1111111110011000
1111110111111101
0000000010100101
0000000101111010
1111111101001001
1111111011110100
1111111111100011
1111111111000111
1111111101000010
1111111101011001
0000000010111000
0000000010011011
1111111101111000
1111111111101110
0000001100001011
0000001000011010
0000000100001111
0000000111110101
0000000111101111
0000001101000100
0000000110101011
0000000100010100
1111110111110000
0000001001010111
0000001110000101
0000000111111100
1111111101000000
1111111000101010
1111111011101010
0000000000011000
1111111111011101
0000000110100110
1111111100010010
1111111101100110
1111111110110010
1111111010001010
0000000000011110
1111111011110001
0000000010111001
1111111101000000
0000000011100101
1111111100101000
1111111101101010
1111111001011111
0000000001101110
0000001001110100
0000010110010100
0000000101001001
0000000001001101
0000010001011011
0000000100111001
0000000001011111
1111111100111101
0000000011001000
0000001000101011
0000001101111000
0000000010111010
1111111111110010
1111111100111110
1111110111111000
1111111101111001
0000000010100011
1111111100100010
1111111101101010
1111111110010010
0000000000001101
1111111110000000
1111111110000010
0000000011101111
1111111100001101
1111111100100000
1111111011100100
1111111000010101
1111110110001011
1111111000101010
1111110110010000
0000000000101011
0000000111011011
0000001000111110
1111111101011011
0000001101111001
0000010000010010
0000010011000011
0000001101001111
0000000001110000
1111111010111110
1111111011011110
0000000001011000
0000000001100001
0000000000011111
1111111101011101
0000000010110010
0000000001111111
0000000010000110
0000000100010111
0000000000101111
0000000011011100
0000000000001100
1111111111100001
1111111011001101
1111111011000111
1111111010111011
1111111001001111
1111110111101010
0000000001001100
1111111110000111
1111111011000101
1111111111010011
0000000011111000
0000000111101111
1111111110101110
1111111000111010
1111111101100111
0000000001111000
0000000001000100
1111111110010010
0000000011111010
1111111111000111
0000000000110110
1111111101011000
0000000011010011
0000000000010010
0000000001110110
0000000011111111
1111111111110001
1111111110010000
0000000011100111
0000000000001110
0000000000010100
1111111101010101
0000000001100100
0000000001100100
1111111100111000
0000000000100000
0000000000010100
1111111110111000
0000000000101000
1111111100111100
1111111110011011
0000000001000110
0000000011111111
1111111101010011
0000000011011001
1111111001111010
0000000100111101
0000000000100001
0000000001000001
1111111110110101
0000000100000001
