0000000000011001
0000000100000011
0000000000101000
0000000000001000
0000000000011100
0000000000010001
0000000001001010
1111111110010011
1111111100111000
1111111111110011
1111111110001010
0000000000010000
1111111111011111
0000000011011000
1111111111100111
0000000000011100
1111111111011101
1111111110111111
1111111100011111
0000000000111100
0000000010110111
1111111110010101
1111111110011101
1111111011001001
0000000010101011
0000000001100110
0000000001000000
0000000000010100
0000000101001101
0000000000110010
1111111100110100
0000000100100100
1111111010101110
1111111110101000
0000000100010010
0000000011111110
0000000110001110
0000000101010110
0000000000100101
0000000110011100
0000000011000100
0000000011011110
1111111111011100
0000000110001011
0000000001111100
0000000011001001
0000000101111110
0000000001010100
0000000101001101
1111111110011110
0000000010011000
1111111100111010
1111111111101111
1111111110010001
1111111110111010
0000000010001011
1111111111011100
0000000010100100
0000000000000110
1111111101100110
1111111111111100
1111111111100101
0000000011010101
0000000100101011
0000000111001100
0000001001100001
0000001110011111
0000010010001011
0000011000010010
0000010001010100
0000001100011101
0000010001001001
0000010001001100
0000000111101010
0000000110001011
0000000100111100
0000000101010100
1111111111011011
1111111101000011
0000000000010100
1111111110010111
0000000000100101
1111111101101001
1111111001111101
1111111111011111
0000000010011011
0000000000101010
1111111010101110
1111111111000011
1111111111111000
0000000011010100
0000001001010000
0000001110001011
0000010111011100
0000011011011100
0000011010101111
0000100100001010
0000100100011101
0000100110111110
0000011010001000
0000010110111010
0000010010101101
0000000110001000
0000000001010110
0000000000100100
1111111001111000
1111111010100111
1111111101101111
0000000010110001
1111111011110100
0000000001011110
0000000001010000
0000000010000001
0000000010001110
0000000000100001
1111111101101110
0000000010111010
1111111101110001
0000000001000011
0000001000100001
0000001101000101
0000011000101100
0000011101100011
0000011101010001
0000100100100001
0000011110001101
0000101000000110
0000101110011000
0000100000001001
0000010101100100
0000010011101111
0000000100001111
1111111001111111
1111110011001110
1111110001111001
1111111010111111
1111111100101100
0000000001110111
1111111111101110
1111111101110010
0000000000110000
0000000010010111
1111111111100000
1111111101111111
0000000000010100
0000000010110011
0000000101000011
0000001001001010
0000001011101000
0000000001111110
0000001111001100
0000010001101001
0000010000110111
0000010111000010
0000001001000100
0000001000001110
0000010010101100
0000011100010111
0000011101100000
0000010100100010
0000001110101100
0000001011001101
0000000001010110
1111110010000010
1111111010010100
1111111110100001
0000000011110101
1111111100110100
1111111100101111
0000000010011000
1111111111111001
0000000100011011
0000001010110000
0000000011100101
0000001010010111
0000000000010001
1111111100100010
0000000001101101
0000000011001110
0000000000100100
0000000011110001
0000001101001100
0000000001111011
0000000010110010
0000000010011101
1111111101000111
0000001100101111
0000000111111011
0000001110100011
0000001000010111
0000001001001101
1111111110111110
0000000001000110
0000001001001101
0000000000101011
0000000000001011
0000000010000111
0000000010100111
0000000001111111
1111110111010000
0000000010111111
0000001101100110
0000000100010100
1111110101111001
1111111011111110
0000000010111000
1111111000000111
1111110111111101
0000000000101001
1111110110101011
1111111111001001
0000001010011001
1111111010100000
1111101110110111
0000000001011110
0000000101100111
1111111001001111
0000000111111011
0000000001110000
0000000101011101
0000001101110101
0000001100001111
0000000100100010
0000000000111010
0000000001110000
0000000010010001
1111111100100100
1111111010011011
1111111001011011
1111111110110011
1111111010010111
1111101111101101
1111110101100000
1111111101110000
0000000011001010
1111111101110110
0000001000101100
0000001010011100
1111111110011010
1111110110000110
0000001001001111
1111111100101010
1111111001110011
0000001101111001
0000000110010101
0000010000101001
0000001010110101
0000001011000100
0000010000000100
0000001111110100
0000001001111001
1111111101101111
0000000001110011
0000000000001010
1111111111011110
1111111000011010
1111111110110110
1111111110100101
1111111111000110
0000000000001101
0000000010111100
1111111010000011
1111111011111010
1111111100011000
1111111011101101
0000000110010001
0000000100010111
1111111001111000
0000001001000010
1111110111101100
1111111110101000
0000000001000000
0000000110101001
0000001111111101
0000001111000111
0000011101101010
0000100000000001
0000011000110101
0000000110110011
0000000001000010
0000000001011010
0000000001101000
0000000000111001
1111111100001010
1111111110001100
0000000011101011
0000000001010011
0000000101011010
1111111110011011
1111110001011010
1111110111001111
1111111101011010
1111111111111000
1111110101100111
0000001000111110
1111101001111100
1111110110001110
0000000111010111
1111110001111001
1111111001011000
1111111101010111
1111111101111111
1111111100111000
0000011111010110
0000011111111100
0000010111110101
0000001001000101
1111111111100010
1111111110001011
1111111111100100
1111111111001100
1111111100000101
1111111000100111
0000000001110011
1111101101001111
1111100111110010
1111101110110001
1111101011011011
1111101111111110
1111101110010110
1111111000000100
0000011010100111
0000010110011111
1111100001001000
1111100010000111
1111101110101101
1111101010000011
1111111100100000
1111101000011111
1111101101110000
1111110000001001
0000000111100111
0000011000000010
0000001101111001
0000000011000111
1111111101110111
1111111110000111
1111111111000001
1111111100001000
0000000100001010
1111111010000101
1111111000101000
1111101000011000
1111101000111001
1111101001110010
1111101110101100
1111101111111011
1111110010001101
1111110101100110
0000001110110010
0000011110101000
1111101111100101
1111100111011110
1111100101000011
1111100110100010
1111111010010000
1111110011011101
1111101010110101
1111100110100100
0000000000101110
0000010101100000
0000001011011001
0000000011100110
0000000010010100
1111111111010110
0000000001000100
0000000000101010
1111111110010111
1111110001101111
1111101110101100
1111101110110101
1111110011011101
1111111011011100
1111110110011011
1111101111101110
1111101110011100
0000010111110100
0000101100101111
0000001011011111
1111110001100100
1111111110011110
1111101100100101
0000000100100111
1111111110000111
1111110011100100
1111011110111000
1111101100000010
0000000111101100
0000010001001001
0000000101000110
0000001000011011
0000000001111110
1111111101011001
1111111110000100
1111111011010110
1111111001001010
1111110001010110
1111110010011101
1111111011101001
1111111010110110
1111111100101111
0000000001011100
0000000000110110
1111110101000110
0000010011001000
0000011001000100
0000000101011000
1111110110000011
1111101010001010
1111011010111001
1111101100010101
1111100010101011
1111011111100011
1111110001011110
1111101100111010
0000001000110100
0000001011101101
0000000100000010
0000000101011011
1111111110100001
0000000001100001
1111111110111111
1111111000110100
1111111110000100
1111111001101100
1111111100010010
1111111101001110
1111111100011100
0000001000100101
1111111100000011
1111111110010001
1111111101001000
0000010100010101
0000011110110100
0000000011100010
1111100110001101
1111100110101001
1111011001111111
1111101100001111
1111011011111101
1111101010110110
1111111011110000
1111110010110111
0000001110011010
0000010101100001
0000010010100001
0000000101010010
0000000000010010
1111111100100000
0000000001011110
0000000010010000
0000000000000011
0000000100100110
0000000100110111
0000000010110011
1111101101100000
1111101011001011
0000000000101010
1111111011101011
0000000110001110
0000010010011110
0000001111010000
1111111101111111
1111101010110011
1111101101110111
1111100100011110
1111111100000011
1111111101100010
1111110101111000
1111110011111010
0000001111010001
0000100011000000
0000100011010000
0000011110001000
0000001011110000
0000000000101111
0000000001010011
1111111111011001
1111111110011111
0000000111001100
0000001001000101
0000010101100000
0000011000101010
1111110011110110
1111110001000000
1111111111000101
0000001000001000
1111111010111010
1111111010001010
1111100111101010
1111101011100110
1111110000011010
1111110110011101
1111111001111111
1111101111111111
0000001100000011
0000001001000110
0000000101111010
0000100111001100
0000100010111001
0000011110011001
0000010110010011
0000000100101110
0000000100011000
1111111111111100
1111111101101100
1111111111010011
0000000001110001
0000010001011011
0000001110101011
0000100011001010
0000010101010100
0000000010110111
0000000011010100
0000000101011111
1111101101101000
1111110000011011
1111101011011001
1111111011100010
1111110010110010
0000000011000101
0000001010010010
0000000010101010
0000000101100000
1111111101110010
0000010010001101
0000101110111011
0000110011000011
0000010111101111
0000001100011011
1111111101010111
0000000101100111
1111111011111000
1111111111111011
1111111101010000
1111111110111101
0000000111111111
0000010001111001
0000011011001111
0000100011001011
0000101111011101
0000101100100111
0000011100100101
0000010100110001
0000001110001010
0000001110011101
0000000010101110
0000001111110101
0000001010100000
0000010010000010
0000100011000010
0000001100011011
0000010110000001
0000100001100010
0000110010010010
0000101111010110
0000010000001010
0000001000001000
1111111111100011
1111111111010100
1111111101100001
1111111110101101
1111111111111100
0000000010100111
0000010001101110
0000011101010100
0000100100101000
0000100101011100
0000101100100001
0000100111001000
0000011110111011
0000101001010110
0000010111100100
0000010101001000
0000010011011010
0000011011000111
0000011001001011
0000011011000011
0000110101101001
0000011111000111
0000011011110110
0000011101011001
0000100100101000
0000100000010001
0000000101000100
1111111110101101
0000000000010011
1111111110010011
1111111110101000
1111111110000011
1111111110110000
0000000101110111
0000010011100001
0000011011000111
0000101000101001
0000100001101100
0000001100101011
1111111111011001
0000001010011100
0000011011011011
0000000111100010
0000010101100010
0000011010111010
0000011000010110
0000001010100010
0000001011010000
0000100010000011
0000010000000110
0000000110100111
0000001101110011
0000011100111101
0000010011000100
0000000010010010
1111111101101111
1111111100100001
1111111101111010
0000000001110110
1111111101100011
1111111111111010
0000001010011010
0000001111101010
0000001110000110
0000010011010110
0000001000010101
1111111000110100
1111111010000110
1111111110111110
0000001101100010
0000001001011110
0000001100110110
0000001000011010
0000000010110111
0000000110100101
0000001000111111
0000001110011100
0000001101101000
0000001101010000
0000001001011010
0000001111111011
0000001110110011
0000001010000111
1111111110101000
0000000001101011
0000000001100001
0000000101101010
1111111111011010
0000000100110111
0000001000100111
0000001011101000
0000000111111101
0000000001110111
1111111011011101
0000001001110001
0000001101100011
0000000010010010
0000010000010011
0000001010001110
0000000111011110
0000000100001101
0000001111010110
0000001101010011
0000001100010001
0000000110010000
0000000101011001
0000010001001000
0000000101110001
0000001000101010
0000000101101001
0000000001001010
0000000001101100
0000000101011100
0000000011111101
1111111110010111
1111111111011101
0000000110110001
0000000000100001
0000000011011010
1111101111011010
1111101111110101
0000000000100010
0000001001001100
0000011010101101
0000000110101111
0000001110100101
0000011001111011
0000010111011110
0000011111011010
0000010111000010
0000010111100010
0000010000000010
0000001000100111
0000000011000000
1111111111001101
1111110110101110
1111111100011111
0000000001111100
0000000110111101
0000000011110011
1111111011001111
0000000000111100
0000000001110110
1111111101001011
0000000000110010
0000000001000111
1111111100000010
1111110101110111
1111111001001010
1111111000000110
0000000011011011
0000010100001111
0000001100110100
0000010010001100
0000001111000000
0000010010000101
0000000101110100
0000001010100111
0000010100001000
0000001000000100
1111111000110111
1111111010010000
1111111000100111
1111110110110100
0000000010010100
0000000000000010
0000000001001011
0000000011000100
0000000010010011
0000000001011101
0000000000100110
0000000010100000
0000000010000101
1111111101110000
0000000111110000
1111111100110000
1111111011100100
1111111011101110
1111110110000001
1111111000111100
1111110100001100
1111111010010100
1111111111010001
1111111110010110
1111110000110110
0000000000000001
0000000000101010
1111111010011001
1111110110000011
1111110100110010
1111111010101000
1111110111000001
1111111110111111
1111111100011110
0000000000001000
1111111100110001
0000000100001001
0000000000100011
0000000000110010
1111111111100011
0000000011001001
0000000001001011
0000000001100000
0000000000100010
1111111111110010
0000000010000100
1111111101111111
0000000010001111
1111111101000001
1111111111010000
1111111110000110
0000000000010011
0000000001011101
1111111110101000
1111111110110110
1111111110010010
0000000000011000
1111111010100101
1111111110010110
1111111110010100
1111111110010100
0000000000110100
0000000001001000
0000000001011011
0000000010011011
0000000001101000
