1111101
1111111101101011
11011
1111111011101100
1000100
11100000
1111111111111001
100000001
1111111111011110
11001101
1111111110011110
10000000
1111111110100100
10101101
1111111011011010
101
1111111101111110
100001100
1011010
1111111110000000
10011000
1111111111111101
1001111
100001011
11010
1111
101101
1111111110110111
1111111100101111
1111111011111001
1111111110101111
1001011
1111111010111110
1111111101101110
1111111101111111
1111111110101110
1111111111001011
1111111100100011
100101
1111111111010001
1111111101001011
1111111101010101
1111111111000110
1111111110101101
1100011
1111
1111111011100001
11110011
1111111110010011
1111111110000000
11011000
1111111101110010
1111111011010111
1000000
10101110
1111111101111000
11100010
1111111111101001
110100
1111101
1111111111101111
1011110
1111
1111111101100100
1111111000111110
1111111000110010
1111111000011010
1111111111001111
1111111010110000
1111111011110001
1111111011000010
1111111111000000
1111111110011111
11010001
110111100
10000111
1111111111001011
1111111011011101
1111111101111000
1111111111010001
1111111111111111
100010100
1111111101110010
1010111
100001111
1111111110101010
0
1
1111111101001111
100001
1111111100010110
1111111101000010
1111111010111000
1111110011011000
1111110100011100
1111111110111111
1000111000
1001100010
10001110000
1010011011
1011100011
111101110
1111111110100001
1010110100
101110101
1111110011101011
1111110111110010
1111110111110101
1111110111101000
10000100
111000100
1111111011010101
1101110
1111111101001011
1111111110111011
11101001
10100001
11110010
101000011
100111111
1001101000
10000
10100110
10100111011
1111111110001011
11001111
1111111101110010
110111011
1010111
1000111100
10101101100
10111110
1111101011110010
1111101101011011
1111111000000110
100011110
1000110111
11101111
100111011
1111111101011011
1110010
1111111101101010
10101101
11110101
11000100
1001110011
1110000101
1100001110
1011000110
100101100
1010001101
1110100101
1111111010100011
1010100100
1111111011101100
11001000
11011010001
1001100000
1111000100
110110010
100111100
110001
1111111111100000
1111111110
10111111000
1010111001
1111111111001001
1111111101011110
10000011
11110000
1111111111010110
10101110
111010100
10100100111
10000010110
1101100110
1111111110
1000110101
10011000100
1100010
1111111100001011
1011111010
100101001
1111110001110100
101
1000000001
111100100
1110000110
1011010011
10110101
1000100101
1110111111
100001111011
10011111001
110111010
1110110
1011110
1111111111000010
1111111011010101
110011001
1110100001
1110101100
10111001000
1101000101
1001010111
100010010101
10010000101
10111010010
11010111010
1000100011
10111011100
10010010
1100110110
1011101100
10000011001
10010110101
10001011101
1011101011
110001110
10000100100
11101011001
11101000111
1001000100
10000000
10100
1111111101110110
11110110
1001001101
1001110010
1011000001
1001101110
1111111111001001
1110000011
1100001
1001101010
110001101
11011
1001101010
10111000101
10001011111
10111010111
1010111011
10001100001
10000111101
10001000011
110000000
1100001010
11110001111
100101000111
100010010011
111000101
101001
11001000
11101010
1111111111111000
110111000
1110101010
1111111011111010
1000000001
1111111111001110
1111111100001111
1111111011011101
1111111011101010
1111111001000011
1111111101100111
10100001011
101000010
11111000
10111110001
1100011111
10110001101
1111010100
1010010000
1110011111
1111111101101000
11100001
100001101100
100001000110
1101010101
1100111
1111111101010010
0
100000010
110101111
1111111111110110
1111111000111001
1111111000100000
1111101110100100
1111101001101000
1111011111110001
1111101101100100
1111101110111110
1111101000100000
1111111110001110
1111101110011011
1111101010001000
1111111011001101
1111111001011011
1111110010100010
1111101100100001
111011
1111111111011000
1111100010111100
1111110001101000
1100101110
10011110000
110100011
1010011
1111111100001101
1111111100110010
110110
1000101101
1111110010101000
1111100110000101
1111110010101010
1111101000111100
1111100110101001
1111110000110011
1111111110001000
1111111010100010
1111101000011100
1111101011000110
1111010101011001
1111010100100110
1111100100110101
1111111000000011
1111111101101001
1111101011011001
1111100110000110
1111011000011001
1111100101000100
1111110000100011
1111111011100010
1011000011
1111111111001100
1000001
1111111110100000
1111111111000001
1100
10101101
1111110010000011
1111101110000010
1111110010010110
1111101001101010
100001010
1111111000111100
1100101010
1111111011101001
1111110001001111
1111110001011000
1111101000010100
1111011001100010
1111100110000100
1111110010011110
111101011
1111110001101101
1111101111000010
1111011010101011
1111101101101111
1111100111110101
1111110100001111
1111111101101100
1111111111001000
1111111111110000
1111111111100110
11100100
10110000
101101
1111111010100101
1111111110010101
1111111111100101
100001010
1011100101
1111111111001011
1111111100010011
1111100101101011
1111011111100111
1111111111010000
110011
1111010011010010
1111011001100011
1111111000110001
10110011
1111110110011101
1111101001011101
1111111001001110
1111111001100011
1111101111010101
1111110111100110
1111111101010100
11010111
110100
1111111111101111
1111111010100111
10000000
10010011
111100111
10010011100
1100010100
1011011110
1111001101
1111111000100000
1111101100101110
1111010100111010
1111101110100101
1111111101001111
1111101011000111
1111101011100000
1111011110011011
1111100011010011
1111110000111000
1111110100010001
1111111010001000
1101100110
1111111111
100011111
11110110
1111111000100011
1111111100101000
1111111101011110
11011110
1011001
10101100
1101010
1110000111
10010001001
1011100000
10001110
11001111
1111110001011100
1111110111101110
1111110101001101
1111101101010000
1111101010000000
1111011101111101
1111100100011100
1111011110000100
1111011001010110
1111101100111000
101100010
10011000110
11100000110
10010111111
10000111000
110010000
1111110010000011
10011
1111111110110101
10110101
1010101
100101110
100110010
1110010010
10110000011
1101101
1111111101001010
1111111011111100
1111110100101110
1111111010001000
1111101101001101
1111101111111101
1111111010110011
1111100001111101
1111010110101011
1111010011010010
1111100010111001
1111111110100011
11111100111
11100110000
100001100111
10100010011
101111100
111001011
1111110101101000
1111111110110010
1110001
1111111111010111
1111111111010000
11100
101001101
11011001100
11001110110
1000001010
1111100001111110
1111100000001110
1111101110111000
1111111110010001
1111110001001100
1111101111101011
1111011011101000
1111001010000000
1111011001111101
1111100111110010
10101110100
100101100100
100010000000
10110110111
10001000001
1001100110
10111110
100010100
1111111000010100
1111111001101000
1111111111000101
1111111111110010
1111111100010111
10011110
1001110101
10111010010
11010100110
100000000
1111011000001110
1111010111010010
1111011000100011
1111010111011100
1111001011110001
1111001110000001
1111010000111000
1111001110100001
1111111111101100
10000111011
100101010001
100101010001
11111001101
10000011001
100101111
100100101
100011
1111111101011001
1111111101111110
1111111011010110
1111111011001000
1010010
1111111101111000
100010
1001100101
11010100110
11100001110
1000101011
1111101110110001
1111100010111000
1111100000111111
1111011011000110
1111100011111011
1111110001111111
1111101101111011
101111
10010101111
1111011011
10010101111
1011010110
1111111111011111
1111111111000000
1001100110
1111111110011110
1111111111011111
1111111110000110
1111111101101001
1111111111001011
110101
100001
1111111100001010
1110111
1110100110
10101001001
11000100101
10010111011
1111111100110111
1111110001011101
1111101100111110
1111110011000110
1111101101
111100001
10110110100
1011100100
10000100001
10001001011
1111111111100001
1111111100011011
1111110011110000
1111111100001101
1111001
1000010011
1111111111010111
1111111110100011
1111111100111111
1111111101110111
1111111100110110
1111111110000011
1111111111111000
10100100
1001101111
1110001011
111000111
1010010011
101011100
11110001011
110111010
1010010011
100001110011
10011011011
10011100001
11101110101
10010010010
11000001011
10111001
1000000110
111100
100111100
1111110110000011
1100011101
11011100
1011001
1111111101110111
1110011
1111111111100011
1101000
1111111111010010
1111111100010001
111010100
100110001
10010100
1000111100
111110001
10101010101
10100000011
10001000
11000000001
10011001000
10001101001
10011010101
1000100001
10011011111
1010000100
1111011100
11000010110
1111111111001111
1111110110010010
111011011
1111110100
1001110
100011
1001101
1111111110000110
1111111101110110
100000
1100101
11010100
111000001
10000010111
10010000011
1000000001
100100101
10000101101
10110010000
11101100110
1000100001
100
111101100
1010000100
10011101
10110100011
1011111101
1111111011101010
1111111100110101
1111110101011101
1111111110101110
10001101
10000
11101001
11011100
1111111110100001
1111111110110110
111
1111111101101110
1010101
1101111111
10111000110
11011000110
11110000011
10101110010
100000100111
11110000110
10001100000
1001100101
1111100100
10110001001
1100111001
10100100
1110100011
1111111001101111
1111100010000110
1111110001011010
1111110110110100
1011000
11101110
1101110
1111111111110101
10111111
1111111110111010
1111111111110110
10100101
1111111111001110
101110011
110010000
11001010
111010
111001010
110011111
10010100010
11010000011
11100010010
11101010100
1111111011
1111111111110110
1111111011001000
1111111111010101
1111111101110111
11001011
1111111000100110
1111110010010110
1111111111100110
111011000
10010001
10111011
1111111111011000
1111101
100110110
1111111010000111
1111111111000011
1111111110110011
1111111111001111
11000
11001
1111111
1001110
11110011
1000010111
11101011
100011110
110101000
100010011
1111111111100100
111011011
110100
1111111001100110
1111111100100111
10111010
101110
1100011
10111
1111111101000100
1111111110110101
1100111
1111111101111001
1000111
1111111101100010
100001110
100100
1111111110111100
101
1111111111001011
1111111110010001
1111111111101000
11110110
1011011
1110010
100101
1111111111001100
1111111111100011
100111
11111000
1111111111100010
1111111111100010
1111111100100000
1010
1111111100001010
100001
1111111101010101
11011011
1111111110110011
1111111110011001
10100000
11111011
