1111111111110000
1111111111011101
1111111011011001
0000000000000100
0000000001100000
1111111101011011
1111111101000110
0000000000010101
0000000001101110
1111111111110010
1111111011001011
1111111111010100
1111111101001101
0000000001000111
0000000001100000
1111111110001001
0000000001110110
0000000001010000
1111111111110101
1111111110000011
1111111110111100
0000000001010001
0000000011000110
0000000000010111
0000000000101111
1111111101100001
1111111111001110
0000000010000110
0000000000000101
0000000100010000
0000000000010010
1111111111001011
1111111111000101
0000000010010011
0000000001101010
0000000011000100
0000000011110101
0000000011100100
0000000101110100
0000001000001001
0000000001000110
0000000001011010
1111111111000110
0000000000000000
0000000000111101
0000000000101101
0000000001010010
1111111101010001
1111111111001011
1111111101100000
0000000011001100
0000000100100011
1111111100101010
0000000001100100
0000000010011000
1111111101100011
0000000000110001
1111111111001110
0000000000100111
0000000100001000
0000000000001110
1111111110010101
1111111111000000
0000000010010011
0000000111001011
0000000110010110
0000010000001101
0000001011100010
0000001100001000
0000001011011011
0000001001100000
0000001000000101
0000001011101110
0000001010010100
0000000111101110
0000000010001011
0000000011011001
0000000001001110
0000000001110000
0000000000001110
1111111101000000
1111111111010101
0000000001010001
1111111011000110
1111111111010000
0000000000110011
1111111101111100
0000000010010010
0000000011001010
1111111111010011
0000001000000100
0000001100010010
0000001110001010
0000010110001001
0000010011001000
0000010110111111
0000011010010111
0000100010100011
0000100001001000
0000100001101010
0000011100001010
0000001011011000
0000000111100011
0000000111010100
0000000011100010
0000000010101100
0000000100101101
0000000000000111
1111111110100110
1111111110001000
1111111110010101
0000000011100101
0000000000000001
1111111010111101
1111111010101010
1111111101111001
1111111110111101
0000000000000100
0000000100101101
0000001100100011
0000010101110110
0000011000101110
0000001101100001
0000001100001100
0000011000000111
0000011100010001
0000001010100111
0000001001110101
0000000110100110
0000000110100101
0000000111010101
0000001111011010
0000010101111111
0000010010111101
0000001101001010
0000000110111100
1111111001010100
1111111011110000
1111111111010110
0000000000000001
1111111101101100
1111111101110110
1111111101111110
0000000001100000
0000000011110101
0000000000000110
0000000100111011
0000000101111001
0000001100111000
0000000000110001
1111110111011011
1111111111011100
0000001101101111
0000010001010101
0000001010111101
0000001111000111
0000010000011001
0000001010100110
0000011000010001
0000001001001011
0000010000011111
0000011101000010
0000010001100010
0000001000000101
1111111101011100
1111111000001101
0000000000110111
1111111110100010
0000000001110111
1111111111010100
1111111011001111
1111111110001100
1111111100000101
1111111110010001
0000001001101011
0000001101100100
0000001001100100
0000000100100100
0000000101100000
0000001000011101
0000001000111011
1111110101000010
1111111010000010
1111110010101100
1111111101010101
1111101110001101
1111111010010010
1111110001100110
1111110000100101
0000000110001001
0000000101111100
1111110011100110
1111101001110100
1111110001010010
1111111100110011
1111111110010111
1111111011111010
0000000000110001
0000000000111001
0000000110001011
1111111111100001
1111111100001001
0000001001001000
1111111111100101
1111110110100001
0000001010111110
1111110110011100
1111111110111111
0000000100001111
0000000001000000
0000001011111100
1111101000001101
1111111011100110
0000000010001011
1111111000100111
0000000110011111
1111111111010010
1111111010111101
0000000011010010
1111101111000000
1111100101001000
1111101110010011
1111111001111011
1111111100001100
0000000001110100
1111111111001001
0000000010010110
0000000100011101
0000000010100101
1111111111001001
1111111111100001
1111111110111101
0000000111101111
1111111110101111
0000000011110001
0000001000010000
0000001111011001
0000001000011010
0000011001001100
0000001000010100
1111101110010100
0000001001101101
1111111100000001
1111111011001011
0000001000011000
1111101110010010
1111101101101010
1111101110110101
1111011101001011
1111101010000000
1111110110000000
1111111101111010
1111111110111000
1111111111011000
0000000101001100
0000000100111111
0000001100110001
0000010100001100
1111111011010000
1111111101000111
0000000001101011
1111111100000000
1111110101100111
1111101001110100
1111111110010001
0000010010101100
0000110000101001
0000010110011101
0000000011110110
0000001100010111
0000001101010000
0000000000011111
1111110101010000
1111111011000011
1111110110001110
1111011111111001
1111011000011100
1111101000101110
1111110110001011
1111111011010001
1111111011100000
1111111011000011
0000000100101011
0000000110100010
0000001000110011
0000011000100110
0000000001010111
0000001000111110
1111111000100011
1111111001000101
1111111110110010
1111110100000010
1111110101011101
0000100101001010
0000110111101011
0000101000001100
0000010001110110
0000000111001101
1111110111100101
1111110011100111
0000000100101011
0000010001000100
1111110000010101
1111110000000101
1111011111111100
1111100011110110
1111110110111010
1111111101111011
0000000100000000
1111111111110110
0000000001110001
0000000010110100
0000000110101011
0000000001111101
1111110110110011
0000000100000010
1111101100000111
0000001000100110
0000000011110100
1111110000110101
1111101011100110
1111110001001011
0000000101001011
0000011000111001
0000011001110011
0000000101101011
0000001001011001
0000001001000010
0000010111010100
0000010011110111
0000000000100101
1111111000000100
1111101000001010
1111101110000100
1111111011110111
1111111111001100
0000000011001110
0000000101001011
0000000010101110
1111111010001100
1111111010011001
1111110010011101
1111110010100101
0000000011010000
0000000100101011
1111110110000000
1111101011001100
1111100110001100
1111100001100000
1111010011010101
1111100011110001
1111111001011111
0000000110010100
0000010101101000
1111111110100010
1111110100011101
0000001000100100
1111110100000001
1111111101010001
1111111001101011
1111111100110101
1111111010010010
1111111001101010
1111111111011110
1111111110111011
1111111110111011
0000000011111110
1111110010111111
1111110001010110
1111101101110110
1111111000001101
1111110011011100
1111101100010101
1111100100101011
1111110010001000
1111011011011000
1111001101100111
1111000110000001
1111101010001100
1111011010101000
1111101010110100
0000000000100101
1111110010000010
1111101100011100
1111110100101010
1111110010100011
0000000000111010
0000001111111110
0000001101111011
1111111111001100
1111111000111010
1111111101001110
0000000000001010
1111111111001011
0000000000000010
1111111000000001
1111110010111000
1111111000010101
1111111110010010
1111110000101110
1111111001111111
1111101111001000
1111110111000000
1111100010100100
1111010011110100
1111100000111000
1111111100111000
1111100100010010
1111100011000101
1111101101010111
0000011000011000
0000001101101111
0000001000111011
0000000101001111
0000011101110110
0000100100000111
0000001101010100
1111111110011111
1111111101001111
0000000010101000
0000000101011011
1111111111000001
0000000000111111
1111111010011110
1111111100011000
1111111100100011
1111111111101101
1111111011000000
1111101000000111
1111101000011100
1111111001110010
1111101110100000
1111100001110010
1111101110001111
1111111000000010
1111110010101101
1111101010010111
0000000010111101
0000000111001101
0000000110001110
0000001111010000
0000010000111010
0000010101010011
0000100001001011
0000010011101011
0000000100101000
0000000011001101
0000000000111101
0000000001000010
1111111111111100
1111111111010000
1111111000010100
1111111111011101
1111111110010101
1111110110111001
1111110110101111
1111101111001001
1111111111111010
1111101101100010
1111100110110011
1111100001101010
1111111001011011
1111111111000110
1111111011000011
1111110001111001
1111101000101101
1111110111100111
0000010111101000
0000010001000100
0000010111011001
0000001101111110
0000001101111101
0000001101010010
0000000101110011
0000000010100100
0000000010001110
0000000010110111
0000000001011011
1111111111111100
1111110100110101
0000000000010000
0000000110001011
1111110010000101
1111110011010111
1111110000010011
1111111001110110
1111111111010110
1111111011011110
1111101101001011
1111110000001101
1111111101101100
1111111000010001
1111100100010010
0000001011111100
0000001001100101
0000010010110111
0000010100101101
1111111111011000
0000000101000100
0000000010010011
0000000010100010
0000010000010101
0000000001010001
1111111111111100
1111111111000001
1111111001111101
1111111111100000
1111111000100101
0000000101111111
0000000111010000
1111110100101010
1111110110110001
1111011100111101
1111101000000000
1111101110001111
1111111111011100
0000000101000010
1111111010101000
0000000110111100
1111110101100001
1111110010100111
0000001100110001
0000010011000101
0000001010011011
1111110110011001
1111110110001011
1111110111110110
1111111111011010
0000000101000110
0000001010001010
0000000010111101
1111111111010100
0000000000110110
1111111110111000
0000000000111111
1111111100110011
0000001000000010
0000000011011110
1111111111110110
0000001111101010
0000001111101100
0000010000111001
0000001010011011
0000010110100011
0000100000010001
0000011101101101
0000100110001010
0000001010011000
0000001111101011
1111111000011101
1111110110111011
0000000100010010
1111110000101010
1111110001111010
1111110101111101
0000000001001010
0000001011110101
0000001010100001
0000000110100001
1111111111010011
0000000000111101
1111111111110010
0000000000011101
1111111101001001
0000000000000001
1111111111111100
0000000110101010
0000011010101001
0000100110001101
0000110101011001
0000100110110110
0000100001000011
0000011111101111
0000110010100011
0000111101001111
0000010110101010
0000000111000100
1111111001101101
1111101101011101
1111110100000101
1111100001111100
1111101001110111
1111110011000000
0000000101011110
0000001010101100
0000000011001100
0000000011010000
1111111110110110
1111111110001100
1111111111100111
1111111100101101
1111111011010011
0000000011111000
0000000000011010
0000001000110110
0000001100111100
0000011100111101
0000011010101110
0000001111101101
0000100000001010
0000011111011111
0000001111111001
0000011001100011
0000010110111010
0000000111010110
1111111010000000
1111100110001110
1111110100100011
1111101100100111
1111101010001011
1111110100001111
0000000011010110
0000001000011010
0000000101010110
0000000001000010
0000000000000100
0000000000010101
0000000000000100
1111111101011110
1111111111101101
1111111111010011
0000001001000101
0000000101010101
0000001111011001
0000001001011101
0000001101111110
0000000101111100
0000000010001111
0000000100101010
1111110011110111
0000000001101000
0000010011011100
0000001110110010
0000000001100100
1111111011010111
1111111111010110
1111110011111001
1111101110000100
1111110001000110
1111110111111111
0000000100010001
1111111100100100
0000000010000111
0000000001000111
1111111100110100
1111111111000000
0000000000100111
1111111100000100
0000000000110000
0000001110000011
0000001010110000
0000000100111000
1111110000011000
0000000010101011
1111111001010010
0000000101000001
0000000010011001
1111110111010011
1111111000011101
0000000000011101
0000000010101111
0000010010100101
0000000110000100
1111111001010101
1111101011001000
1111101101110001
1111101010001000
1111101011100111
1111111101011100
1111111111100101
0000000010001100
1111111110110111
0000000010011011
1111111111011101
1111111010011010
1111111100111111
1111111111001100
0000001001010011
0000010010110100
1111111111001010
1111110100110000
1111111101011001
1111110001000001
1111101001101000
0000000000100110
0000000011000011
1111111101100010
0000000110100100
0000000000111000
0000001011111011
1111111110000101
1111110001010010
1111101101111011
1111101110011101
1111101101101001
1111110000011111
1111111100000001
1111111101011010
0000000100110110
0000000011001110
0000000001101100
0000000010101110
1111111111101010
1111111100111001
0000000010111011
0000000111110001
0000000011000000
0000001010101011
0000001100111101
0000010010001011
1111111001010011
0000000110001100
0000001011010010
0000001101011101
0000000111100100
0000000111100110
0000000010011110
0000001010101111
0000010000100011
0000000011011000
1111110111101101
1111110010110100
1111111000011111
1111111010001110
1111111111011011
1111111110010011
0000000010001110
1111111111001011
0000000000001110
1111111110101101
0000000001011000
0000000001111111
1111111101111001
0000000011000100
0000000100010010
0000000110100001
0000001001001001
0000001101100110
0000001100000110
0000010110101011
0000000010010011
0000001001000101
0000000100001010
0000001011110001
0000010010000110
0000001111110010
0000010000010100
0000010110000100
0000000110100101
1111111110111011
1111111011001101
1111111010000100
1111111110100000
0000000100010011
1111111101011101
0000000001110101
1111111110010001
1111111110000011
1111111101001011
0000000100100111
1111111101111100
0000000000110100
0000000010011101
0000000010010011
1111111001001001
1111111101110011
1111111111111010
1111111111000101
1111111110111010
0000000010111000
1111111111110011
0000000000100100
0000000001010000
0000000011010100
1111111111110101
0000000010011011
0000000100001001
0000000100110100
0000000001100001
0000000000000000
1111111111010100
0000000000110010
0000000001011101
1111111100001100
