1111111110110011
1111111010100110
1111111110011001
11010100
1001010
1111111111101101
1111111111101101
1111111110110001
11101001
1111111111101110
1111111111001110
1101001
11
100101100
101100
11100
1
100110
10110
1111111111100101
1011000
1111111111010000
1111111111000110
11011
110
1111111
1111110
1111111010100001
1111111111110111
1111111110100101
1111111110000010
101
1111111011011000
1111101
11010100
1101001
10001011
10000111
100011110
101110110
1000000
100011010
110111010
101011011
1111111101100111
11111111
11011110
100111100
110111001
11010
100001000
1011000
1111111111010110
1111111100100001
101001011
101010
1111111110100101
1100111
1011111
11000
1001100
1111111111011101
11111111
1001100110
1011110011
1101001000
111111010
1111111111111011
1010010000
1010101100
1010101001
111010101
101010011
110000011
1000101100
1100010001
1010000011
10100011101
10001011001
110111010
11011000
1111111111001100
1111111110100100
1111111101100110
100
1111111111000100
1111111111101011
111101
100001010
1111111100110011
101001100
1010110101
10001000011
1010100011
101110111
1000001010
1111110110100101
1111110100110100
1111111000101110
1111111001110011
1111111010110011
10
1111111000001000
1111111101111110
1101111111
1111111111110100
101000010
1010110101
1000001100
1100010
111010
11001111
1111111111000010
1111111011111011
11110
1111111111010101
110000110
1111111111000001
10000101
11001101
1001010011
1111111111001001
1000000
1111111000111100
1111101001000101
1111110101000000
1111101110011000
1111111101000011
1011011
10010100010
1111110011001110
1111110011100011
1111111000011000
1111110010111001
1111110111111101
110000111
1111111011000100
111
1111111111110101
110111010
11100101
1111111111100000
1111111111001100
11001110
10110110
1111110110111000
1111111101110011
1111110110100111
100000000
1111111010010111
101001110
1111110001011100
1111111110111000
111100011
1101110011
101001111
1111110100110001
110100000
111000011
1101111001
100110000
1111111101110011
10111011
1111111001010000
1111110110001000
1111111100000001
1111111100100111
1111111110111100
1111111111100111
1001
1111111111011101
1111111101011101
1111111100111110
1111110101010010
1111111010001001
1111111010000011
1111110111011101
1111110011101110
1111111000101101
1111111001111000
1111110111101001
1111111110110010
110101011
1111110001001010
1111101100101100
1111111100010000
1111111101111100
1111110101001001
1111111100000100
1011110010
1111111111001100
1111100101100100
1111100001011000
1111110001110000
1111111100111010
1111111110101011
1111111110110000
11110001
1111111010011110
1111111101011000
1111111011010001
1111110111111111
1111110111101011
1111111100100001
1111100011100100
1111110101001111
1111101011111000
1111110011111111
1111101111111110
1111110110001011
11011011
1111111011100001
1111101001010110
1100000100
1010001001
1111110101111000
1111111110010010
1111111111100001
1111101011100011
1111100111100000
1111100110110101
1111110000011000
1111111001111001
11001011
1111111111111111
101111
1010111
1111111110111011
1111110001111011
1111110011010100
1111111000001001
1111100110011100
1111101110100000
1111110011111100
1111101100110111
1111100110000111
1111110111011111
1111110011000001
1111110110101110
10
10111010110
111001011
1111101011001110
1111101100100001
1111101110110100
1111101010101010
1111101001100110
1111100111101111
1111011011010111
1111011111001110
1111110011010011
1111111101011100
1111111011111010
1111111111000111
1010
1111111000100101
1111110101101010
1111110110100101
1111111001110010
1111111001011100
1111110110000100
1111100111100001
1111110110110011
1111100111010100
1111110011000001
1111111011001110
10001101110
1111001001
101010101
11011000
1111111011111010
1111111000011011
1111101110010011
1111100111101010
1111100110111001
1111101101101010
1111001100111110
1111010001001111
1111101110111010
1111111111101100
1111111101001001
1111111010101110
1111111110011110
1111111101000100
1111110111011010
1111111000101110
1111111101010011
1111111111111100
1111111101011001
1111110101001111
1111101110001011
1111110100100100
1111111010110010
1101010100
10100110001
10000100101
110100100
1111111011110010
1111110110111111
1111101011001011
1111110111001100
1111111010110101
1111110111000100
1111111010111000
1111011010111011
1111010110100110
1111101101101101
1111111110010010
10000100
100101
1111111110001111
1111111101001000
1111111011101010
1111111001000001
10110100
10001110000
1011000100
1100010001
10001111111
11010100
111010111
11000111111
101100000
1111101101000001
1111011110101110
1111011000011001
1111110101010010
1111111011010110
11011101110
101111000000
1100001001
110001111
1111110100010001
1111100010011111
1111110100010101
10001
111
1111111111100110
101101
1111111101010111
1111111110111101
10100010011
11100111011
10011011100
100011000011
10011011101
1101110110
10011010
10000110000
1111001111
1111101101010010
1111100001010001
1111101001001001
1111110000001110
1000011100
1111110100100000
1100001
1011011111
111011010
10100110101
1111100101
1111110000001011
1111110011011001
1111111110101110
1111111101011111
1111111101110100
1111111111000111
1111111101100010
1001100110
10001100110
11011110101
1001011110
1111110110010001
1000000100
11010100
1111101110011101
1110111
1111110011101101
1111100111100011
1111101110111010
1111101011000010
1111101110000111
101011000
1111110011100001
1111100001010011
110011000
111111000
101101110110
100010000011
1111110001101100
1111111010011011
10100
1111111111111110
1111111101101101
1111111111100000
111000
1111111101011111
10101100110
10101010111
101111110
11000
11010001000
1111111101010011
1110100
1010100010
1111100010001110
1111110010111101
1111111100010101
1111101001100000
1111111010111010
1111110100100010
1111100011000001
1111111101111011
101001101
10101000011
101101011110
11101011010
1111111011100101
1111111001110100
1010011
0
100101001
1111111101110101
1111111011001101
1111111001010001
1101111011
1100010110
10111101110
10101010010
1010101110
1101000010
1111111011001010
1111111100000010
1111100010101011
1111101110101101
1111110011111001
1111101101000111
1111111010111101
1111111101000111
1111110101111101
1100101111
11001100
1011100100
11001011111
111000100
100
1111110011000011
11010
1111111111010010
1111111101101101
1111111110010010
1111111000111001
1111110110000001
100011010
1110100000
1110011100
11011101111
11101101110
1111110
1010000010
1111100011011111
1111101000101000
1111110110100011
1111101100011010
1111101001101000
1111110010010111
1111110011000011
1000101011
111011111
1111110000100101
111010010
101100100
11001111
1111111101101110
1111110111111111
110000
1101111
10001100
1100000
1111111010110110
1111110111100010
1100000
1111111111011011
100111101
1100111011
10011000010
100000010000
1101000010
1111100111101010
1111101011101000
1111101001111110
1111100011000111
1111110110011011
1111110011110101
1111110011111011
10010011110
100101
1111111101000111
11011100001
1100101010
1111111101101100
1101111
1111111000100000
1111111101111111
1111111111100010
1111111101100000
1111111100000000
1111110101110010
1111110101111110
1111110111100010
1111111000111000
1111111001100111
1111011110
1011111100
11100101110
1011010000
1111111010010100
1111100011011011
1111101010110100
100010001
101001
100100100
1111111111000100
1010000010
1111111000100001
1001101000
1010110100
1111111101100110
1111110111001101
1111111111001010
1101000
1111111100110111
1111111111011011
10100
1111111101010110
1111111000101100
1111110000000101
1111111001101011
1111111011001010
1111110010100100
1010110111
10111111111
10100000101
101101000100
101111010011
1111111001111111
1111110010111000
1111110101111110
1111110101001101
100101100
1100100111
1100101001
110001101
1111111111000101
1111111000010011
1111111010000111
1111111100101101
1111110101111101
1111111100100001
1111111111101110
1111111100111011
101
1111111111101001
1111110111000100
1111110010100111
1111111101010101
1111111110000010
1111111011101010
1111111001110010
11100111100
10010011100
10101000101
101000001100
11001011001
1100010011
1001000010
1111111000000100
11100010
1111111110111001
1111111011101111
100111101
1111110101001100
1111110011110100
1111110100100001
1111111101000000
1111111001100111
1101101
1111111110110001
1111111100010100
1111100
1111111101111010
1111111011010110
1111110000111011
1111111100001111
1111111001101100
1111111000110100
1111111001010001
1111111111010101
10001110010
1011001101
11110110001
1111101111
101100101
10001000001
1010
1111111000001000
1111111011001111
1111110100011100
1111110011010111
1111100110011000
1111110101100101
1111110010100000
1111111110111101
1011001
110000
10000110
10100101
10111
10100110
1111111001101110
1111101101111011
1111111111011001
1111111110100101
10011100
1111000
1100110111
1110101111
1111111000110010
110010101
11000101101
1001010001
11000110101
10010110000
1001000111
1111110100101101
1111111010000011
1111011
1111110110110010
1111110110001101
1111111000000001
1111111111101010
1111111111100110
1111111101011011
10101010
110101
1000100
101111
111
1111110110101111
1111110111110001
111
110101010
110000001
1111010110
1101101101
10011000111
1101110001
1011000011
1000011011
10011111
1111111111011101
110101100
1111111011000101
1111110111011010
1111110111101100
1111111000011011
1111110101100111
1111111010001110
1111111111000111
1111111101000100
11000
1111111110100100
1111111101011101
100001
1111111100101010
11100010
1111111011111101
1111111101111010
1111111101111100
1111111100000100
1111111010101000
11101100
1111111100111101
1111101101010001
1111111001010000
1111111100111111
1111110000010111
1111101111010111
1111101100100100
1111110011101111
1111101100110000
1111110000001011
1111110011001011
1111110100111001
100
11010101
1111111001000111
1111111100101100
1011001
1111111010101001
1101100
10010
10010
10100
10101111
1111111101101011
1111111010010011
1111110111101101
1111101111010001
1111101011110000
1111100111001001
1111101011100101
1111101111010101
1111101011000010
1111100011010010
1111011100001101
1111101000001111
1111101110100011
1111110101110001
1111111100110011
1111111001010101
1111111001010100
10110011
1111111100110001
1111111011111001
111
10001100
1111111101001101
1111111101001001
1111111110101010
1001101
1111111110011000
11011110
1111111111001001
1101110
11011111
1111111111011011
1111110101000011
1111111000110111
1111110111110000
1111111011101001
1111111000111101
1111110110100110
1111110101110100
1111111011010011
1111111100010101
101110
11000
100100
1111111101101111
1111111111100110
1111111110000101
10111011
1111111111110000
11100111
1111111101010001
11000001
1111111111000010
1111111111110000
10100010
101010
101010
1111111101111011
1111111110110000
10001101
100101
1111111100110000
1111111101111100
10011010
1111111111000110
1111111001111101
1111111010101011
1111111101111000
10110001
101111
1100
1111111110110001
10011001
1111111110000111
101
1111111101111111
1111111011110011
1111111111010111
1111111110110101
