0000000000010110
0000000000111011
0000000001111011
1111111110111110
1111111110010100
1111111100101111
0000000001010001
0000000001110001
0000000000100010
1111111100001011
0000000000100011
0000000010110011
0000000001001111
0000000010110001
0000000010010011
1111111111110100
0000000000011011
1111111111110100
0000000001010000
1111111111010111
1111111111000000
1111111111101100
1111111101100000
0000000010101000
1111111010110110
1111111110111110
0000000010011011
0000000001100001
1111111110101111
1111111111110001
0000000000100011
1111111100011010
1111111110110101
0000000001101011
0000000000100101
1111111010110001
0000000000001100
0000000011101111
1111111110001111
1111111110010011
0000000001000011
0000000100111110
1111111100111001
1111111101011110
0000000001100111
1111111101111011
0000000010111111
1111111110110001
1111111111000011
0000000011111000
0000000010000000
1111111111110001
1111111110011101
1111111111011101
0000000001111011
0000000001100000
1111111111100100
1111111111101000
0000000000110011
0000000011010100
1111111111001010
1111111110101011
0000000001100110
1111111101000001
1111111110100101
0000000001010011
0000000001010011
0000000101101100
0000000011100001
0000000101101111
0000001010010001
0000000100000110
0000000100010001
0000000101111000
0000000010000101
1111111111100000
0000000110110010
1111111111011011
0000000000101001
0000000000101001
1111111110110001
0000000001000011
1111111111011010
1111111100001010
0000000001101010
0000000101000010
1111111111000000
1111111111010111
0000000000101011
0000000000111001
0000000010101011
0000000100110100
0000000100100110
0000001110101110
0000001101000110
0000011011011000
0000011110001110
0000011000110110
0000011011111001
0000010101101110
0000010010101100
0000001101000110
0000001000001110
1111111111010001
1111111110100100
0000000011110111
1111111111101000
0000000110111110
0000000111011100
0000000100010010
0000000000011010
0000000001010000
0000000001101001
0000000011101111
1111111110011110
1111111101101000
0000000011001011
0000000100001010
0000000111110110
0000001111101100
0000011010001001
0000010110000101
0000011010100011
0000010001100101
0000001101100001
0000001111010101
0000000100101011
0000001000000110
0000000100101101
0000000101101010
0000000100110000
0000001001100100
0000000000001111
1111111010111001
1111111100000010
1111111100110100
0000000101101110
0000000011101111
0000000100000001
1111111101100111
1111111111010101
1111111111001000
1111111110001010
0000000000111111
0000000010011110
0000001110101110
0000011001000001
0000011111000000
0000100011010010
0000010011010111
0000010111110101
0000000100101011
0000000001111111
0000010010100011
0000000010100100
0000001001111111
0000000101001001
1111111000110011
1111111111110101
0000000011001110
1111111011100011
1111110101000111
1111101000101000
1111111001100110
0000000110110111
0000000000101010
1111111111111110
0000000011100010
0000000010000101
1111111101100010
1111111110101110
0000000100001111
0000001000101000
0000010001010001
0000100011010000
0000101000111110
0000100101101011
0000001011011111
0000000011111110
0000000111001111
0000000100000110
0000010110010001
0000000001111001
0000001111011100
0000010100111011
0000001010110101
0000001000001101
1111110111000000
1111110111110010
1111111000101000
1111110101001111
1111110011101111
1111110011100101
1111111001101110
1111110111001111
1111111101111011
1111111111000011
1111111110111111
1111111111011101
0000000100110000
0000001010000000
0000001111011100
0000100011101001
0000100011111110
0000010101101110
0000000001100111
1111110110010000
1111110110111111
0000000000110101
0000011010110110
0000001111010011
0000001111101010
0000000000111100
1111111000101000
1111111010010011
1111110110000011
1111110101100011
1111101110000010
1111110000111011
1111110011111111
1111110000100000
1111111000010011
1111110111111000
1111111111100011
1111111111001010
1111111011101000
0000000110101000
0000000100100110
0000001101110111
0000010001110100
0000011010010101
0000011110001000
0000010110110011
1111111100011001
1111111010011110
1111110100110111
1111111010010000
1111111001010000
1111111110001011
0000000101000100
0000001011000111
1111110111010110
1111111000010011
1111110001100100
1111110110111101
1111110111010011
0000000001011110
1111111110111100
1111101101000001
1111101101000110
1111111011100010
1111111100111101
0000000010011000
0000000001100001
0000000100101001
0000000101101001
0000010000001001
0000010011110111
0000100001001101
0000100110110010
0000010001011001
0000000011001000
0000010000001011
1111101111111000
0000000001011010
1111111011000101
0000010001100000
0000010011011001
0000001100100011
0000010100011011
0000000110100100
1111111101010100
1111111110000001
1111100001001111
1111110010011100
1111110011000010
1111010110001010
1111011000011011
1111111010010000
1111111111111000
1111111011111100
0000000010111111
0000000001010000
0000000111000010
0000001101100101
0000010100110000
0000010111100011
0000010101000001
0000000001100001
1111111001000101
1111110010011010
1111101000000010
1111110110000001
1111101011101101
1111101111111001
1111101111101000
0000000110010000
0000011110111101
0000100000011110
0000011000011010
0000000110010000
1111101001010000
1111110011100001
1111101100100001
1111001110100011
1111001111110010
1111110101000010
1111111011110100
1111111111111001
1111111101100101
0000000010110100
0000000010110010
0000001001101111
0000001101011011
0000001100100100
1111111110100111
1111111101111110
0000000110100101
0000000111000000
1111111101101100
1111110011001111
1111110110001101
1111110011111100
1111110000111101
1111101111100110
0000010001101111
0000011101111111
0000100100011100
0000111100110100
0000011100010001
0000010111101000
0000000011111100
1111110011111011
1111101011101000
1111111101000100
1111111111001000
0000000010100101
1111111100100011
1111111111110000
0000000011001101
0000000011101010
0000001000101011
0000000000101001
1111110111111111
0000000001100000
0000000101110001
1111111010001011
0000000110111100
0000000101101100
1111111110010110
1111110110101010
1111110100110100
0000000101001010
0000000110100010
0000000101100000
0000001010101000
0000100101011010
0000101001100111
0000101010100100
0000011011111111
0000010101000101
0000000110111011
1111111011101000
1111111101011010
0000000001000101
0000000001011010
0000000100100010
0000000001001101
0000000011101111
0000000000010110
0000000000111001
1111110111011110
1111111111110011
1111111011111101
0000001110010011
0000000111001101
1111111010100110
1111111100001100
1111110101000111
1111101010011101
0000000001110010
0000000000001011
1111111001110000
1111100001110110
1111111000000011
0000011011100101
0000100011111110
0000100000110010
0000011100101010
0000000110000011
0000000101001011
0000000100100011
0000000001110000
0000000000111100
0000000010010000
1111111111011001
1111111110111110
0000000100110100
0000001000101110
0000001001000100
0000000010010001
0000000010000101
0000000011001101
0000001010100001
1111111000101110
1111111110111110
1111110100100000
1111111101001100
1111111111101001
0000000010100100
0000000000011011
1111111011111111
1111110001110111
0000001111000011
0000011000010111
0000011011010110
0000001110001000
0000001100100101
0000000011001111
1111111111111110
0000000011000110
1111111101001010
1111111011001111
0000000000010001
0000000100011101
0000001100100001
0000010010110001
0000001111001000
0000000101110010
0000000101110110
0000000101010101
1111111000011010
1111110000010100
1111111101111000
1111101100101011
0000000111010011
1111111100000111
0000001010110000
1111110000011000
0000001001011011
0000000010001101
0000001101000011
0000011111001011
0000011111000111
0000010100000001
0000000111101001
0000000101000000
1111111110000011
1111111101001011
1111111111000001
0000000011010110
0000000011010100
0000000111011000
0000001001100000
0000001111001011
0000001110001100
0000010101011011
0000001101100111
0000001010100000
1111111101011100
1111111101100001
1111111111011100
1111101110100010
0000000000010000
0000010010000111
0000001001111100
0000001100010000
0000001010111101
0000000100101101
0000000110111001
0000100100110000
0000100000000110
0000010011101001
0000001100100001
0000000111000100
0000000000110011
0000000000101110
1111111111110110
0000000010011110
0000000101010111
0000000100111100
1111111100011001
1111111100101111
0000001100010110
0000001110100101
0000001011110101
1111111000111110
0000000001100011
0000000011001000
1111111111101111
0000000000000000
0000001001101011
0000011110110011
0000001000000001
1111111100000101
0000000110001111
0000000010101010
0000001010111101
0000100100010000
0000010111110001
0000001011000010
0000001100011011
0000000110001100
1111111110100100
0000000001011001
1111111011000010
1111111111100111
0000000110100011
0000000001011010
0000000100111000
1111111000110111
1111111001000000
0000000100000110
0000000011001100
0000000011000011
0000000001011101
1111110111111000
1111110101101001
1111111010010101
0000001011010001
0000010011100101
0000000000110101
0000001001111101
1111111100111001
1111111001101110
0000010011100101
0000011001110111
0000010000110010
0000000101110100
0000000100110111
0000000011001110
0000000000101000
1111111101110011
1111111111001101
0000000010111000
0000001011000001
0000000000110011
0000001100010010
0000000111111011
0000000011111010
0000000100100000
1111111001010101
1111111101101010
1111111011000100
0000000001001101
1111111111010111
1111111011100110
1111110111111001
1111111111011100
0000010110011011
0000001110011110
1111110111000101
0000000010010110
0000001100110110
0000010111010100
0000001010110000
0000000011010101
0000000000010101
0000000001011000
0000000010100110
0000000000001011
1111111100000110
0000000000110100
0000001001001101
0000001100101110
0000010011001110
0000001101111110
0000001110000010
1111111010001010
0000000101011110
1111111110000101
1111111001011110
0000000010110111
0000001100111001
0000000101001111
1111111011011101
1111111100111001
0000000110101101
0000000001011110
1111111011110110
0000000001110001
0000001001101001
0000010000100011
0000000100001111
0000000011101101
1111111111101111
1111111110010110
1111111111111111
1111111111010000
1111111111110110
0000000010111111
0000000010111101
0000000111001010
0000010010000001
1111111101101011
1111110111011011
0000000000001010
0000000110001010
1111111011110010
0000000001100001
0000000010110111
0000000010110011
1111111001000010
1111110111000010
0000000101011101
1111111101010110
0000000011101111
0000000010001101
0000000000011010
0000000111101101
0000001100110010
0000000100000101
0000000000010111
1111111110010110
0000000000000000
0000000001100110
1111111111001101
1111111111111100
1111111111100101
0000000100001011
1111111111001000
0000000100111101
0000001011010110
0000000011010110
0000000110100000
1111111101101010
0000000111001010
1111111011100110
0000000001011110
0000000110000100
1111111100010111
0000000110111110
0000000111001101
1111111100001110
1111111100000000
1111111000000100
0000000001001111
0000000110111100
0000000100111111
1111111111110001
0000000010010001
1111111100101011
1111111111011100
1111111101001001
1111111100001100
0000000011111101
0000000001000000
0000000100001000
0000000000111101
1111111001011101
1111111110100010
0000010010110110
1111111111101001
1111111101111011
0000000000110011
0000000001011110
1111110001100000
1111111110011000
0000000100001111
0000000001101001
1111111110011000
0000000111010011
0000001101111110
0000001001110010
0000000100111001
0000001000100000
0000000001000000
0000000000000010
0000000001100101
1111111110101100
0000000000000001
0000000000110000
1111111110101101
1111111101001111
1111111111000001
0000000101111001
0000000111001100
0000001101011100
0000001101100010
0000010000100011
0000000001100011
1111111110011111
0000010000011010
0000000100101101
1111111010010001
1111110110011111
1111110100001010
1111110011110011
1111111001110011
1111111110101100
1111101110010000
1111110100010110
1111111011101101
1111111110100010
1111111110011110
0000000000001001
0000000000010010
0000000001100100
1111111111110001
1111111101011101
0000000001001000
0000000001100100
1111111111011100
1111111111111110
0000000000010010
0000001011001010
0000010010010111
0000010100100100
0000010011010000
0000001100100110
0000001110101110
0000000011110010
0000000011000010
0000001101010100
0000000101001110
1111111100001110
0000000010100110
0000000000110100
1111111101101000
0000000010011010
1111111110000010
1111111100110010
1111111110101111
0000000000100101
1111111110100010
1111111010011101
0000000000000111
1111111111101001
1111111111001101
1111111101100111
0000000000011111
1111111111011011
0000000001101011
1111111110101100
0000000111000000
0000001010001100
0000001001110111
0000000101111010
0000001011100111
0000000101101110
0000001001001010
0000010001111111
0000001101100110
0000000100001011
0000000111100001
0000000111111011
0000001001110010
0000000000000010
0000000001100011
0000000000100110
0000000011100101
1111111111110110
1111111111001111
0000000001001101
1111111111010110
1111111100000101
0000000000001110
0000000000010110
0000000000110100
1111111111101011
1111111101011011
0000000100110010
1111111111101110
0000000001000010
1111111110001000
0000000001010100
1111111111100110
0000000011110111
0000000101110001
1111111111110110
0000000011001000
0000000000010010
0000000010101100
1111111111101001
0000000001101000
1111111111110111
1111111101000000
0000000010100111
1111111111110110
1111111110011110
0000000000001011
1111111111010101
1111111111010101
1111111111100001
